/**
  ******************************************************************************
  * @file    fourline_data_params.c
  * @author  AST Embedded Analytics Research Platform
  * @date    Sun Mar 31 17:09:39 2024
  * @brief   AI Tool Automatic Code Generator for Embedded NN computing
  ******************************************************************************
  * Copyright (c) 2024 STMicroelectronics.
  * All rights reserved.
  *
  * This software is licensed under terms that can be found in the LICENSE file
  * in the root directory of this software component.
  * If no LICENSE file comes with this software, it is provided AS-IS.
  ******************************************************************************
  */

#include "fourline_data_params.h"


/**  Activations Section  ****************************************************/
ai_handle g_fourline_activations_table[1 + 2] = {
  AI_HANDLE_PTR(AI_MAGIC_MARKER),
  AI_HANDLE_PTR(NULL),
  AI_HANDLE_PTR(AI_MAGIC_MARKER),
};




/**  Weights Section  ********************************************************/
AI_ALIGNED(32)
const ai_u64 s_fourline_weights_array_u64[35146] = {
  0x3d2e10903d0fc6a5U, 0x3cb241f43c822a1cU, 0xbc5a351d3b453e3aU, 0xbe561bfd3d7d31a2U,
  0xbd74dee13d881c67U, 0x3ce645d2be0eec0dU, 0x3d6d0b7cbe046bdcU, 0xbd4bfee93e0314d4U,
  0xbb8443c33d510f80U, 0x3db43021bcb1cdffU, 0x3d4446323c43aefeU, 0x3d9c2ea83cd7e613U,
  0xbdadc6c8bd8e3e4bU, 0x3dd8256abc3c668eU, 0xbd609c793d7ba911U, 0x3e1888d5bc92718fU,
  0x3dfc27c33ba14072U, 0x3d22e868bd9a6025U, 0xbd050e99bcabce3bU, 0xbb2b9a6b3dc4bce8U,
  0xbd75b048bd93e135U, 0xbbe6f379bdd8e65cU, 0xbd26fab63d3000c7U, 0x3dc122793d84f249U,
  0x3d6d0c83bd49a80fU, 0x3d2c9cd9bd3f307fU, 0x3984d802bcba4730U, 0x3cf210253c0f8cdeU,
  0xbc1ab498bdb37320U, 0x3d01110b3dc08d54U, 0xbcb1fa5abdc2c7ccU, 0x3e0a104c3d34651bU,
  0xbd4f7170bdb026bfU, 0xb8a12abb3bcea83dU, 0x3d0c03ca3da8b1dcU, 0x3d3f70b6bd25e86aU,
  0x3cc9d4d73d3152b2U, 0xbd14302f3d1cae20U, 0xbd3098df3caa1178U, 0x3d97dc11bc885379U,
  0x3d8a99edbc9eceb8U, 0xbad594893dd68a4aU, 0xbd2b56443d5f168fU, 0xbd5be74cbc893365U,
  0x3da7a344bc61fc0eU, 0x3d04d5c4bc867b7eU, 0xbc17618f3cdb4831U, 0x3d8b69a7bd5527f9U,
  0x3db533adbc864660U, 0x3d363c91bda11b31U, 0x3d019a9dbe179765U, 0xbce7397bbce5d70dU,
  0xbd00daa1bb72d7ecU, 0xbd506c713c735075U, 0x3d3033a1bc846fd9U, 0xbd48eb76bc50a719U,
  0x3da76de4bd2a559bU, 0x3c3c23f5bd50f4e8U, 0xbd72cd72bda478d2U, 0xbbc408a23cf31532U,
  0xbd8df86ebd870877U, 0x3d5a595a3d41900fU, 0xbc85f600bb605f92U, 0x3d1716e1bcc57604U,
  0x3ce8e739bd4ebc92U, 0xbd3d47c3bbab18c5U, 0x3d899c8f3d383a2bU, 0xbd84c84abd56c834U,
  0xbd82bd3bbcee0b37U, 0xbc8d85ca3cf1fbecU, 0x39faaa263d0aedf3U, 0x3dac12ca3caf12d3U,
  0xbc8cd01bbd162acfU, 0x3d0ae5b2bbb447a0U, 0xbd67106dbd79b779U, 0x3d4a9c773d0d03bcU,
  0xbcdd4b83bca0ad78U, 0x3c3eb9283d3d8cbfU, 0x3d36e7af3d4eaa9eU, 0xbd284711bc7687f0U,
  0xbd9ffd603dab3358U, 0x3d33e0f13d9e7601U, 0x3cd345d53c8f4335U, 0xbc205bc4bd7888adU,
  0xbe094b4abcf2e8d5U, 0x3d3134703d11e4cfU, 0xbe209cbb3cb58572U, 0x3c12154b3d6fcbc7U,
  0x3d0a58a33d85803aU, 0x3d2666813c454211U, 0x3d6fa06b3daaaee9U, 0xbd1f33cabd857bfeU,
  0xbdb377b6bdaa6a8bU, 0x3cb7be733d08e7dbU, 0x3da41d763cc41f51U, 0x3c3788f43d7d28c0U,
  0x3dcb63dbbba3d768U, 0xbdfd778dbcd06d5fU, 0x3c3f7ff53c4ed569U, 0x3d49897cbcd51018U,
  0xbc72f2413d6fad0dU, 0xbddaf3783cb95dbeU, 0xbd57bf133dabe1c7U, 0xbe0eed723d106717U,
  0xbd6694ebbd0b892dU, 0x3d37410cbcfdb62dU, 0xbba85464bdcca773U, 0x3dc796f9bda5f62dU,
  0xbcc2787cbc645067U, 0xbccb58063cdcecd8U, 0xbd4668443c99b4a9U, 0x3c4b5f28bd23fe64U,
  0x3c9036933d09ab07U, 0x3d21caf2bd97ae6bU, 0xbdd12a4c3c5d9e4fU, 0xbc1d81df3ca5f2d1U,
  0x3d59be8f3cc8ce09U, 0xbcf274ffbc6571a2U, 0x3dacb2febd812d79U, 0xbd79bcc93bff6958U,
  0xbb91bb2ebbda455bU, 0x3d4678fabd917e60U, 0x3d43c655be452265U, 0xbe119f47bd70a48eU,
  0xbdbf34983ddedb45U, 0x3d0d7388bd1eba01U, 0x3c00aaa7bd089b81U, 0x3c536798bc4270d5U,
  0xbd304bfdbcc6e2aaU, 0x3d1520ddbd43cf7bU, 0xbd7c9aebbcef864eU, 0xbd9328ec3d039628U,
  0xbc570df03d834d5eU, 0x3dc0aac0be1c272dU, 0x3db2e9ee3d284fb8U, 0x3cb85ae5bdba2030U,
  0x3c52ba8e3de0d6aaU, 0xbd1455933d1eba8dU, 0xbc365d49bcb8bdd0U, 0xbdc19fa1bc43ca78U,
  0x3d1ae272bca2a31aU, 0xbdc960523d17b59fU, 0x3c43cbecbc2a636eU, 0xbc8f0a2bbc94fe30U,
  0xbd27d54e3d9507e6U, 0xbc1d26253dc3e0b2U, 0xbd4e0490bd57d123U, 0x3d074e263d2c97faU,
  0x3ce11e97bb9f8f3dU, 0x3d3badecbde8e6c1U, 0xbca84951bc9fb518U, 0x3db8b10abd80375cU,
  0x3be34eff3d922bc8U, 0x3daac3df3dc66ee9U, 0x3dca24323b9b7b00U, 0x3c48e8313c9ab3efU,
  0x3c72428b3cc533d3U, 0x3d3a0c38bda8941dU, 0x3c95be61bdd2773eU, 0x3dbcbd88bd2d4e6fU,
  0x3d3c4b0dbdf802ffU, 0xbce93ba83d917979U, 0xbdc7c15d3d530c54U, 0xbe3ce8d53dc145ebU,
  0xbd7acb393d6b0b51U, 0x3dfc671ebe47abd0U, 0x3d22f8973d11f79cU, 0xbc7873d53d14c46bU,
  0x3c8d2d243d12272aU, 0xbd42352c3dec00bcU, 0xbcb5d36d3bd7de49U, 0x3cf6f5153d45797cU,
  0xbe161d4dbd5e9b2eU, 0x3ca365dbbcf86476U, 0xbdffceea3e0b3545U, 0xbd81d1e03d9e15a2U,
  0x3d647349bcbd5694U, 0xbd561ad83db2874fU, 0x3d5872243e2d10bfU, 0x3e2e31d13dff3c63U,
  0x3c443abbbdfdc762U, 0x3c36c80a3bf6629fU, 0x3d5ddb443dbbf775U, 0xbda9bfa63dc0b87dU,
  0x3d6dde253e1a22d0U, 0x3de2ed10bd9869f5U, 0x3e192c4f3e34e8c7U, 0xbc49aa583d1eb688U,
  0xbd928075be1b863bU, 0x3de5a35eb99adcf5U, 0xbd70e5163d60d134U, 0xbd0ee90f3e3084feU,
  0x3d6fad2f3d6af2c1U, 0x3da23c37bd87164cU, 0xbd1ed880bca027f4U, 0x3e1aafcebdea6d00U,
  0xbe1d78cebe15a64cU, 0xbdcdc0ac3e2033fcU, 0x3be9abbe3e31e815U, 0xbd5e9d083d68e37bU,
  0x3c58179cbdfb134aU, 0xba476940bd96ba43U, 0x3d6ed11abdce5057U, 0x3d42ab0bbd47d3acU,
  0x3c41f445bdcaebe8U, 0xbcc3a1e43dd28622U, 0xbde4ac8dbc0b1df8U, 0x3e006cc0bdde78e3U,
  0x3ca6cd6bbd56a9a7U, 0xbd960dbfbcf6c88fU, 0xbdf58e33bd136f21U, 0xbcbea1983ca59542U,
  0xbd50b821bbd136b2U, 0xbdadaf7dbdd3f31aU, 0x3d85c5513b40f20aU, 0xbdcdd52e3d3fc569U,
  0x3c36cf863d63cebdU, 0xbc17d65dbd201664U, 0x3ce835d6bca01387U, 0xbdc3e64f3c52609bU,
  0xbd3d756bbda8ba55U, 0x3d6f0090bc0d2423U, 0x3cae2c39be3a0c34U, 0xbd89cb70bcf19d3aU,
  0xbc2ca71cbd0f7e26U, 0xbd91346abdc6aa05U, 0xbb3b5a6dbd679a4aU, 0x3c16d353bcfec774U,
  0x3cc167adbd417a58U, 0x3c872141bdc74685U, 0xbc69dc57bc9e6f7eU, 0xbe09aefebbbdca85U,
  0x3d09ccab3da3fbd2U, 0xbd87dbf8bd25ba36U, 0xbd9cd77c3d98ca88U, 0xbdd7d9d73de54ce8U,
  0x3db5a9cf3c2bde00U, 0xbc45f74f3b7ad406U, 0x3d9746fa3d15f91eU, 0x3dad2b2c3cb0cb4fU,
  0xbdcd75363c21199aU, 0xbd06796b3c579376U, 0x3e00b73f3d58e630U, 0x3da559d8bd1f7de6U,
  0xbd440c20bd9b14bdU, 0x3bcab0a03c070229U, 0xbd70bf5ebcf67af8U, 0x3d4c7e38bda20b03U,
  0x3ce6f541bda16373U, 0xbbc993b9bd0d7916U, 0x3cc450833caef118U, 0xbd9d6b943daf9edeU,
  0x3d729b983da27932U, 0x3cbdc1dbbdcd0134U, 0x3d7c414f3d85d17bU, 0x3dbccedfbdda1228U,
  0xbcc9697abc85e73aU, 0x3d62f7e23d99cf08U, 0x3de01ce6bd1e9d6dU, 0x3de2a06ebd8c65dbU,
  0xbd5508e33d23ba69U, 0xbd469e4a3d183e76U, 0xbd11a950bdf65c90U, 0x3cd893b53dc5c81fU,
  0xbd83f7fc3bc41359U, 0x3d363c323d12abbeU, 0x3c853965bd54bc06U, 0x3c6e4792bd9dd646U,
  0xbd00bbdd3c7045d5U, 0xbd10dc0abcaa16caU, 0x3d01af1fbd1bdc45U, 0x3d36b109bd2c6817U,
  0xbd766b423d851b5aU, 0xbd5d43a1bd4a86f2U, 0xbd30bff83d254c83U, 0xbce1901c3d739fbbU,
  0x3dc98f223da0ec88U, 0xbcf88abe3da9aa9dU, 0x3cb0e5533e2d9270U, 0xbca16637bca45866U,
  0xbc1371f23dcb4ce3U, 0x3df835d0bc3bf800U, 0xbd48e7dcbda7aea8U, 0x3dc975f2bd8a0ce3U,
  0x3baff0043d20c0f0U, 0xbcce6ce03d542a40U, 0x3ce121d93de04e57U, 0x3d60ae2a3dc8485cU,
  0x3bdf746d3c6aeee4U, 0x3bab341abde2d4f2U, 0xbca110d4bcc147a9U, 0x3dab3db3bcdbb514U,
  0xbd370bd63cf8f90cU, 0xbe1fa5c5bc845e30U, 0xbcd83ca13da0b28eU, 0x3d743b273e03868bU,
  0xbd7dfefe3ca5d8f1U, 0xbd7dc51cbe09983dU, 0x3d127282bd4c969cU, 0x3e3471b73dc23359U,
  0x3dbd5336be24a8aeU, 0xbd5ba4193d624542U, 0xbd5e4e8a3c8a8e15U, 0xbbbcf361bdcceecbU,
  0xbc0e5a7d3cb98c4cU, 0xbd71162a3de772a3U, 0xbd9e312ebd9c5754U, 0x3d0d208f3ba5c943U,
  0x3c3da65c3cd4d04bU, 0xbdce2085bceb62e0U, 0xbd0289143d9bc201U, 0x3dbedc40bd894f6eU,
  0xbd38996cbd4c900cU, 0xbd984ef9bdb75f0cU, 0xbd057450bd1c91c2U, 0xbd8d3170bca353c4U,
  0xbd5048f9bb08dd65U, 0x3d83f144bde53d4bU, 0xbbc283fbbdee8129U, 0x3be65dabbd9fcb73U,
  0x3da9036c3d568d54U, 0x3cdaf2c63db5a3faU, 0xbd8a386e3ccc5803U, 0xbd5e89563d4a9b58U,
  0xbd1cbcab3d7f3c4dU, 0xbd4fab303bf70f3dU, 0xbd990f00bc9607baU, 0x3cd21ccc3d526a45U,
  0x3cfd81be3c78df04U, 0x3d4f2f5cbb8e50e4U, 0xbcaea13f3d5ab281U, 0x3c22997f3cd60ac8U,
  0xbd57dcdd3ba99a10U, 0xbd3232f43d1438f2U, 0xbd0988fcbc10fa23U, 0x3ccfaa943d448fd0U,
  0x3c99cfb93dd457b7U, 0x393ff0943dda9967U, 0x3d888b2d3e06a246U, 0x3dd023a7ba9b09caU,
  0xbbbf858c3db50618U, 0xbc18deec3cb98c52U, 0x3d5eacca3d36bc2fU, 0x3cf615913db36066U,
  0x3d3d02cfbbc20f96U, 0xbd462ca0bd96bacaU, 0x3cb442043d72b15cU, 0xbd694a3dbcfc50b0U,
  0xbd30eaaabc09d599U, 0x3d85e2003d635bcbU, 0xbd8b9463bc505e75U, 0xbce80824bd0027d9U,
  0x3cb7e92b3c705ec1U, 0xbc56e40bbd84d575U, 0x3b67072a3ca9d228U, 0x3db31edb3ca03f4cU,
  0x3d68ee3d3c937b92U, 0x3bf9095e3ccef96eU, 0xbc3aa56dbd931f07U, 0xbd84ae6b3bf30f09U,
  0xbcb2a7a43dee7688U, 0xbd2663f0bcac9512U, 0x3cd4d3013d07109eU, 0xbdada7af3d94fe0cU,
  0xbd8f936abddb63faU, 0x3ce0a56fbd9b78d4U, 0xbddc59b73de68062U, 0xbc7fb5773d25f7afU,
  0xbd3cab81bd991216U, 0x3bae0f6a3ca37f2bU, 0x3d010d74bcba6dd2U, 0x3d5bbf6b3d912427U,
  0xbd400c7e3d987d9fU, 0x3bc973ab3d1db7c4U, 0x3c9eaaa63d593c83U, 0x3cfd84f8bd0403c1U,
  0x3d4b8439bd90d4d0U, 0xba633a22bda05c33U, 0xbd94d4e4bbb71909U, 0x3d00e91a3dd7f8bbU,
  0xbd16c0683d5f9082U, 0xbd7c5b503e0fc9f9U, 0xbd0c5414bcc09b33U, 0xbd9f2d0a3bd174d7U,
  0xbc2c96b73d613f58U, 0xbc007381bc164f81U, 0xbaa7717f3d2cf79dU, 0xbd1f7df3bd7e4193U,
  0x3c6701bf3d9e9b97U, 0xbc8cff8b3c96aa91U, 0xbd28bcd03d879078U, 0xbda987573d6f13ffU,
  0x3d337c1d3d4440c6U, 0x3d1b40063d63bf86U, 0xbd24b13cbe092b1eU, 0xbcc65b8bbcbc9844U,
  0xbd208512bda889e8U, 0xbcd209c83dce6d38U, 0x3cba04d33e00230bU, 0x3d27cf303d7200f3U,
  0xbcac877d3ced5f9fU, 0xbc9f5afd3d4eb609U, 0x3d2e9270bd07a5c3U, 0xbd0c0d283dc83002U,
  0xbd4c5297bd8e8b8bU, 0xbbe54d293c5c5131U, 0xbd117dd43d702558U, 0x3d6a20d9bd173036U,
  0xbda809483daeccf1U, 0x3dad1502bb9516cfU, 0xbd3ea2e93d6471a5U, 0x3dfaf5e83cb2f410U,
  0x3cbc3409bc9b0f81U, 0x3cb365c23dfe9e4fU, 0xbd2f50bf3d9aa860U, 0x3993acb8bd4666b4U,
  0x3cb75ff03d513cfcU, 0x3d7892bb3d5f0006U, 0x3b954f5f3c6d9d76U, 0xbc83c6ad3d7bbe92U,
  0x3d7c42bfbd1ac654U, 0xbd132f6fbdd10010U, 0xbcb01a81bd2e7675U, 0xbd5556e43d812f50U,
  0xbdc0a089bd0667efU, 0x3c8844d33d755bd6U, 0xbd9aef21bd0d573aU, 0xbd4fb9233caa9124U,
  0xbd8cb8f33d7354c6U, 0x3d6b49ed3bb12e5bU, 0x3d5489d53d24b852U, 0x3d760d453d4ce7a3U,
  0xbd08b67f3dd7f813U, 0x3dc9ef77bde0f627U, 0x3da6f36c3d8f41e1U, 0xbd033e353d1cef7eU,
  0xbd0f8d60bde0f17cU, 0x3a99b4233d743696U, 0xbd353694bcfe31edU, 0x3ce581593d1dd9f8U,
  0xbd7c8a913d691184U, 0xbd6469c9bca2b977U, 0x3d3a54c33c28a8cfU, 0xbd64149b3b7d8912U,
  0x379306443c7c77fcU, 0x3d912d40bc8d4019U, 0x3dc5c899bdd0c4cbU, 0x3bae72933cdeaf0aU,
  0x3d93e5e93e06156eU, 0x3db5285dbb5ea354U, 0x3c9d20433d7e3efdU, 0x3da131663c9d0223U,
  0x3ba486b3bc2c216dU, 0x3d4a64413c970e0dU, 0xbc9713d3bd4f2496U, 0x3daed97d3dc70e1bU,
  0x3c6ed56cbd4885abU, 0xbc1820703d95425dU, 0xbc2978d93d246f86U, 0x3c13bcc53c30511aU,
  0xbc506e1cbbb2ca42U, 0xbd871cf03dd23e52U, 0xbd1d83b13d2d2de9U, 0x3e0b5b093d6f550fU,
  0x3e00da603d2a0a13U, 0x3d552daa3b0d3629U, 0xbd1860603bf73911U, 0xbd0b6f0bbcada42fU,
  0xbc9e0a32bbad79bfU, 0xbd55b738bde67674U, 0xbda8b615bcb2cc2aU, 0x3d7d62a63cf9774fU,
  0xbc7fc6d1be21ce59U, 0x3db473fc3da40b9dU, 0xbdfb5a1cbcafdf55U, 0xbc638d5a3d8401c6U,
  0x3d4b7bda3d329ee1U, 0xbc7579933d63a48fU, 0x3dc9b8edbcafa764U, 0xbd391478bc941694U,
  0x3e2250ee3b604f8cU, 0xbc87c1773dc73410U, 0x3dc579b23cb1115bU, 0xbdc0aa6d3d841c4dU,
  0x3dbcd0bdbd19a057U, 0xbc082fb7bcd9c5acU, 0xbda769733c220d29U, 0xbcc4a5a53cdb66bfU,
  0xbceb2e4dbd70ae65U, 0x3e1071663b9cebcaU, 0x3dd32f483dd4ac6dU, 0x3d424eeb3db0ccd8U,
  0x3c5ec120be06271cU, 0x3d529f953dbcbdf2U, 0x3caeebbd3c898e16U, 0xbbb63b21bdc6078bU,
  0xbcc233f5bc83917aU, 0x3cac7ff33de09f0eU, 0xbd5e95d93d0954fbU, 0x3d713fca3dc12bd7U,
  0x3e12afecbe04ff65U, 0x3da7f8653dad59dbU, 0x3d0019ba3d64779dU, 0xbda58c823dbe04dcU,
  0x3ccbb5c3bd976e2aU, 0x3c5ca4373c57f9ecU, 0xbd55c948bcfd6f6aU, 0x3d9984bc3e0344acU,
  0xbca7cdf93c961d1fU, 0xbc318bf7ba7b920fU, 0x3d7a986bbd408f14U, 0x3db6e25cbdb38d39U,
  0xbc913f60bcac1b82U, 0x3ca398ab3e0dd3acU, 0xbe0a2f53bdd053cfU, 0xbd27de503d1a3f29U,
  0xbd00b16ebd8c774fU, 0xbcdf6a073dcf8401U, 0xbd0ed9283d5f634dU, 0x3cc296faba9685a0U,
  0x3d5a15293c97f71aU, 0x3c3e05ed3dcf00faU, 0x3d26deaebd1fbfe2U, 0x3d34a9473ddb601fU,
  0xbbf8a563bc295d8fU, 0xbdc09729bd4cbca8U, 0x3c4847893ce7f669U, 0x3db80cdc3e00d25bU,
  0xbbe64d0cbca484d1U, 0xbd2d349c3d85d491U, 0xbdc76412bdfbc066U, 0x3d6187d03c5eb932U,
  0xbd837f323e02750fU, 0x3bc035adbca5c8f8U, 0x3d9e97323d95cd89U, 0x3d94c0203d26915cU,
  0x3d5d60983c404f5dU, 0xbd8084cdbdc5493fU, 0x3dc99b47bd566b4eU, 0xbc3a20f7bd12cc18U,
  0x3de39e773ce2b903U, 0xbda6de2bbc123a2aU, 0x3d077c1f3d07fcddU, 0xb97d7984bcb9316fU,
  0x3bed6aa0bcfe8bb0U, 0x3d7586b63d1a5f92U, 0xbdb102bebde70f06U, 0xbcc26048bd882a96U,
  0xbd9d8cc5bdadadffU, 0x3caa15723d010ccaU, 0x3d881fe7bbd1263bU, 0xbb19d2a23d772f9aU,
  0x3d75e1ed3dfc8078U, 0xbd39b4523de27b93U, 0xbd82a185bd8b5691U, 0x3daac78bbb963512U,
  0xbd079922bd6177e6U, 0xbd2c4bcf3dbde5faU, 0xbcd14a3abc51a81fU, 0x3dc381b2bd541cf3U,
  0x3da12281bc803516U, 0x3e296b27bce13aa7U, 0xbb837feebdc3d8f2U, 0xbda4a1cebcffada2U,
  0xbd00b459bd2576caU, 0x3d52ccf43c1ee6c1U, 0x3cb6c750bddef8fbU, 0x3d94cb153d4565eeU,
  0xbcc5e3f83ce9ab3aU, 0xbdac78293d0a1ea5U, 0xbce2570f3de6bdfcU, 0xbe199efb3d8987bfU,
  0x3db70cce3b95a3afU, 0xbb4ace003c9d38a2U, 0x3ad63c773cf7dbdaU, 0xbe3526bc3c4091d5U,
  0xbbbe82afbd84d900U, 0xbd149dcabd5c18afU, 0x3d8c6eb1be49b4a2U, 0xbd8fc29a3cb18486U,
  0x3d6839e4bd1b7ea6U, 0xbd356cc83d6337efU, 0xbc47ece6bd948477U, 0x3d07be1cbdece499U,
  0xbd7c5af3bc66ce1aU, 0xbb0ca40d3c44e2e4U, 0xbc30a2bcbdf0ea60U, 0xbd4a3a533b55b142U,
  0xbdafd862bab479eaU, 0xbd161b19bd4c6610U, 0xbd50d2f3bbf5635fU, 0xbbf740303dd0089aU,
  0xbd58b4113db85bcfU, 0x3d68c6d6bdeba4a9U, 0x3b0ebcc23d75c6afU, 0xbbe851a6bd06b90eU,
  0xbdc9de0ebd42bd0bU, 0x3e5a97c237cfaa1fU, 0xbdc3fca6bc30f806U, 0xbcd2230d3d4ad2bdU,
  0x3cefa820bdf5651eU, 0x3dbe75ddbd61e83bU, 0x3e06ac2d3da725e3U, 0x3d2f59abbd23ad03U,
  0xbdc8ad84bd7e6ae1U, 0x3dd04ff83b82b345U, 0xbb9684ecbd94070cU, 0xbbbd7148bd8bed40U,
  0x3d8148b13d958673U, 0x3d8c832e3d1decfcU, 0x3dcc5e4abb89b08aU, 0xbd40ef163a6c211dU,
  0x3b8375f1bc3ea15fU, 0xba8391e3bbf3ef2eU, 0x3c19aba2bd470d8dU, 0xbe400dcbbd540d84U,
  0x3c0a86a93cbaefc9U, 0x3e084c753ca620a3U, 0xbc9877923cdf7b88U, 0xbcc909c2bccfc04aU,
  0xbe1949c43e14604aU, 0x3e5c823abd1382dbU, 0x3e2e69223d485852U, 0xbd91d734bd4ade8eU,
  0x3c869c0e3dab1078U, 0x3cca059a3d4cd758U, 0x3c4cab443c1ba6ecU, 0x3cc0f929bc83aacfU,
  0x3d934faebb869350U, 0xbc948835bd03a5e1U, 0x3d5afab0bd69d85eU, 0x3de906693dc65994U,
  0xbd58f99cbcdd51eeU, 0xbda53dc4bcfd7c37U, 0xbd23c17abe02e19dU, 0x3d3115143c9bf0a2U,
  0xbd9f6c673dc900c5U, 0xbd3604c7bc9870c6U, 0x3d9feaeabc84aea7U, 0xbd898382bd348862U,
  0xbd0bf224be29ddf3U, 0xbd0f2d293ca21f1dU, 0xbd9ca1b83c8f0fcaU, 0xbde069373d2169b6U,
  0xbd8b7bba3cfaf204U, 0x3d039dc6be27466bU, 0xbc0dd69cbd2217a8U, 0xbca12edebc5ade3aU,
  0x3c262fe0be02cecbU, 0xbdf6e0c43ce3e9cfU, 0x3d8682d3bd1a29a6U, 0xbde3d04b3d16e052U,
  0x3c08a48bbb5af804U, 0x3d2bb11e3c98103dU, 0x3db8c26a3ceda3c3U, 0x3dbc71513d70fe9fU,
  0xbd517a82be1e3bf6U, 0xbd8b74f03da50f51U, 0xbdc981a53c8b33f6U, 0xbdc7685f3e02276aU,
  0x3ce1c385bd7e3021U, 0x3d6a2d89bc1467aeU, 0xbcbd85e93d618dbcU, 0xbdc9e802bd0664a3U,
  0xbe1ca7423cacaef7U, 0xbe45f4b23d933e6aU, 0xbc1f8e3cbd5a909bU, 0xbcd17681bca8c4a6U,
  0xbdbc4ccebc902f11U, 0x3d496a073b97989dU, 0xbd3be9543c31adbeU, 0x3cf286cdbd2746ebU,
  0x3de542963d8de112U, 0xbd9360cebd7d1784U, 0x3db754d5bd77e1aeU, 0xbe155b663ded035bU,
  0xbd55071f3db35f5aU, 0xbd5e4c3e3ca8fd01U, 0x3893af673af2c395U, 0x3d2f450e3ca299f2U,
  0x3d4576bebda31a6eU, 0x3dacb17b3cecf44dU, 0x3d899036bc24b54fU, 0xbdc72afcbd06c7fcU,
  0xbd05ff8dbd3280f8U, 0xbc9c5ef1be1b56f1U, 0xbdb09c0cbe051929U, 0xbdfea440bde762b7U,
  0x3da64590be12f60fU, 0xbd35ba1bbd4710d7U, 0xbe142817bb3f9e13U, 0xbdcc44643bf23cedU,
  0xbd7b9fbe3b4263f3U, 0xbd1f91f0bda5007aU, 0xbdb419dcbc9f58f9U, 0x3c07d5e3bcb26d4cU,
  0x3c8690da3d4e72b9U, 0x3d19ce983db8de37U, 0x3dd6f7053d2aaa59U, 0x3dbbfeb03e0dc4e8U,
  0x3ca226ccbba3ae3bU, 0x3c5acb793df0302bU, 0x3d6e53f13dfb4662U, 0x3db0041d3e02c0acU,
  0x3d0e1d773d517b2dU, 0xbdce9c7ebe130d0dU, 0x3dc8291bbcf06a5cU, 0x3e252f2cbd4bf75cU,
  0xbe582c16bd254e7fU, 0x3d1cfe583e2b2c52U, 0xbd79aaa53d0758d5U, 0x3d875ec03deaa32dU,
  0x3d1389d6bd8ccebeU, 0x3c2c0fbbbdc9712cU, 0x3c9071b1bd9ee3b3U, 0x3cb33332be0a982cU,
  0xbe77ceabbccaab96U, 0xbdac419a3e2ace24U, 0xbca25e073dc6783dU, 0x3db97a143de7d835U,
  0xbcc6c210bca3e604U, 0xbd373af9bd2c0fb9U, 0x3ba4351fbdc1dea2U, 0x3d477e66bc67390fU,
  0x3d22500cbc3b4c2fU, 0x3dbd42d83d03b3c8U, 0xbc2bbd4cbd7e3e2fU, 0xbd99ba2c3d49f184U,
  0xbd81093dbd7c550aU, 0xbcc99c7fbb5de9b3U, 0xbd90575a3d0d44d2U, 0xbda48b383d0cba57U,
  0x3d9445ca3d98b8b1U, 0x3d5fd286bd4ce27dU, 0xbd2ec2dbbc0f3ad4U, 0xbdc786193dc8c6e9U,
  0x3d9ccc963da75805U, 0xbc6cc3a43dd1ac26U, 0xbc1edc363d36e2c1U, 0xbd4841ac3d75ea24U,
  0xbd1bd10d3dc339edU, 0xbc5199e53cfa4f3cU, 0x3d6d517fbd068d1dU, 0x3d2ab5633d5c64b2U,
  0x3da6ebdebd31fe2bU, 0xbd0902013cbc4de8U, 0x3db34f36bcc6ac71U, 0x3d56cbc03dd4d4aaU,
  0x3d0adc0a3c257d2bU, 0x3d85e29bbd666ca2U, 0x3cd6989f3d48ad67U, 0x3bf535173db01001U,
  0xbda77e8ebcff1c05U, 0xbd17f059bdb066edU, 0x3b03e6c1bdbc948aU, 0x3c4400df3d427180U,
  0x3a8a1f56bd81cd34U, 0xbb59fef7bd8c7377U, 0x3d79449ebe036c24U, 0x3df283573caf3441U,
  0x3de163c43db1d376U, 0xbacea4a53d66d323U, 0x3dca31523cb77ec9U, 0xbd7727b13c8bfbc9U,
  0xbd6f4f01bc8d36daU, 0xbbbc7c803d3ef114U, 0xbd251fdebd3a7843U, 0xbcfdf1c63da3d96fU,
  0xbcc5d47d3c93af80U, 0xbc6622ab3d11f7bbU, 0xbc6500ef3d402848U, 0x3d6b4e0b3c4d23b3U,
  0x3baa68e5bd5bf19dU, 0x3d85efe83d1b6429U, 0xbced953e3d898cb0U, 0x3d3338833d849883U,
  0xbd5d8475bca92c8aU, 0x3a74c0b4bd8476e9U, 0xbd24f5983d791033U, 0xbd40c8fdbd975b7fU,
  0xbd8a50f23d2c3392U, 0xbc9f33083d67f737U, 0x3da0d6a7bd1e0d27U, 0x3cdb12733d77b721U,
  0x3d93031c3d8ac1bfU, 0xbd9f9c163b2beb83U, 0x3d2cac593d700f05U, 0x3c92c1423d3b7bcfU,
  0x3d49de833d945807U, 0xbd483addbc499966U, 0xbc094dd3bd948403U, 0x3d90a6f3bd6ac2f4U,
  0xbc5d26bfbd4dd42cU, 0xbb7c715cbcccc8b1U, 0x3d552084bcd0005dU, 0x3d79db59bb0b9dc4U,
  0xbd96de21bd5ad989U, 0x3cdb63973b3e6abfU, 0xbcc9fffb3db4abbfU, 0x3ba7cf8c3d654c3fU,
  0xbd4639f53da1b029U, 0xba9e2137bd2a2123U, 0x3bb7efc03d49b35fU, 0x3dbd2a153d3dca98U,
  0xbd941e993d34d828U, 0x3d998bd53e07e4a2U, 0x3dc0ff563e0f2851U, 0xbd92c09abcaf6c13U,
  0x3c556fb93ba15c46U, 0xbda27a62bd9f83cdU, 0xbc155b1bbd7d6edfU, 0x3da6e2f83df6cc20U,
  0xbc8b78e93d9b85c7U, 0x3d5649423d1e6df2U, 0xbcc1972cbcec34c9U, 0x3cb155e33cc6f6c9U,
  0xbdb291c23d32daabU, 0x3c297d26bdb089f9U, 0xbde0088e3a7ffaa1U, 0x3d4977e53d2bde1cU,
  0xbd4be7f13c359573U, 0xbdd5003b3c1ee729U, 0xbb9aba503d64cdc5U, 0xbd9f11743c5c6969U,
  0xbd9b719e3cef7d14U, 0xbd8d30d7bdb962d9U, 0xbccea04cbd853e31U, 0xba3c48633c628e71U,
  0xbc4fbddebbd7cb0cU, 0xbd1cc762bc3e1df4U, 0xbd6f7ad0bcbf7b59U, 0x3c033eacbc44bc99U,
  0x3cfa06223e155fcfU, 0x3d739d763e243ba9U, 0x3d6d59dabb845602U, 0x3bfa439d3c4c0a4cU,
  0x3d81c0703d2a9213U, 0x3d9db97fbd019ad7U, 0xbd859abd3cedf0c1U, 0xbb09d25b3d11702aU,
  0xbd253bddbda266f1U, 0xbc3138043e03a133U, 0xbda1953f3d4470e4U, 0xbb90b9843dc8bb21U,
  0x3cab6d843d54231dU, 0x3d7ddf1b3d05219dU, 0xbd64df583d344349U, 0xbdfaa6253c0a82acU,
  0x3d811df5bce1cb35U, 0x3d9649743d91d47cU, 0x3b5733f73c92b125U, 0x3d8f69b5bd780275U,
  0x3c34cc38bdb04d31U, 0x3c298585bce26441U, 0x3cc87daebdc998fcU, 0x3d70fae23d93f817U,
  0x3bfeb0c8bdf3691eU, 0x3db98ca2bd89a49cU, 0xbca462a4bce57d66U, 0xbd90a3df3dacdb2fU,
  0xbdb0817abc1fc5f7U, 0x3dc75f68bcac2322U, 0xbb7540333d534831U, 0xbb1b61463d22b1feU,
  0x3c914b4abd0be426U, 0x3c939c39ba140ea3U, 0xba2410d23df32e13U, 0xbe45b438bc41155aU,
  0x3d87ad873cbbb395U, 0xbd0549073d210464U, 0xbc91b4d4bb5a9e68U, 0x3d2013f23da91ca5U,
  0x3cd6020f3be46db6U, 0x3c961104bd2c1323U, 0x3d76cfff3d4f2660U, 0xbc9e7f16bc8e01e6U,
  0x3b5d692bbdd70e54U, 0x3db9e1ecbcb5cd5cU, 0x3d8dac9cbde38bafU, 0xbdcbb40dbc6c0ce0U,
  0x3c4266b83dae478dU, 0x3d4f507cbdcfc39bU, 0x3cb38890bdb11e1dU, 0x3d86defc3d72c1b3U,
  0x3cc1abff3d04efbfU, 0xbc8cb8f73dbe63b2U, 0x3d0a89a1bc4d5f9dU, 0xbc3d5f5dbc47017aU,
  0x3d4ce3e0bd1c86ebU, 0xbcd5d7cb3c067cf4U, 0xbc52ee393d95ae54U, 0x3c144cb83d5f5563U,
  0xbcfca3b43d046c49U, 0xbca745de3ce1d451U, 0x3cbfcfa43d68cdf4U, 0xbcf3fcc83d93fdedU,
  0xbb9bc8f5bd8d3ebbU, 0xbd446fdb3abfacf7U, 0xbc92c162bbca49dcU, 0xbd8d628ebcc3cacaU,
  0xbd793c80bd8fcbf3U, 0x3c6e8fa03d9285d9U, 0x3ccda8913cdcbb02U, 0xbe0be5bf3c99f201U,
  0xbcbb3f5fbc453050U, 0xbd81c8e2bd2cb64aU, 0x3dadacc73c55a952U, 0xbc81c037bcec1895U,
  0x3d2bda60bac59068U, 0xbd2faf603e0ed716U, 0x3d5fd0533d1f43d2U, 0xbd3a47c1bd4cbae5U,
  0xbe27101c3d408194U, 0x3c36e3e03ce5cfcfU, 0xbd8c64c7bd3a684fU, 0x3bf7bf88bc264852U,
  0x3c8e817b3d361fc2U, 0xbd47be773ce42674U, 0xbb7c2924bd17fd83U, 0xbbdca42fbcd7d404U,
  0xbd1616d53d8a3dadU, 0x3d8aaa0d3da8caa6U, 0xbe2ea5ef3e329ccaU, 0xbc1fb5853e1aa266U,
  0x3def2d33bd1b13fcU, 0xbd9202ecbdf56ad0U, 0xbdc1d0523d633af8U, 0x3cf3c6a03db789efU,
  0xbd2fd615bdeac0beU, 0xbda044f03cc0a8ccU, 0xbe0e0569bdec339cU, 0x3e3a77e23ddfb097U,
  0xbc6de812bd157823U, 0xbc2dbd343d2261aaU, 0x3d2310b13caa5173U, 0x3c4421203b395795U,
  0x3d21cf403c193680U, 0x3cdd86913c97706bU, 0x3d3742d1bd323af3U, 0x3da6d3713d227dcbU,
  0xbdb553c2bd166b45U, 0x3df19d633cc0b046U, 0x3b83c513bdb8d222U, 0x3d9bd9b53dd2ca27U,
  0x3d16d7073d241b87U, 0x3d836051bceed9fdU, 0x3bac088a3c9dc0a5U, 0xbdb607ccbc73bcc1U,
  0xbd1bdf6bbd9ad100U, 0x3d5724c7baed89a6U, 0x3d255c52bde6d178U, 0xbd3632e9bd03de08U,
  0x3d9248a63c888586U, 0x3dfac8d83e0e7101U, 0x3da78ff53d9e1d45U, 0xbc18749a3d8ec534U,
  0x3c6004b0bda9379cU, 0xbd8e03a7bc90aee7U, 0x3dada648be037828U, 0xbd356f30bd25f2dfU,
  0x3d09616dbd93b8b4U, 0xbd250d033d2056e1U, 0xbcffeda93db80b48U, 0xbd0f3f7bba24a4a4U,
  0x3be8ebf4bd6d25c9U, 0x3cb2a9d8bdd2ebbbU, 0xbda8bca3be86be6bU, 0xbdcb318a3d909674U,
  0xbb6e9b293d0343a8U, 0xbd011fbfbd50492aU, 0x39be7b423de3b6f1U, 0xbd8c8202bda62c80U,
  0x3d141933bd850769U, 0x3dd95f1dbe4b9fdcU, 0x3c982283be493668U, 0x3d2d03c73db291dcU,
  0xbdc1aa9bbda91032U, 0xbd4f4df43d552928U, 0xbe0d9599bd950467U, 0xbe53ab3f3d7d38fdU,
  0xbd479bc73e1f7d30U, 0x3c75fd70bd7f39f1U, 0xbc3860e1be33c0d5U, 0x3db7e8aabda2b72bU,
  0x3be3e5973db29a3bU, 0xbd925654bd5a5366U, 0xbac378dbba8d823eU, 0xbd7c8d9d3d9235f4U,
  0x3df68d1f3e08f62fU, 0x3d9cf19bbd1eb6a3U, 0x3b606859bdee4286U, 0x3d2fe5b8bd234f01U,
  0xbdb59cc13df3d146U, 0x3d96d4cc3e0a2a03U, 0xbe0965b1bbab3e35U, 0xbbb31d50bd67f23aU,
  0x3ddfaf5b3d1d8377U, 0x3d2caa38bd6f2e31U, 0x3dbd1799bda54988U, 0x3d9cd5b43d98d59aU,
  0xbcac4a333cab0912U, 0xbd96bce1be10a1dcU, 0xbb305ee53dc3b73bU, 0xbc974f41bb8be9d6U,
  0x3dbde1a9bd1f3cf2U, 0x3d9fa08c3d8c1182U, 0x3daaf02d3d9b967dU, 0xbb538fba3d2f4c28U,
  0x3d775b8d3e12b28dU, 0xbe3a59c43e3e2533U, 0x3ceb3e5abc601aa6U, 0xbc85b3183dd4642fU,
  0x3d73cf30bdb607b0U, 0xbd6ab5433dba5482U, 0xbcde96bd3e172cfcU, 0x3acddebbbca79c9cU,
  0xbd0b4e78bceed0fcU, 0x3c8649193daa072aU, 0x3d9e2e683c97c5e4U, 0xbd4fb0c6bd0fe0ddU,
  0x3c889dea3cff50b8U, 0x3c5652bcbce9acdcU, 0x392c5530bd9a696eU, 0xbd15737dbd9da42eU,
  0x3d8046edbd41524bU, 0xbd3fd60fbbac1688U, 0xbe13320cbdff094cU, 0xbe0bbbaf3db377cfU,
  0xbde8ba453dda0637U, 0xbe227108be4fb7e4U, 0x3cbcf9aebe06e212U, 0x3c56f867bd65abf8U,
  0x3905f436bd8ea389U, 0x3bf6a0103c4920bfU, 0x3ce15b1abcf781aeU, 0xbdbbc52a3dc38fd7U,
  0x3d8f489c3c590458U, 0x3d6c6f95bd519f16U, 0x3d8e6eefbd19aec1U, 0x3db38c9ebb2c4276U,
  0x3d9c37babcdc44beU, 0x3bd07cc83dd1fdc9U, 0x3d50aac0bd1d6123U, 0xbd00a9df3d1b18f8U,
  0xbd88c70cbc9dc348U, 0x3d6f2df5bdb3e9dbU, 0x3bc0d20c3db4452dU, 0xbd4fef4c3ce0880aU,
  0x3dc6d8733d892703U, 0x3da1ad44bd6ad34aU, 0x3cc32f5b3d202ad9U, 0x3e07488b3d1c949cU,
  0xbe194a603a0e40e4U, 0xba8b9252bd38dca2U, 0xbd596a8a3cbd631bU, 0x39acd7233d26a30eU,
  0x3ddcba813d1b0784U, 0x3db82b68bdc21257U, 0x3d9231e43b9ffe3fU, 0x3d8f41f33da39675U,
  0x3d9aaf46be0ba69eU, 0x3d370f813dbfbad1U, 0xbdd8d5d2bb6a435cU, 0xbe1312763d80d6d3U,
  0x3d1fb8acbd97b5f6U, 0x3d32c4f33d9184e2U, 0xbd13b22bbd4c8877U, 0x3a1bfeaebc21a1cfU,
  0x3bbc4f0f3d6d7851U, 0xbdbfc8abbd758282U, 0xbddff79fbd8aec8fU, 0xbd9501113e12e053U,
  0xbdb3a3313db6c964U, 0x3d336ee93e0123e3U, 0xbd7f9c843d741d70U, 0x3d6efc0dbc357aa5U,
  0x3c4f52dc3c82ca2aU, 0x3d27ffffbe32049bU, 0xbd0fc110be26c709U, 0xbd4218533c8a74d7U,
  0x3c9021bcbd56f202U, 0x3d1057b2bd8f3eb8U, 0xbd0b610e3cd1ac18U, 0xbdd787083b8787f6U,
  0xbdaf93b53d9edb89U, 0x3cdf2dc23d93490bU, 0xbd4e52acbc8eb71aU, 0xbd210899bcd5a529U,
  0xbd6b93adbc104a2dU, 0xbdd0046c3d04759eU, 0x3b9359babb1cd5dcU, 0xbe23afb7bcb1a187U,
  0xbca59605bd37a210U, 0x3cc3dbf63c94ad8cU, 0xbc8e3f723b86d6c0U, 0xbdecd5c63cf253b9U,
  0x3d5d73163baaf090U, 0xbdd4e2b73be9d9b9U, 0x3c874e6dbb5e994dU, 0xbcdc71143d4a0134U,
  0xbd9d07df3c264d13U, 0xbd12d1f53cc2eebcU, 0xbd42e7083cb973a4U, 0x3d7588813d776e11U,
  0x3db96983bcd38015U, 0x3d66dc0bbd1a720bU, 0x3d7a2226bdeb0424U, 0x3dbef1103d160e6dU,
  0xbb4b85873d4fe320U, 0x3d7471543d2bc211U, 0x3c6c58353d14d1c6U, 0x3dd5e5333d85d988U,
  0x3b46d25c3d92903aU, 0x3ca232ebbd584ce7U, 0xbd59c464bd9d0e91U, 0xbd3050e2bdd439aaU,
  0xbdbcb8673db61133U, 0xbbe502fa3db1dda0U, 0xbca48b4f3cc24d0aU, 0x3c3cb8673c70f48cU,
  0x3d349143bbb26987U, 0x3d87f4e9bd5c68abU, 0xbc4de36e3dca0075U, 0x3d4df83b3ccfef85U,
  0xbae9a6c43d3643e1U, 0xbd54af9b3b8f9871U, 0x3d355e3c3cb1c666U, 0x3d5d8b4d3ceadd10U,
  0x3df4ce673d6a11b6U, 0x3df62c7e3d2f2b6dU, 0x3c9451b73dc81f29U, 0xbbc2e5513d057f76U,
  0x3b5174b3bd448356U, 0x3cc16c04bd5aa130U, 0x3d4de6493c810953U, 0x3cd1b25a3c662471U,
  0x3c4f8ecabd980b4bU, 0x3c4492e9bc99da61U, 0x3bcfe1b8bb905f3dU, 0xbc4ede9fbbc4696aU,
  0xbbddd0053df4babfU, 0xbd019891bcbc4f3fU, 0x3dc19eb33d24ac96U, 0x3c9b17d43d1f115eU,
  0x3d2436a73dc4bad1U, 0x3d91bfdd3cf0b0a0U, 0x3df86292bdb02c40U, 0xbc88dab43d1f98a5U,
  0xbdbd12463ddbfc4eU, 0xbcbac82b3d7b52f8U, 0xbc607f5ebce275bcU, 0x3b832bbc3cae49c9U,
  0xbd7ec4d5bc1f911dU, 0xbd9265c2bb4f8092U, 0xbd7768dbbd0512a8U, 0x3dd25e933ca4d7feU,
  0xbd84eb9c3d23f19cU, 0x3a0d7d883cad8944U, 0x3d2913f13c67f61dU, 0xbce1a0ea3d689593U,
  0x3cc0acd5bca1cc03U, 0xbccf4c94bd937808U, 0x3be93f1d3a1a70c3U, 0xbd033b0ebbdd55feU,
  0xbde556eabcc6feaeU, 0x3d9c67633b39ccc8U, 0x3d85e1ba3d65a19dU, 0xbd95a64d3d2e2274U,
  0x3cd3fb3dbb6dbbe6U, 0x3c696002bceefc27U, 0x3ce86207bd857ea3U, 0x3dec4e963cdc03cbU,
  0xbbb18c223d64b2e4U, 0x3c5591283d98cbeaU, 0x3c083f133cd20d9eU, 0xbb5e3b20bc7f4edaU,
  0x3d8eb9e33da6413fU, 0xbc5ff2423d4743d4U, 0x3a1c5fed3a4dfe06U, 0xbce8f2df3d8ca6ceU,
  0xbcf125da3d3b538bU, 0xbc48cf41bc105b29U, 0x3c2513dabd9a5dfcU, 0xbda6c5493da95b78U,
  0xbd0b73f0bdc2fdb7U, 0x3c3e6e56bd63f80fU, 0xbb447f8c3c5ce262U, 0xbc769b303bdca4b9U,
  0x3dbd44b7bd20a304U, 0xbd9ea4123d9e7f26U, 0xbca8870f3daeba9cU, 0x3de2c02f3ce7c129U,
  0xbd4ab52b3d738434U, 0x3dbd715dbd059f6fU, 0x3c9e847c3bf1a587U, 0x3da53aae3dc1858cU,
  0x3c7f9033bd4b2737U, 0x3db6cc91bb1c10a9U, 0x3d4ba28ebccd905fU, 0xbda4fc193d3924a1U,
  0xbc28ad5abcd55b3eU, 0xbc6a24f1bd246a1aU, 0xbd90108fbc9b9d32U, 0x3dab22663ca8beebU,
  0x3d1925debd783b09U, 0x3d7de1ad3db5d04bU, 0x3d612da63c70b06cU, 0x3d0c6949bd2d6ca3U,
  0xbd936dd63c5ee086U, 0xbd893305be00e8b1U, 0x3c6598ec3c585481U, 0xbc9acbf13e017698U,
  0x3cf206343d62af23U, 0x3d2bb3b0bdfbfc05U, 0x3dcd8aeb3c0f694eU, 0xbc4eaf9bbd6eeca2U,
  0x3d25550e3ac4e17eU, 0xbdd754773cd3e569U, 0xbcb10c70be1698c6U, 0xb99929be3c2a623cU,
  0xbd89b78b3bfaed16U, 0x3c949ffa3dfdedcdU, 0xbd0375033d92cdc8U, 0xbe057128bcb65d45U,
  0xbb9798a0bd2a662aU, 0x3d4c203fbc0e7870U, 0x3cb28824bcf0766aU, 0x3d4a19b9bd1caca7U,
  0x3ca58557bb9eedaeU, 0xbd728e53bd037fc5U, 0x3d75b6e9b7e66941U, 0xbc5a4c16bd3676fbU,
  0xbd089cd0bcd72a5aU, 0xbd018c333d248a5aU, 0x3c9081a6bd79b8f6U, 0x3d6b9460bc46321fU,
  0x3d8dc569bd2e1695U, 0xbd2ba07cbc25b857U, 0xbd2b50f43c0bf5caU, 0x3d7cda533c60f07cU,
  0x3dcd1fd83d285009U, 0x3c8ec94abd9ba2f9U, 0xbdeb360e3c22c303U, 0xbdfca8973c3a7836U,
  0xbc87ed98bd93292bU, 0x3d47424bbdb422d1U, 0x3d3c31823d03fd8dU, 0x3a4b477d3d4d918fU,
  0x3da177e83cdfd785U, 0xbd7957bb3d9d1230U, 0xbd1913a0bc07e2b4U, 0x3c9df00c3d3f1b3cU,
  0x3d1a2d213dad3f26U, 0x3dabe52e3d6b57dbU, 0x3dc3b7cabc891b34U, 0xbd4c65ce3e0c2482U,
  0xbdd363bb3d245917U, 0xbc3d4eb43dab7f49U, 0xbdd433b33df78480U, 0x3dc9d9bdbd16f8c8U,
  0x3c9959abbce1545dU, 0xbd932f033d7773a9U, 0x3d45c3a4be2f41d9U, 0xbd922f2cbd26b525U,
  0x3d0864fabd357ac8U, 0xbd2528683cbdbe56U, 0xbda791c53d83def7U, 0xbda4a9b23d4c20bfU,
  0x3c44cfc83e1e096cU, 0xbe0e21b63d56085eU, 0x3e303f083de10e5bU, 0xbde448243c1be7b1U,
  0xb8cddeb63e45cb1fU, 0x3e2994573d2cda61U, 0xbd4ee5513d95e807U, 0xbe0f92cabd932b9bU,
  0xbdf63735be362ae9U, 0x3d4c422abd2b521bU, 0xbd94365cbdcc0c2aU, 0xbd97b7f23c1d3466U,
  0x3c39c2a9bd8cd124U, 0x3e59af7a3dba1cdeU, 0xbe0185d33ce8d333U, 0x3d57170a3d5e844eU,
  0x3ce0c282bd344871U, 0x3d820919bcd8f58bU, 0xbd4348ba3db466b2U, 0xbcf059fc3d00467eU,
  0xbc1a7a5ebcbc7c94U, 0x3cfff7eb3e321d4aU, 0x3d628f44bd9d5014U, 0x3dbdad1bbc223ae6U,
  0x3d55b2f33c85a23bU, 0xbcf945653cd2efa9U, 0x3bbc8578bd9b7e07U, 0x3b57779bbbb1215bU,
  0xbd3a008bbd3d75eeU, 0x3ab0ab803d87f084U, 0xbd7972c63dbd46d1U, 0xbc9c1f3b3c0ce33bU,
  0xbd6fb17abdc389d7U, 0x3ad93a273dbe3f28U, 0x3d0170733d0b6201U, 0xba5cdcb93df7b142U,
  0x3de8ec113b23fff8U, 0xbcfaeafd3cf6e0f7U, 0x3cb4335d39f6b42aU, 0xbd56fe0dbc229797U,
  0xbc6005303c80e515U, 0xbbd92ffabc905db8U, 0xbc03c096bce74c5cU, 0x3a1579ecbdcf65dfU,
  0x3da09745bc795052U, 0xbc4607c53dd5b32cU, 0x3ddf8e09bb6cb3f0U, 0x3d5eb135bcbb7affU,
  0x3d8deec9be060fbbU, 0x3d435333bc76a640U, 0xbd96e64d3dc08863U, 0xbd5cd7063d240fe8U,
  0x3ddd91a5bca17425U, 0xbd7ad955be21b553U, 0x3d90e5ad3df47f42U, 0x3dd562973e74d078U,
  0x3d836ce1bca6c2acU, 0x3d8ebe5e3e2905f6U, 0x3b24639c3e17ff8aU, 0xbdb161aa3d62078bU,
  0x3de1eb273d9869a5U, 0xbe845bcd3e27277dU, 0x3da0c4d33d18ef94U, 0x3d29e022bd7264b7U,
  0xbddc910ebcb1eba8U, 0xbe3623273e0265f4U, 0x3c204710bc3cdeb4U, 0xbdfa9d6ebca395c3U,
  0xbc9f55f43c9ed0ecU, 0xbdc3c547bdca5001U, 0x3abd9c2ebda71adcU, 0x3d3c98dabc4a025aU,
  0xbd60b6d2bd6a33dcU, 0xbdda7c7f3d7c791aU, 0x3d977928bd663619U, 0xbd1924c13db6f8cfU,
  0x3d126296bb75b4daU, 0x3d9f38be3d744dc0U, 0x3d1ce7ecbcc3a3e5U, 0xbd7e6b143d09ef25U,
  0xbd1ac751bdb87dc8U, 0xbcb5a93d3cdcf7e6U, 0x3c86bcb9bdd87a28U, 0xbcb37f7dbbd89568U,
  0xbe23a8b63c869bb3U, 0x3bf50985bd106791U, 0xbd585c633d62e2bcU, 0x3c99930fbdd54548U,
  0xbc71b951bba2597fU, 0x3d96d8483c9cba86U, 0x3b7553063a253d16U, 0x39dd2d643d0599b9U,
  0xbdaa3cacbc296b69U, 0x3ae60968bbbdd037U, 0xbde95ed0bd5d4cf1U, 0xbd196f273cc468dfU,
  0x3d3c8bd8bd4ade93U, 0xbd3b0732bda12c91U, 0x3d9e50bc3d8bac46U, 0xbd1d69a63d89ca16U,
  0xbe163cd63c8860d5U, 0xbda83e63bd4c9e3eU, 0xbd4f5e953c890a00U, 0xbdfb613ebc8b5103U,
  0xbb1993c63c8ccc34U, 0xbbdb10cfbdfe4fb2U, 0xbe327a9fbe1a3587U, 0x3ddd404bbc340f65U,
  0xbdd77b18399605a2U, 0xbe17c9e2bd4ab2edU, 0xbcecbb95bda9bc76U, 0x3d68b0423c4071c4U,
  0xbd7278cabbcae2bbU, 0xbd999948bd64e3e9U, 0x3d1644e6bd437737U, 0x3d05aebfbdb05bd8U,
  0xbe3971553e096c95U, 0xbdede7883d9bc8d2U, 0xbde6ef023d839a68U, 0xbdaf35e73cfe74c9U,
  0x3ccae32e3d37c5cdU, 0x3c6975a4bd1553edU, 0xbdd0db06bdbc575dU, 0xbd742efcbd8fd532U,
  0xbd9f8727bc120bddU, 0xbe6a97dcbe13960bU, 0x3d3b187dbc69cb07U, 0xbe00dd593beda2c6U,
  0x3c8990463c8cb680U, 0x3ce68d9ebdcc8522U, 0xbc9b91683d96f1e3U, 0x3dc6bbf7bc188f47U,
  0x3da4f3513e0187e9U, 0x3d2f9c3e3d799736U, 0x3de4178bbcff66afU, 0x3d73394bbcf95e50U,
  0x3db8ac07bcb587dcU, 0xbe4f8afd3bbfbb4cU, 0x3cc969f3bc0294daU, 0x3d587f02bd2c474aU,
  0x3d794b0c3d17f28eU, 0xbd8f62253d4f9917U, 0x3d0d9344bd192d1eU, 0xbbeedfc13d856807U,
  0x3ddf1320bdaca3f8U, 0x3d34ea00bd32468bU, 0x3e2a17f13db1e2f3U, 0x3d6912d43d968408U,
  0x3bf52c5e3c41e9f0U, 0x3d8fd37bbc359905U, 0xbd96883bbcb523c7U, 0x3da30315bdf56b28U,
  0xbcc6f031bad494c2U, 0x3cabedf63da929f2U, 0xbc003dd63d2358caU, 0x3d06a8f13d3547ffU,
  0xbd43c39fbc0e1780U, 0xbd102ed6bd726ca6U, 0x3d7b3c5b3d52b1eaU, 0x3e1585be3ddf4972U,
  0x3d02680cbdc5548fU, 0xbdc61f303e057ba7U, 0xbddf69753e1e8595U, 0xbde0ffc93ba9ae56U,
  0x3dc4687ebc9bdf35U, 0xbd0b23703d88929eU, 0x3d5fc363be11ebc5U, 0x3e1f32fa3c4d6f48U,
  0x3d0771c5bdead92dU, 0xbea1fb0d3df99c7dU, 0xbcb2fb7f3cedd6d1U, 0x3d0d08133b2888f2U,
  0xbd9fc11ebcb501f4U, 0x3d1783613d3b17d7U, 0xbc976531bdfa30caU, 0x3d6ba6bbbd97ed51U,
  0x3c0020063d8e5e0fU, 0x3d9e83223dce3794U, 0xbd8055cdbdcafce1U, 0x3e01bc50bd9b7530U,
  0xbd09ba673e17951cU, 0x3ce02f7b3ce77c35U, 0xbeb7b20c3e9f95b1U, 0xbd1def25bcdc4c08U,
  0x3dfb52653d8fb600U, 0xbe0c631abe0462bdU, 0xbdf4c4dabdfe4009U, 0xbda96ababcccae05U,
  0x3d91b3933e10f195U, 0xbd91c8a1bd4031b6U, 0xbdd7de823bead99cU, 0xbde76a1ebdbb81e6U,
  0xbdad980e3d6cb520U, 0x3d26551cbe392e1aU, 0xbd0de234bce88c93U, 0xbb880f9dbd58f856U,
  0xbde23705bcbac3cdU, 0x3db865243d7bb50aU, 0x3d9fff4cbd3b01b4U, 0xbde3d6bc3c99f255U,
  0x3c9d29d93c23e5eeU, 0xbd88af88be0aeddcU, 0xbdc6f7fabda6af10U, 0x3c82b24fbcfe0cdbU,
  0x3d90f279bdef14bbU, 0x3da0881c3dba8f72U, 0x3e0249c43ceb355aU, 0xbebe73bfbd4242b3U,
  0xbe217f213ca59b04U, 0xbd10539ebcf1c8ebU, 0xbcab5bcb3e076450U, 0x3cd2ea12bd856995U,
  0x3d2c36ff3d75661cU, 0x3ca12ecbbd74bcf9U, 0x3d9048d83cd6d3c0U, 0x3e21d2923d14abd8U,
  0x3d492b6c3d64e20eU, 0xbdca1dea3d2c6797U, 0x3b8492d53d57aa41U, 0x3d72e692bd836a9fU,
  0xbd14e312bc64812eU, 0xbc8e9e0abdb53347U, 0x3d8d6c223b93bf50U, 0x3dd96f2fbd729cf6U,
  0x3dba6c4c3d9f78cdU, 0x3d8d7aaa3d8f74d4U, 0x3dfad759bd6612b0U, 0x3c2ee43b3d78e9aaU,
  0xb832cd3abd3f3dacU, 0x3d1de2e7bdbf8011U, 0x3def4bd6bcada843U, 0xbdd2eba0bd83b06cU,
  0xbb86dcbc3d84fff8U, 0xbd853b58bd272539U, 0xbd2a165dbd4bdb06U, 0x3d81a4283c873143U,
  0x398465153d3a6289U, 0x39c3704dbd2cc284U, 0xbb70e77b3cd3ea54U, 0x3d34cb623c040a0fU,
  0x3cd1e5ab3d5bd8e5U, 0x3da6ba7abd584f22U, 0xbc02e9113d9b7e3eU, 0xbe28d4febdfe591dU,
  0x3d3ae226bdc5ee5fU, 0x3c0364c0bc2d12ccU, 0x3dc4643dbd25807dU, 0xbea1e7c839d85509U,
  0x3d95e54f3dcdb844U, 0xbcd59078be923f93U, 0xbd1c4864bd9a0993U, 0x3df032713d18130dU,
  0x3d33aff03dbf5b5cU, 0x3c2317a1bdff7eceU, 0xbcec57923da1848eU, 0xbd890b6dbd0f455eU,
  0x3d7fa6423df91837U, 0x3d96e9b33bee2743U, 0xbc8fb0ec3cdffa53U, 0x3e0e99a63cd83716U,
  0xbd395e0a3cd4e2beU, 0x3d8da9ca3bc566b4U, 0xbc21ce0abd6d4305U, 0x3dbc13a63caff1c7U,
  0x3dcf3a323c92a252U, 0x3d8ce24dbd052279U, 0x3e002700bb915ebeU, 0xbd2f23ef3d84d111U,
  0xbc9c9cdbbdbb4872U, 0x3cc7d3a2bdddc09eU, 0x3d601da43d956c35U, 0xbc8b1f1c3d924cd0U,
  0x3d01a8903d0a0dbbU, 0x3cc6afde3d90111fU, 0x3ddc4333bb856199U, 0xbd0571cfbd636768U,
  0x3b1b1669bb37904bU, 0x3cf6f3e4bc8eda57U, 0xbd71ffc1bd33e7fcU, 0x3e00f8943c9df99dU,
  0x3d57982c3cb774e7U, 0x3d078234bd8facaeU, 0x3d8680c9bc45a740U, 0x3d88d94b3c489b4bU,
  0xbd01e8c8bda83f18U, 0x3cd0e9e13d8eaaabU, 0x3ca9ad75bdcf71f9U, 0xbe4869753d06f1c6U,
  0x3c12b8f1bd190392U, 0x3d5c5b05be58f73eU, 0x3d80a056bde3960cU, 0xbd49725c3c93b198U,
  0xbd5678a4bb8ff20fU, 0x3d37a2f6bd224b51U, 0xbcf1b415bc356443U, 0xbdb8e7fd3baf61f8U,
  0x3d11ef113d005204U, 0xbd786ebabe1d7ddbU, 0xbd51b4e83d95c344U, 0x3ca9dcfa3ba84ff1U,
  0x3c86eafe3c9b516dU, 0x3d9ef57f3d98dfbeU, 0xbcc707583d5f0579U, 0xbe231811bd43179eU,
  0xbdbd462a3cab2fa0U, 0xbd7bb56ebcacb652U, 0xbc9fc120bc034c4cU, 0x3da35de13d6cc0a7U,
  0xbd17ce883d7e1e1eU, 0x3c9190213d2e3bccU, 0xbd51d78ebd2b8d2aU, 0x3d3a3ff73cb47dcaU,
  0x3d1bfcd5bd409278U, 0xbc38cf5d3dc3a6e3U, 0x3ca49d6ebbd246fdU, 0xbd0861b3bba2355bU,
  0xbc9b734b3dbd54bcU, 0x35516c403c8e6e59U, 0xbc498dd7bd1c9490U, 0xbcfc16273d14c84eU,
  0xbd1366eabe0df85dU, 0xbbf456dabca8d4c0U, 0xbdc2c45c3b8c9375U, 0x3d1f5af73c405d17U,
  0xbd3d4493bd2c1edbU, 0x3d6ecab63c54d195U, 0x3dd1e05a3d0a463cU, 0xbd91b0adbc45796fU,
  0x3dc0c8bd3d0309e4U, 0xbd844f933bad2e45U, 0x3d94396c3c2c3716U, 0x3dd33185bb0d8a12U,
  0xbd50c574bc191f4cU, 0xbd4c40c6bba1e563U, 0x3c8d5f083d2157f7U, 0xbc6debfe3ccf94caU,
  0x3da2d36cbd58af96U, 0xbd960d583caffbe5U, 0xbd52b745bc808f8bU, 0x3db3a35e3c5ee5d8U,
  0x3cc53b553ddb68c5U, 0x3cf142763c76c5d9U, 0xbcb3790abd70f103U, 0xbcb8d7483c19dfc5U,
  0xbce06df53ca51479U, 0xbc5dc155bbe6f44bU, 0x3cef5eedba94d94aU, 0xbdd82adb3d7d5e61U,
  0xbd754ee43d9f2476U, 0xbd02ef683d27f09bU, 0x3d87dcf1bc8812f4U, 0xbe25d8bbbcc5f13eU,
  0x3d6417cc3d7fdf30U, 0x3d4944553c9c009cU, 0x3c921fa7ba7ab6d5U, 0x3cfc8d753d5180e1U,
  0xbdc49e10bd15a9a0U, 0xbdacfc00be19bf16U, 0x3bd44aed3d120e8fU, 0xbe205554bd134aceU,
  0xbdf65a57bcb80334U, 0xba9d863ebcaf7a10U, 0xbd5458c1bdc63b2aU, 0x3b0c8ec63d754428U,
  0x3c757441bce33997U, 0x3d592728bc89f065U, 0xbc770f85bd92342eU, 0xbd33ea70bb7637c2U,
  0x3bc9138abd91c360U, 0xbd013fdabd8d5657U, 0xbde243463d6a6db2U, 0xbd8a0c0dbdca381bU,
  0x3b0d1458bc326f23U, 0x3d3412503dd24f4eU, 0xbdce16a7bde7fa7dU, 0x3d95a63abce57adfU,
  0xbda4646cbc672d2fU, 0x3d8386f03d8acdf6U, 0xbd15932fbd58ea32U, 0xbdd0d7e0bd828568U,
  0x3d8100193d40a9c1U, 0x3d211c4dbd51e9c7U, 0x3d89566bbcad8770U, 0xbd9e41c23dbb7721U,
  0x3d70812e3d2e8d84U, 0xbce672b63d7a4a89U, 0xbdb933403bbb3012U, 0xbc471b353cbf368eU,
  0xbd8095a43d162655U, 0xbcac41c4bd0d512fU, 0xbe052c943d6524baU, 0xbd1ca6173cc360c0U,
  0xbe1e656a3ca97cf5U, 0xbcc8ebfa3e6ed882U, 0x3dae94173de4f3cfU, 0xbda7cdaebce61c51U,
  0xbd48c2dbbdca6a0fU, 0x3da97374bd8bdc55U, 0x3d8f36863d9b87baU, 0xbcc9805cbd9ae38bU,
  0x3d6389a5bd1bfe93U, 0xbcbe1b83be0e8e54U, 0x3d84bfe1bd8e6a93U, 0xbd8102b73ce3a062U,
  0xbd9d9fe4bdd7da5fU, 0xbd304db13da162e9U, 0x3d25090ebd8a00a3U, 0xbcec4bd03d2e9ecaU,
  0x3dd4d19c3df888ceU, 0x3a974127bcac68e9U, 0xbc80ec07bd0d4e89U, 0x3db6fe1fbcc8ac0fU,
  0xbc9230b53cc70a78U, 0x3d4db84b3d105d09U, 0xbd3ec28b3d0017f3U, 0x3dbd1afdbcdf937eU,
  0xbd2c00e63d466f5eU, 0xbd5aad013c59f249U, 0xbc60de613d553a9aU, 0xbd2776be3d38fb2cU,
  0x3d2c54a63de59790U, 0x3ce9e0b43d8d8090U, 0x3c4ea5f23e04727eU, 0x3df471123d5e664eU,
  0xbdaa2fb03c2fc2cdU, 0x3daa017cbb9ecfdeU, 0x3e0f2c253d1b5997U, 0xbd49efa9bc6f09cdU,
  0x3d7e72e9bd72a99aU, 0x3c606b1a3da78dadU, 0xbc781ea23cc56ea5U, 0x3d4eee17be090788U,
  0xbdcdb067bdd6dde7U, 0xbdc7b4cabd3f62b1U, 0xbd1c3ace3dfd5b28U, 0x3deeff8e3d934eacU,
  0xbd87c143bd6c752fU, 0x3d72b0873d0c6f97U, 0x3e17f67bbd857d97U, 0x3c3549d1bbfc9193U,
  0x3d1f85c63da75d5eU, 0xbdc3a50fbcf7ecf2U, 0x3c23a59d3c0fde6eU, 0xbdad33c03cda7f96U,
  0x3d4d3c0bbb2a820cU, 0x3d97e5473b08f1deU, 0x3cdfe26dbcf7ebc3U, 0x3cc7af6c3ca69a6aU,
  0xbd9d6ad9ba9e4abbU, 0xbd857554bd0696b2U, 0xbd19b293bd12cabaU, 0xbcdd9fc4bc10b4f5U,
  0xbd9d041e3ccf6636U, 0xbd9922b53da1e4f2U, 0xbdaac963bdffe775U, 0xbe06704d3d9b1421U,
  0xbdbd6ae63cf57b29U, 0xbdd73ba6bc48469bU, 0x3ca88c203cf6c254U, 0xbd93156c3d47a67eU,
  0x3e0b2555bb599f26U, 0x3e98fa5bbd01e9e4U, 0xbc557ffdbbe87d2cU, 0x3dd6c0b43d84e420U,
  0x3d48bfbebd80537eU, 0x3d2172ebbcdf2f27U, 0xbd3d07903da38560U, 0xbe2ae2a43c370e7bU,
  0x3c8248ce3d81fafdU, 0x3b0c1dc5bc9e8851U, 0x3dca1a393de63f15U, 0xbb1ba884bdcbf8a0U,
  0x3bd43400bda36613U, 0x3d60f5353db2f5b3U, 0x3d14d62bbd694300U, 0x3d1f1cf93e077bedU,
  0x3dc3b9893dec87c2U, 0x3dee798c3d0ff58cU, 0x3d7e937fbd8bd3c0U, 0x3d94de0a3c18f892U,
  0x3e272cd7bdb486e9U, 0xbd8b26f9bc620e44U, 0xbc6b411bbd7bd749U, 0xbd58bbfe3c8328bcU,
  0xbdb25220be2acac3U, 0xbd1123dfbe13036eU, 0x3d4c1dcdbd1e7636U, 0xbd7c00473d494144U,
  0xbc16d77b3dce30bcU, 0x3da37a75bc299983U, 0x3deb3847bdd8d517U, 0x3e0fa3883cda9275U,
  0xbdfc87dd3d02a359U, 0xbe3f35e03cfd77beU, 0xbd8045823cc1cc3cU, 0xbe01c5d03d4276ecU,
  0x3c696c683d9cc2f6U, 0xbd9ab4e9bc094a90U, 0xbe059fd0bde53ff3U, 0xbcd3c49a3d3c9580U,
  0x3e0fd94a3ddd44c1U, 0x3cb6f99bbd26ec35U, 0xbdabb17d3de4e5f7U, 0xbd0144eb3d90a132U,
  0x3e0d73c43dcb7487U, 0xbd20d17bbd9c1e40U, 0x3d7803733daa5917U, 0x3d7d8a853dbee891U,
  0xbce30c4c3dcbba9fU, 0xbc853f0c3d8f3e4cU, 0xbd8d4bdfbcf010a8U, 0xbeb38edc3d81b00bU,
  0x3ded3338bd6e28e5U, 0x3d680feabe11fdb4U, 0xbda0b4043b6ec322U, 0xbdc10e7d3c9a428fU,
  0x3c534b043e298291U, 0xbdae55a0bd9824a3U, 0x3d851a6cbc931ab7U, 0x3d643d57bddd1e05U,
  0x3d3d62e03d7f015aU, 0xbb9e505a3d827a45U, 0x3e156235bd1a7552U, 0xbdda384d3db8ea30U,
  0xbcc630dbbd7b4592U, 0xbcfbf8febd05706fU, 0x3d95e342bd1b28d7U, 0xbbf84febbb70be56U,
  0x3e39c4043e0045d5U, 0x3cb387873ca90d24U, 0x3ddc40a4bd3a3ff7U, 0xbdf4a7e33d54447dU,
  0xbd5b4b5b3c6aeaf0U, 0x3bfc95eb3ca20bbeU, 0xbcc80ee8bd71aa24U, 0x3e537ec93dcab5a2U,
  0x3d39ffa13d897864U, 0xbdb072193dfd9019U, 0xbe19db073e05ea3dU, 0xbc843f913d0b854aU,
  0x3de87f7cbcfc1db0U, 0xbd43b22b3d5e9defU, 0xbc6ad9bb3c268339U, 0xbdd91f033e032438U,
  0x3cb3b6ce3c5ea06dU, 0xbc66caebbcde9b73U, 0xbddfcb31bc437488U, 0xbd6a16c63da8df3aU,
  0xbdb5156e3d155236U, 0xbe36196c3d6aed8dU, 0x3d39a85e3d23626eU, 0x3d89ea36bc9befe4U,
  0x3d972a58bba4d0f7U, 0xb92c1c203da1fcd1U, 0xbd80247f3d08c8c7U, 0x3dc63d8c3d42654bU,
  0xbc2629b1bd8f3a34U, 0x3c3b80573b7bbccdU, 0x3d749772bd3b3080U, 0xbe1c9603be321cebU,
  0xbe1e61143d8eda06U, 0xbd1c3eb5be3ce648U, 0x3daa2fd2bdbb2dbeU, 0x3a33b5efbd8d88adU,
  0xbd2e557a3e0017a8U, 0x3ccb8b26bbb00fceU, 0x3c87f3de3e07980eU, 0xbe7bb28fbcd2d54eU,
  0x3e0d0873bcd0d23bU, 0x3cc77fabbe8e1428U, 0x3cb07440bd9016bdU, 0x39a8bd9dbc614f23U,
  0xbab5984c3d15ebdcU, 0x3d4965023d8183a9U, 0xbca8a5ab3d315412U, 0xba811da13c62ed37U,
  0x3dc87ab93cb2de81U, 0x3d214ba9bcbf59a0U, 0xbdc5b3fcba3dfc68U, 0xbd91da473d6e5ce0U,
  0xbc5f6177bd2c46b5U, 0xbe5baf333d54d6b7U, 0x3d92e617bbb73cc8U, 0x3c7a6bb0bbd87cecU,
  0x3e0a632f3e47e281U, 0xbe92ae2fbc54c82cU, 0x3e2d8fd5be161144U, 0xbd4081913d578611U,
  0xbd92abf5be58351dU, 0xbdd3d4173dd72d21U, 0xbdc12e25be4cbb68U, 0xbe2db5d5bce1fcfbU,
  0xbdc19eb0bd69eb05U, 0xbd04b427bd3c14d3U, 0xbd41fa76be81cef3U, 0x3d22ffbfbda9e1c4U,
  0x3c075bd8be181b2aU, 0x3cda25d2bdde3d8cU, 0xbd4e2f94beabd7c5U, 0xbe205e1c3da208d6U,
  0xbe15b0683d865fa8U, 0xbd4be116be637089U, 0xbd02c40ebec20819U, 0xbdaa935e3cb0e77cU,
  0xbdd4f4c2be5816f5U, 0x3d891b303d9e2a7eU, 0xbe5e22adbe2a6e1cU, 0xbec2f76a3c97ef2bU,
  0xbe47e92ebc09669dU, 0x3d74fdb6be923a20U, 0x3bb20fc7be99c559U, 0x3c563e9ebcd68f63U,
  0xbcb1970bbd9f6dd3U, 0x3d7bceacbce065a7U, 0xbe06a5ea3d9591f7U, 0xbe2599203c71aa91U,
  0xbcde28a83c75a7a3U, 0xbd57ce7cbe37d1f7U, 0xbc4263263ca9c805U, 0xbadebe363dabe3b1U,
  0xbdf30db3bd7447f4U, 0xbd2cae173d807236U, 0xbc3f89ecbd77e7dcU, 0x3c378a00bdb4d1c7U,
  0x3d9b9989bb2c42caU, 0x3bdea5e93d489445U, 0x3cf79bbbbdd94f41U, 0x3d39ad003db5f564U,
  0xbdab5ca03cba30c3U, 0x3d8a2e463cdc0fedU, 0xbce2dbb33dca34b3U, 0xbe0407eabdc2e38fU,
  0x3d6636e93da85d79U, 0x3cb60d6bbd8731c7U, 0x3e06c17fbd84d265U, 0x3e191bfdbd568b02U,
  0x3d1bcd01bdac8621U, 0x3d4c09073dd11377U, 0xbdf71e2f3d42486cU, 0xbc63336f3cfcdb48U,
  0xbc2ad495bd79a346U, 0xbd455ffbbc0e6ca1U, 0x3d490c2dbcb13ee0U, 0xbcb7949abd41986eU,
  0xbce498cf3d9478abU, 0xbcf5ac253c33d165U, 0xbd052ddfbde3a6acU, 0x3d9816353cc3aeeaU,
  0xbc6260d93e3573a9U, 0xbd8b512dbd4706baU, 0x3d8ab36cbd1eef95U, 0xbd5e9a8d3d33d3a7U,
  0x3d96f24bbce10b0cU, 0x3dc6462c3d1021a6U, 0x3cf1fd1cbe2a5ca7U, 0x3dd979a2bd96b805U,
  0xbcca8313bc8ba7f7U, 0x3cc082533dc72e39U, 0x3e0262fa3cc4ada0U, 0x3ce526f5bc209e2aU,
  0x3dede98ebda4e783U, 0xbd0879583cec5267U, 0xbd03d72a3d8638d9U, 0x3cdc3b5c3bafadfcU,
  0x3e27c349bca00b6eU, 0xbbe14e543cd095fdU, 0xbdc69fe83bf57f95U, 0x3b616b993d09cb3cU,
  0xbc5d7c373d6adbcaU, 0xbd23b0ef3b9f6808U, 0xbd2b9188bd131bebU, 0xbdc6f247bdcae5abU,
  0xbdecea293a82ff0cU, 0x3c2b1cf7bde56966U, 0xbd104572bdbc2394U, 0x3deecacb3d3e5955U,
  0xbd4ffe323c45498cU, 0x3c63131bbd0dc1b5U, 0x3b2837473deddad8U, 0xbe388ba6bc3ab643U,
  0x3e190d033e2d4b70U, 0xbd479f49bc8f398bU, 0x3cf98059bd969ef8U, 0xbda5da88bd54e026U,
  0x3d29c130bd09db01U, 0x3b893cf53bab5fa2U, 0x3cd426e0bda8ef71U, 0x3d14e7693d07c8d3U,
  0xbc5530eb3c0a4c9cU, 0xbd9480453b4f1eccU, 0xbd803705bd4791b0U, 0xbcbd522fbc8584f7U,
  0xbdc86032bd6fa95dU, 0x3dec27e8bd54065eU, 0x3d0d28db3c1c4355U, 0xbd60c995bcce2fceU,
  0xbdd96e623dc4bd44U, 0x3df182f5be029670U, 0x3d0fef88bd0a7d48U, 0x3e35327c3db378e2U,
  0xbcd623ffbd1a1707U, 0x3bf871543d9e9da5U, 0xbd9bf8d43e02bc1dU, 0xbe8a165dbd41ea22U,
  0x3d57129e3d3ebcc3U, 0x3d698339be881425U, 0x3d0160e6be44113bU, 0xbd434cd53d211767U,
  0xbd674deb3d911096U, 0xbcc7901d3bf2ecaeU, 0xbe1d68ca3bdc2dc5U, 0xbd99c6d03d9f3971U,
  0xbd1ee1d93d03d494U, 0x3b645d72be81ca0cU, 0x3b07debfbbbfa595U, 0x3d391e03bce5b1a9U,
  0xbc8bd5f0bbb5286dU, 0x3d883fca3d9daed8U, 0xbdb4e37a3cadc48bU, 0xbda9bfc53d1dc9cdU,
  0xbe0b3185bd51b225U, 0x3c3a07cbbde6a370U, 0x3da66f9ebadccfa7U, 0xbddf1cffbbd9c6deU,
  0x3c871e4fbda2477eU, 0x3c9086a63d36fa83U, 0x3d9c20433d889206U, 0xbd54b0ec3d87b04cU,
  0x3dcead273dbc5600U, 0x3da51d2abce20dbaU, 0xbccbfbf13dd838dfU, 0x3dab6e2bbd5a69c4U,
  0x3c9c3b483d5e1509U, 0x3c63a93f3c12fc1bU, 0x3ce28474bcc171c1U, 0xbd40c9d5bcfa5db7U,
  0x3d5ca6853e173ffeU, 0x3c5b13c53c763b6cU, 0x3de438d93d3f7782U, 0x3da36d8cbb82d574U,
  0xbd4c9478be2f7d4fU, 0x3bf5405f3cf6baf5U, 0xbd57628cbdd4dde9U, 0x3c7bc8dbb7b61d99U,
  0xbbc4e1da3c15b993U, 0x3cdb6b01bce1f40aU, 0x3c5a94713ca81d92U, 0xbb6864d1bc16caa4U,
  0x3d430a91bc8f8c6dU, 0xbd920c213daac4d1U, 0x3ddc029b3dfd14fbU, 0x3a96be00bdbf941aU,
  0x3c6ba5683d093806U, 0xbc751ca53d4efa6aU, 0x3dbdb1d43d03c9d0U, 0x3db697f8bce80815U,
  0xbd71ed96bdc34a75U, 0x3da39427bd606444U, 0xbd1703943daa0fa4U, 0xbd5eb3eb3d7cfa79U,
  0x3d1b33203c9817e3U, 0xbbbbf1113e01f25cU, 0x3d155a473d181ee1U, 0xbdc2e80fbab334bcU,
  0xbd97bcc63d4a7f0fU, 0x3d949b17bd2c5472U, 0x3de5a73e3b649b66U, 0x3d67df593dfd6160U,
  0x3ddbe2dd3db80540U, 0xbcc0dc4e3d6fa603U, 0xbcb1285dbcef756cU, 0x3d87c63b3d386f7fU,
  0xbd1230dd3dc193deU, 0x3db7e30cbd1bdf93U, 0x3a9862753d9b06d4U, 0x3c5a06133c4f57dcU,
  0xbd846712bac87528U, 0x3d663c1d3e0de982U, 0xbc9f9bd53e1c1821U, 0xbd8835103c2cfe68U,
  0x3dbe79d1bcaf08fcU, 0xbc5477b23d4c49e3U, 0x3ce16c7f3cf8072bU, 0xbcd647443ca47bdcU,
  0x3d1f20e93cbfbe90U, 0xbd198f343dbb894aU, 0xbd4985493cdb17cbU, 0xbd5e2c91bd4bddb6U,
  0xbd6e7c86b9ef4862U, 0x3d160f90bc011ee1U, 0x3d785cfdbc946628U, 0x3d94217e3d6c7e66U,
  0x3d818d393dc0cdf3U, 0x3ae9b7e83ca1388fU, 0x3ca7cc54bce53342U, 0x3ce7f30ebc23eddeU,
  0x3d53aed13dd4615fU, 0x3d87bf703d5e2a01U, 0x3b0a1380bd8e3204U, 0xbda63b803d35db7bU,
  0xbd79ac613d9f1712U, 0xbd0519b43a19ad21U, 0x3d04cecf3e243e2fU, 0x3d58b0853db7febfU,
  0x3ca571413d19f28aU, 0xbcd3e9eabd3584d2U, 0x3b2dfa4a3d3f7381U, 0xb8c3b5ce3dc3bf76U,
  0x39b73d803ccbf922U, 0x3d27a0943cce3989U, 0x3c9b5ea4ba1e88e5U, 0x3e0949ccbd6a5b47U,
  0x3d4f92dc3b4950f5U, 0x3d117a59bd323f8fU, 0x3db8999c3d529d7bU, 0xbc49f4703d2aee44U,
  0x3a885668bc124777U, 0xbc2cdf913d352f98U, 0x3bda3f3dbda2406eU, 0x3d61cfc83c76d8e0U,
  0x3d40f17fbc920350U, 0xbdc6b17a3d6555c2U, 0x3cbbce193c13e84cU, 0x3c6e4835bccb4f58U,
  0xbc28109c3c156045U, 0x3d0f8b623d3148f9U, 0x3d934008bd550e89U, 0x3be077863d1f16a8U,
  0xbdcc523c3d2ad1fcU, 0xbc4908bfbdf38af4U, 0xbd39ab263d840916U, 0x3c9562ba3cbad676U,
  0xbb5d99333d872c52U, 0xbcf7924ebd89652bU, 0xbc8eea2fbda784efU, 0x3e06f3eb3dbdbc7aU,
  0x3d761786bd9bce22U, 0x3d44aafdbdcac62aU, 0xbd7871673b14559dU, 0x3d79256b3cfce654U,
  0x3d3769a8bc53b887U, 0x3d32b6ab3d9e7167U, 0x3c2d0eb93d87c1edU, 0x3d64102dbadd3e3cU,
  0xbc913c6c3d99723fU, 0x3d3cf9f13d87429fU, 0xbbfb6ec23d057b69U, 0x3d31bceebdb0988aU,
  0x3dc8f7e6bd303ca2U, 0x3cb1cd143b4a6387U, 0xbba06f55bd245e2cU, 0xbbdb47acbd842d2dU,
  0x3d963e353d739de4U, 0x3d6237843d9fd81bU, 0x3c0815393be16dbfU, 0xbc2b296e3c33df04U,
  0x3d0da3e8bd1fd507U, 0xbbc894633d166c85U, 0x3c502b96bdd2d622U, 0xbd00e300bd29ca85U,
  0x3c50170c3d3fff55U, 0x3d2e0b823caba66dU, 0xbce9da2abc704d43U, 0x3dda60c7bd8722abU,
  0x3d6774643d99266dU, 0xbcb0fffcbc66f4d1U, 0x3c9b5beabc8444b7U, 0x3ce54d6c3d0104afU,
  0x3dbbaf4d3d03a1cbU, 0x3dd0e054bdacfb6dU, 0x3a9c1bf0bc884480U, 0xbdb40e78b9bde64cU,
  0x3c1498f33c88cbc9U, 0x3d63a3693d5516f3U, 0x3bd88cabbab4d89fU, 0x3dbe23ab3dbb1b5eU,
  0x3c94c65cbcaa25b5U, 0x3d3e805cbd3c9da5U, 0xbb931eeb3c348efeU, 0xbca77c92bd6796bcU,
  0xbd889535bcd79267U, 0x3d834c7abc64697bU, 0x3da2c4013ba3d2afU, 0xbc875d84bd4ea9c1U,
  0xbd237c913d5d64d4U, 0x3cc1c81fbc84103bU, 0xbdb76b853c51c9e4U, 0x3ca7f7d13d6ad6b0U,
  0x3d3cb146bd20d062U, 0xbd96b618bd8a5c16U, 0xbddffc883cd99544U, 0xbaa744b73c6c47f5U,
  0x3cf7c7bc3d09ed44U, 0x3cef1e173d4348bfU, 0x3d5b37cdbde94090U, 0x3c4f15e93c9faadbU,
  0x3c9895163bb5328aU, 0xbd97d8be3d91921dU, 0x3b090ff03ce9879aU, 0xbcff1ca6bc09ebebU,
  0xbbd2c34d3db97f0fU, 0x3da8c6ffbd954655U, 0xbcbf6446bd1ac502U, 0xbd30d7773b841681U,
  0xbc9b10a9bc79bae8U, 0x3e0233093df91765U, 0x3d999aeb3da20ad6U, 0x3cb42b79bd4a718eU,
  0xbd97e303bd4244c2U, 0xbd21adafbd5d861cU, 0xbc8adf00bcf0cdf7U, 0xbc635751bd2f2af1U,
  0xbd3c39b5bb1c1aa3U, 0xbd5812e43c1e93d4U, 0xbd40774c3d022df7U, 0xbdd645ba3bf86880U,
  0x3e0263c43d8c08a3U, 0x3d7fc3cdbd49cbb2U, 0xbcb98a10bd52753aU, 0x39f631f7bdac7de9U,
  0xbd7edfbe3d951a71U, 0xbdae2d6c3d8af471U, 0x3ce2a8d6be056be9U, 0x3c3ad23e3d5f90bcU,
  0x3e0560ed3d9b665cU, 0x3cae7a60bc6cf54aU, 0x3c9ad467bcca216fU, 0xbd1dc2afbb18af04U,
  0xbcf7b424bc5c44a3U, 0xbbe7e9b2bcf080cbU, 0xbd4dbd0a3da387a4U, 0x3d57bbe73d5dbdb3U,
  0xbdadb4bdbc84f6ecU, 0x3c96ec3e3d2eba9cU, 0xbbe010b0bd6fe0c0U, 0xbd586c803ba8c5ebU,
  0xbc71e41d3dc26433U, 0x3a42eec8bd0d1892U, 0xbcc3cc0bbcfa076eU, 0x3d1886f73cf09b7dU,
  0x3d736f893d49ab3fU, 0xbdda42d03daa5d24U, 0xbd0bc3383d02824bU, 0xbd823880bdd1be9aU,
  0xbcd491333d94e3c2U, 0x3d705acabdaaac26U, 0xbd6f4a5fbd19538fU, 0xbd88a063bcd6733eU,
  0xbdd9ec59bc4e592fU, 0xbdfd7ec5bcff47c5U, 0xbd1041463c9e259fU, 0x3d18423cbb697421U,
  0xbd5fb6553cabb847U, 0xbd663819bcc83eb3U, 0x3cd79cbfbd0f1fd7U, 0xbc1596fd3d29421eU,
  0xbdb8dab23d9a9b4fU, 0x3e0906a7bd0c609cU, 0x3cadc169bd07c877U, 0xbdcc8894bd59c463U,
  0x3d26463fbc852db5U, 0x3db0f2e5bd9b15a8U, 0x3cdd9cb13c45a36fU, 0x3e00ef51bcc5579aU,
  0x3cf35dd73e14e1f8U, 0x3cb719a13d853f7dU, 0xbd5c338e3dcb8c6fU, 0xbce156043d1b4c58U,
  0x3cb51569bd8fedc0U, 0xbddfc2e3bca26511U, 0x3d9bdd773c0c33b6U, 0x3d8f733b3dda472bU,
  0xbd48fa343cde0602U, 0x3d2a1934bdda620cU, 0x3dde67233cf929caU, 0xbe0a9e9cbd08c1b5U,
  0xbd7c41f33d97cd39U, 0xbb75bc59bc92cf08U, 0xba721a15bad0439eU, 0x3cb0a0ef3d11ca7eU,
  0x3d77c4bfbdafdb94U, 0x3c251045bda34852U, 0x3e145f223ddb3d96U, 0xbd9b42e83d5f8944U,
  0xbce688c43d3d1512U, 0x3de8ab153b02a8f9U, 0xbc8b9e0dbb4401b0U, 0x3d9f76c4bd0afb78U,
  0x3dd48df73c7f5957U, 0x3c2a9db6bd5ba3c8U, 0x3ce97e6abd869921U, 0xbdda98fabd5026b6U,
  0xbca347e3bdab6f40U, 0xbd94e473bdc16f11U, 0xbdc009e23d2b9778U, 0x3d7f3151bd8de031U,
  0x3d9dc223bd75349bU, 0x3c756cad3d599eacU, 0xbc8873ce3d8c91a0U, 0xbd045c18bcd6aad6U,
  0xbe1bfb0fbd702668U, 0x3c8eeff1bd8e563dU, 0x3bbca9993d94c03bU, 0xbd0449d23d1f42cfU,
  0xbd359400bcbf9d6aU, 0x3c232621bd08dcddU, 0x3d9088233d587843U, 0xbc826a353dd4b83dU,
  0x3dfb9e8b3d9031d7U, 0xbc3f024abc9054a9U, 0x3db9442c3d8d8a13U, 0x3dac9c92bcbee0b7U,
  0x3ceb76043b919d76U, 0x3c33be7bbda88eaeU, 0x3dbcb8e53aaee4e7U, 0x3cd5e4f4bd7f25daU,
  0xbcce4d5e3bb571b7U, 0x3d09e9923bdf7161U, 0xbc5f2aa53d0bd16fU, 0x3d9256ba3d264dacU,
  0x3cc9f7be3df2a2ddU, 0x3c893675bc6d0180U, 0x3b9350bebafdd2e3U, 0xbd893f8a3cb4be8cU,
  0x3ce864323d80d8b7U, 0xbd1404c13da3f551U, 0x3d2160d3bd87d675U, 0x3d24ab98bc6e9345U,
  0x3b3af58cbc417452U, 0x3d99bb7ebd7f5453U, 0xbc73d449bdc2f31aU, 0xbd491362bcdc4ed0U,
  0xbd54ca8dbbd9d5eeU, 0xbd8cb02a3dc8e1c6U, 0xbd4205003d5c4d20U, 0x3d00d8b1bc9b4d2bU,
  0x3db8047b3c85fa96U, 0xbdca3bdbbdbbf7b2U, 0x3dbb8ee0bc52b8a1U, 0xbd81fac23d4de57fU,
  0x3d2e19a63df6dfe6U, 0xbd50b45abbba1908U, 0x3d9e41f63d234b1fU, 0x3d6a84653c9ba7e2U,
  0xbcbda17abd46ad64U, 0x3e0082023e06afadU, 0x3dd69dc73b966cdfU, 0x3cccee21bcab60b0U,
  0x3d7a488f3cf3e747U, 0xbcc6b5dbbd4d4715U, 0x3da62a7dbd16c854U, 0x3c8dcc3abd105292U,
  0x3dbc7385bd152e88U, 0x3c0dd352bd3839e5U, 0x3dbc6b683da53c98U, 0xbde7a2eb3cc6307cU,
  0x3d889f84bcc53df9U, 0xbd2bbbe83ca6914dU, 0x3d4d29363d4a0af5U, 0xbd3d79eabc79d217U,
  0x3d0cf83abd7dcd6fU, 0x3ba3c48bbd8453c9U, 0x3c895f1d3bd75f62U, 0xbd10d47cbd8413bdU,
  0xbc3c97e6bcc04ec1U, 0x3b9ea5cdbd8a459eU, 0x3cfe7955bd6c3d69U, 0x3d4c16e33d4d7cd4U,
  0xbdb7e9063e092568U, 0xbd01c597bd45408cU, 0xbdf25b763d16c4f7U, 0xbbe748cc3d8b9defU,
  0x3beb52bfbc86da8eU, 0x3b946896bc61c237U, 0x3dee09cebc4b6139U, 0x3cbacb713d1d849aU,
  0x3d2f0a533d7f268fU, 0xbd9f612b3bd5bd5cU, 0x3c8e63863ccd385dU, 0xbdf27f4b3d6112fbU,
  0xbcc362713cd65daaU, 0x3cbeb0eebcb58c91U, 0x3c5816d53d2a3f03U, 0x3d6535943c77e38bU,
  0x3dae604ebcf1e9caU, 0xbcb58baf3d3567bfU, 0xbd1ffbcc3dceb403U, 0xbd31ec113d5bf145U,
  0xbbb694cc3c9e0bfbU, 0x3ca087573d6b1e17U, 0xbb0d2bb03d51ed92U, 0x3b610c0bbc8a5c43U,
  0x3d7c2329bd207a8fU, 0x3d71a4a9bd23029fU, 0x3d34d0cf3cbd9067U, 0x3d33e0aa3d21304bU,
  0xbd777666bd8a55edU, 0x3b15864f3d79e888U, 0xbd0d76e43de58781U, 0xbd7fa746bb3c671dU,
  0x3bf772153b982603U, 0x3d7bf9b43d60e7ddU, 0xbc43a7e3bc57d05fU, 0x3d8b79673bbd2c28U,
  0x3d3cbbb3bcdceb99U, 0x3d0830db3dcf1ad4U, 0xbd7f8113bd6e1789U, 0x3d12b28b3d036103U,
  0xbdb7c59cbd280c99U, 0x3dd537ba3dde2c75U, 0x3d12ef033d0be663U, 0x3d804a17bc884f6eU,
  0x3df6739ebccfd5f0U, 0x3cd2de963a94f1c0U, 0xbd12788f3c4fc348U, 0x3cf2fd0bbc815e7aU,
  0xbc832212bc7bba74U, 0x3d37fa8cbb4f0510U, 0xbb5893d33dbeae8eU, 0x3dded9e23d486356U,
  0xbbf7a0b33ce457b1U, 0xbdba6a4b3de186b2U, 0x3bf36f0f3d751617U, 0x3d47864b3d78b8d7U,
  0xbd0408f2bd8e53fbU, 0x3cca998ebd6e58e6U, 0x3b682d8bbd44e952U, 0xbd0c1df13d29abccU,
  0x3dced8463d72bb2fU, 0x3d2d2a7dbd84d1e5U, 0xbd649f523d9934d9U, 0x3cb2051b3c8d9ccdU,
  0x3d495391bcebaa33U, 0xbd2a4496bce5abf0U, 0x3d221e52bd3435e8U, 0xbc017ed33d160921U,
  0x3d12b14abd8c9b16U, 0xbb067c87bcfab3e1U, 0xbbc68197bdbc7aadU, 0xbb0ebb463d748c00U,
  0xbc345aa3bd456bc4U, 0xbd61fc45ba9bdce9U, 0x3d50c4b63cae1792U, 0xbcafe818bd89d8caU,
  0xbcb32734bcda1c2cU, 0x3cb4e3c7bbd145a8U, 0x3b237b9dbdd9edd5U, 0xbd1db7f63cec9e80U,
  0x3db65baabcc57bd1U, 0xbd02ff9d3cea8623U, 0xbd994fef3cf44e2bU, 0xbc33e62d3dad9279U,
  0x3bd76851bbfc60afU, 0x3be08e6c3d8788caU, 0xbd879863bce8b99bU, 0xbd3a36cabd9d24caU,
  0xbcd88d6b3d1320f8U, 0x3c39f0433d7b0288U, 0x3b95e88c3ddac65cU, 0x3d822d543d4f83a9U,
  0x3d0a14863c13ce91U, 0xbcac634e3cb3d50cU, 0x3d817c81bd4b9c68U, 0xbb9fb76b3da2f87dU,
  0x3c3a60eb3b769269U, 0x3d026647bcd7d320U, 0xbd91e144bd2ec05cU, 0x3ccf5ddcbd7de533U,
  0xbd1ecc8bbd33965bU, 0x3b6d97663ccd074aU, 0x3d1bf174bac99f95U, 0x3ccb5d26bdcd2a49U,
  0x3d5ac931bda405acU, 0x3d1f05733d5156b5U, 0xbd1c1d3d3a31059fU, 0xbd060c2cbd07bfc9U,
  0xbd0cd4d63d85a7f7U, 0xbc88d261bd247d42U, 0x3c854d80bd8d2a05U, 0x3d0390823d9cce34U,
  0xbd55ea433c3e696fU, 0x3d258b123c9bae31U, 0xbcf5f259bcf3f37eU, 0x3d062b2fbcc92ce4U,
  0x3a73a6d8bc3ad3fdU, 0x3d00b93abd994025U, 0xbd454f273c3f7309U, 0xbd79f2ef3d4f24c6U,
  0xbdc7d48bbc2f47d2U, 0x3d9cd2113c5cac97U, 0xbd7ead483dac103fU, 0x3ce072e43d09a24cU,
  0xbc9426c2bd9754bdU, 0xbbcfbac13dc74af2U, 0xbd0a585a3d94cf48U, 0x3d2380f23d541e01U,
  0x3d69902b3ceb2a2dU, 0x3d4ab4c63d976bd9U, 0xbd36bed03b80f4aaU, 0xbd466fb53d6e1f21U,
  0x3cc855eb3d206d78U, 0x3d2a90293db8bc90U, 0x3a9e2ccdbd73cf5eU, 0x3c29566abd2ead63U,
  0x3bd5a172bd533968U, 0xbc9c2ac4bd3258beU, 0x3da962593d7085a2U, 0xbc3e4f513d8c02c4U,
  0xbbb1b352bd8ab1f7U, 0x3de18817bd59462cU, 0x3d9f0b01bdc18435U, 0xbd175e7cbd2c6318U,
  0xbbafc48bbbcd80c6U, 0x3c1c252dbd9358eaU, 0xbbab9d84bca2c692U, 0xbda5faa0bcaa814eU,
  0x3c923ddcbd039d3aU, 0x3d1f1cd1bb044523U, 0x3d00958dbdf45ddfU, 0x3db008c73d60fbb9U,
  0x3d4b4c8cbdbd72adU, 0x3da5c276bd47b1e6U, 0x3d1732c23c775e7fU, 0xbce0c0f13d6a2bdfU,
  0x3d54f24a3dd2935bU, 0x3c902fa6bc5efd65U, 0x3daff1e3bba8e77eU, 0x3d93a67a3cd61109U,
  0x3ca4fea33d430d51U, 0xbd84f09d3df912e4U, 0x3dbab19abc890954U, 0x3b75de373daaae83U,
  0xbc129c84bc677081U, 0xbd7da078bd925ad7U, 0x3b56ad383c13480aU, 0xbcf0df2bbcbdbefdU,
  0x3d3851b53d20ca23U, 0xbd375b013d863732U, 0xbd3f4b95bdcfbd5bU, 0xbdc949133dd3bf75U,
  0xbdf7274abbb954c3U, 0xbd1274f03d0f4f33U, 0xbd9d7cdb3d10b7a6U, 0xbccaf8d53d8ccfadU,
  0x3cc02fb2bd14014dU, 0xbdadbfa93d95839aU, 0xbd8ef05dbe3373d1U, 0xbd166a5b3d36b7f0U,
  0xbc0f9273bc2c2f6bU, 0x3d80b7e6bb6159ffU, 0x3b340819bd881891U, 0x3dcc6190bcc2ed55U,
  0xbcf5ba64bdf18c1fU, 0x3d4168493e214075U, 0x3b8471f33daf2c9fU, 0x3d61ff543c2de9d9U,
  0xbdf63b02bd822411U, 0x3b9727a939c0e213U, 0x3d52dc09bdbda10cU, 0x3d011ca5bc5de5d6U,
  0xbd54b9d1bda19fa2U, 0xbda2cbd3bda06c04U, 0xbc30a0af3d258511U, 0x3c8211623dbd44b8U,
  0xbca699743d4e6a6bU, 0xbd58934f3d3608e8U, 0xbb5fd4ed3d32adccU, 0xbb7baefbbdb51732U,
  0x3c88e75ebd9c8343U, 0xbda53b8f3dd53ee8U, 0x3d5af8cb3cd20094U, 0xbd06ceeeb8158934U,
  0x3de0f0493cae5b98U, 0x3dc4a73abdd47539U, 0xbd5afa0f3d800e83U, 0xbcc83ef83c624209U,
  0xbdaedb1b3d36dcafU, 0xbde71a663da13785U, 0x3cc62422be1dac3aU, 0x3d37bb2c3d145b95U,
  0x3d10d5bc3d9c0bfbU, 0xbc955d913ca94a53U, 0xbd0cf5573d587a05U, 0x3d2d19a73c756deaU,
  0xbc6a49683c12b5b3U, 0x3d85f1a7ba93556cU, 0xbd3c048c3d1a11c0U, 0x3d1b07c5bd4431efU,
  0x3da0e9663e3ada48U, 0xbe3866efbdda91aaU, 0x3e018c0bbd6abf3cU, 0x3c4504773da71655U,
  0x3d577a2a3d428e79U, 0x3dfcb596bdd84137U, 0xbd2231d1bd890f2dU, 0xbca633983cf141e8U,
  0xbb60edc93a848a80U, 0x3c130b493c91636cU, 0x3e0679f7be1fcd20U, 0x3dbc9988bd233d61U,
  0x3d3567e73d3f6cbaU, 0x3d7d249a3ccf10c8U, 0xbdcf59c7be3c0dc4U, 0x3d92af8cbcc6570dU,
  0x3cd3a11f3d15157fU, 0xbc16e87c3d9626e0U, 0x3d86624d3ce9ecd4U, 0x3c69674f3c60be88U,
  0x3c8621d2bdd0e7f6U, 0x3c4d069cbcdc00b1U, 0xbd8f0acebe21e0d3U, 0xbd4f9fdb3c905839U,
  0x3c87ad763de6a509U, 0xbd5b6948bdcd894aU, 0x3e643b00bd422b6aU, 0x3d0839cb3d0f75e8U,
  0xbda825ccbdd4d87aU, 0x3b0a3ad1bdaca92bU, 0xbdb7c7d6bdc1d885U, 0x3d75ef8f3de6862cU,
  0x3da6c5da3d366cbbU, 0x3de8eab1bd5e9976U, 0x3c67e11bbd8105c0U, 0xbd85a7d3bce416d1U,
  0xbe33ef2dbd70f2ecU, 0x3c819639bb3044b2U, 0xbcec27903e0672faU, 0xbdac16ef3dbbb6b8U,
  0x3c83bb523b91fc6aU, 0xbd68c1c6bd3f6e9dU, 0x3d0a87543bbca111U, 0x3dfc09f5bd6ed5c1U,
  0x3df07b713deda8b0U, 0x3d2c4c133d2346aaU, 0x3dc72e243db27408U, 0x3d0580c63c9edd2eU,
  0x3b9f8e83bd4e8922U, 0x3d8e90c43cd51947U, 0x3cca7b6abd32aa09U, 0x3ca47b673dc206eeU,
  0x3da33068bc2366e1U, 0x3d38da563c37bd00U, 0x3aa78f40bd17913fU, 0x3dddb43f3dca3a7bU,
  0xbcdebf05bb509298U, 0xbd0bfe653d866d9cU, 0xbc31b82cbc7f7068U, 0xbd7dd5c13c03870fU,
  0xbde21301bdcd2df8U, 0xbce0e9123ce6cb33U, 0xbdac57bcbdbfbd74U, 0x3d47d7863e0300bbU,
  0x3c0d7e803d87e053U, 0x3d17bce7bd87bc5cU, 0xbd8d6f28bd2bfaa6U, 0x3d49f5eb3c71b50bU,
  0x3d47a501bd46e8f2U, 0x3d28e894bd99c696U, 0xbe0454dfbd9146c5U, 0x3d9471bebc9c91fdU,
  0x3c6477aebcbfdc11U, 0x3d3af1d73b69fcd9U, 0xbe0cd621bd39180bU, 0x3bac595bbe04da07U,
  0x3aec8c7d3dcf98d4U, 0xbc121d2e3e1641fcU, 0x3c830b3cbdee4f8fU, 0xbe3625933ccc07f9U,
  0x3bb5df3dbd943d78U, 0x3d84a007be238895U, 0xbd357750bdad8d04U, 0x3be442bf3a1817c9U,
  0xbd34adc7be3bbbf2U, 0x3c27bea7bd86727dU, 0x3d1c2c213c3ad781U, 0xbdd06b133d8052a7U,
  0x3c20bed53c973440U, 0x3c54c449bde1d777U, 0x3df3d0cabd85e166U, 0x3d37c6063c6b8561U,
  0xbddb7bf03da0d4f6U, 0xbc118c3ebdd14df5U, 0xbd6f3632bd2f5395U, 0xbe0e56f5bd879e89U,
  0xbc588da33d12e496U, 0x3d141248be052ce5U, 0x3d7816a2bdd24387U, 0x3d097eaf3cf9f6f4U,
  0xbc8e3216bdecd9ceU, 0x3d71e005bc4797e6U, 0xbe69a11fbd914e5cU, 0xbe84a5283a8bd7d5U,
  0xbd664706bd1cba41U, 0xbccfb1a3be693b7cU, 0xbd9c213fbd869bd1U, 0x3d909c1fbb846a27U,
  0x3d1ea08bbe63950aU, 0xbd1b1b0ebb8f643dU, 0x3daf9b063ccc042bU, 0xbe22f104bd3ccafeU,
  0x3d667e213d922692U, 0xbce55f0abdf2a14dU, 0xbd459da6bdff87bfU, 0xbc298606bdf61aa8U,
  0xbd41e4d9bd74b9d8U, 0xbda09f6abd69e3e7U, 0xbcd2760bbd8b8c2fU, 0xbefc4961bce95e11U,
  0xbe1dadb9bd0c9d74U, 0xbd5b2d42bea6e68bU, 0x3bff0b6abd607631U, 0xbd3e3773bd38ef6aU,
  0x3d57a55bbe7250e4U, 0x3d00f1823d8163a6U, 0xbd93b0cc3d75e451U, 0xbe8c26a03e028e43U,
  0xbe1c27b93d5098e6U, 0x3d908759be0d9ee7U, 0xbd715314bd87b3f4U, 0xbe061b92be77d4dfU,
  0x3df480ffbd54d6b3U, 0xbcc02bcbbd345ad6U, 0xbca4b3853d36edb2U, 0xbe9f13ef3d4ddb25U,
  0x3d4c18e13d0fd42cU, 0x3d5b2bf9be8ef711U, 0xbceaacbfbe01e147U, 0x3c8bb777bd761e7eU,
  0xbb9d37293c452e94U, 0xbdbb63bd3d4ff67aU, 0xbbbb38d7bc2d38edU, 0xbd6d56513ce42d6eU,
  0xbe5f3a69bdcfdcf0U, 0xbcff941e3dc5138aU, 0xbd1d19833d77d93aU, 0x3c8a7e1c3dc9c864U,
  0x3b95d1573d16bc1bU, 0x3d95a0d13e2352e8U, 0x3e144519be007237U, 0x3d924340bd4e464fU,
  0xbd96bc9d3c21bb38U, 0x3cf018023c9e6066U, 0x3da01dd0bc9165abU, 0x3e1358f2bd32ef2dU,
  0x3cfa650e3d18a684U, 0x3ccf7ab43d04930eU, 0x3d4fa49cbd5038bfU, 0x3db6ef703db3c208U,
  0x3da384f0bc971ddbU, 0x3d050a9b3d6746c3U, 0xbd74fb8d3d40a574U, 0x3dd68812bd362090U,
  0x3db9dafebcc2cdf0U, 0x3cb24fadbd575850U, 0xbd5060473d2137fdU, 0x3d3fea33bd951614U,
  0xbd4201b53d842ee8U, 0xbce91a093c58c342U, 0xbc21e5adbd4a095dU, 0x3cb0dca43da0fbcbU,
  0x3e15eab9bb9b22c5U, 0xbd6fd59d3891fcf3U, 0xbd96a4bd38fe98c8U, 0x3c7e3307bd905cdcU,
  0xbc1afbfa3e09c9f8U, 0xbd2b8a673d6b7d34U, 0x3c2e7b6a3dc99851U, 0xbd860fecbc9a19a8U,
  0xbcd0247dbd8c75cdU, 0x3e1101da3d20c348U, 0x3c93263fbb5f56a7U, 0x3c3500c33d6d3067U,
  0x3cda5a73bcb4852dU, 0xbd0b1ba8bc028d8bU, 0x3d847ce63c65f031U, 0xbc034dc8bcc8149dU,
  0xbd5044cbbe37e0cfU, 0xbd7faceb3d7b0b99U, 0xbdc7e8333960318fU, 0xbe8bf8643d9b9754U,
  0x3d003388bcedc37dU, 0xbd250bccbd1b1605U, 0x3d008a0f3d527b7bU, 0xbd22f2d23d0108bfU,
  0x3da400303d0725ecU, 0x3e086b3a3d01289fU, 0xbd5c74bebc9bc8b4U, 0xbd920dc0bbd56885U,
  0x3cc7afe0bc700f3fU, 0xbce7a9d83c0daa16U, 0xbde04eb7bde8a03aU, 0xbb8ffe273cffb6b8U,
  0x3d06e3783c9e6c0cU, 0xbd4062ee3da40f00U, 0x3c652e583c0e487cU, 0xbe778f48bc16d81cU,
  0x3d22855d3c732d60U, 0x3dd7e3e3bde0b0e2U, 0x3c4c5842bd6a1ba4U, 0x3c278331bdb16dc6U,
  0x3d9c825abe6a8f56U, 0x3d6a74113ce58d81U, 0xbd538a41bd898c9fU, 0x3d8b9cdcbb173f7eU,
  0xbdbd015c3c103945U, 0xbd38c5593d8c9315U, 0xbd0a33203d13c24cU, 0xbd92cf65bda5ebf3U,
  0x3ca3c3023c5f21d4U, 0x3d43c2983d4d4710U, 0x3d979e7a3cab1e47U, 0x3c86b9783ccbca97U,
  0xbcb716a13d43275cU, 0x3da3af2ebd2f3697U, 0x3dd0c298bb8893d7U, 0x3cc3ae843c8c661dU,
  0x3df20f40bbe8752bU, 0x3bff71fb3dd861b7U, 0x3d69493a3db80a85U, 0xbce9b7c23d19006cU,
  0x3dd0eb493d2318a9U, 0x3dadd0a23bd8128eU, 0x3b77f1733e1b9614U, 0xbd1fc97abc050f7bU,
  0x3e259fb03d2abf75U, 0x3d414b9a3df26a1eU, 0xbd67bce1bc2b7339U, 0x3daa4c5d3e22612dU,
  0xbd007b5b3d4066c4U, 0x3d81ef7fbc9003cbU, 0xbc79ee1f3d07fbbaU, 0xbd9f2a1e3dc6f6a0U,
  0xbca67f563dd4c7e0U, 0x3df86a6e3ca85982U, 0xbc0f36e7bd2d2c42U, 0x3c2cd6023d411bffU,
  0xbe590b20bb0e5aa9U, 0x3c84d50d3df478a1U, 0xbddfa7313dff0331U, 0xbd5f3f1bbc9d12ceU,
  0xbcf111acbd0454dbU, 0x3ce166ee3a7f0ed9U, 0xbbc7d66b3d32556dU, 0x3e22ff8c3e0c02eaU,
  0xbc8e2cfc3dd77677U, 0x3da01fe03d3cdf6bU, 0x3ccead6d3db47692U, 0xbd3e53a33d6fc02fU,
  0xbd323af23d1e0c1cU, 0x3dba2f77bd75f7fdU, 0xbbcfccedbd824cb3U, 0x3d92c0c3bdeebf97U,
  0x3ba671a5bd1a89bfU, 0x3d807dc83d88feedU, 0xbbead11a3d8ea2bcU, 0x3d2a1bbfbc59f63bU,
  0x3dae5b403d801b95U, 0xbc52cf54bd23410fU, 0x3ccf58ba3c15045bU, 0xbe0a7e1b3d983c47U,
  0x3ca0791fbd3db9a4U, 0xbddd7693bc21fbb5U, 0x3d4658ccbd2482afU, 0xbd0fa8623d1f3b55U,
  0xbd737245397b7503U, 0xbd0d3a04bd4d1f9bU, 0x3d985388bd0cb955U, 0x3a9cf2173be53ebeU,
  0x3d7b81b13d40f9dfU, 0x3c8c37793d253462U, 0x3d859c1e3d1d7eb9U, 0x3c9e086e3c507944U,
  0xbd2d714fbd684969U, 0x3b4ef30fbd85f7a8U, 0xbd0edaa43cd00219U, 0x3dadea19bcf497bcU,
  0x3cbdbc163d4a2b5eU, 0xbbc9dac83de9adf9U, 0x3c2516623d72ec0bU, 0xbd80569dbd785944U,
  0x3d4c7c903dacc22aU, 0x3de82975bc6f063fU, 0x3c38e1bebc8641d9U, 0xbdcd64afbba29dd6U,
  0x3d32c3c03cc2d4e3U, 0xbd96fb833c695e9cU, 0xbb58f6743d499517U, 0xbd4f283b3d99f3b1U,
  0x3d8bf2403d1d83a4U, 0x3c1e10cb3c5aa62bU, 0xbc9bf104bd22bd4dU, 0xbc9c0e13bd17126eU,
  0xbd5d014e3d4af22eU, 0x3dc3c42b3cb34901U, 0x3d80ad2c3d3d370cU, 0x3becfb6d3d10edc7U,
  0x3c98a3fa3d868d5fU, 0x3d5fed93bcce63c8U, 0x3b7b8339bd0c1e59U, 0xbcb466223ddc2af3U,
  0x3d0d299ebaad8d9fU, 0x3d9a8f833da097c3U, 0x3c30bcb93d8f1173U, 0x3d003deabd341236U,
  0xbbe1386fbca811f6U, 0xbdb84e823d954a39U, 0xbc67a1363dd5c5e2U, 0xbcc13ff33d9006aaU,
  0x3bf15ead3c293aafU, 0xbd277b103d4e3498U, 0x3d1641de3df1f1d8U, 0x3bf454913cc37c27U,
  0x3daaa468bc4ce93fU, 0x3d000bd8bd5e869cU, 0xbcf78a87bda23855U, 0x3dbc3984bb1da0a5U,
  0xbcced1593de184ceU, 0xbc824af33e2bf63cU, 0x3d9318d13dac4974U, 0x3d7c8a17bc092257U,
  0x3d8c96b93d779ce3U, 0x3bd1a706bd9a99ccU, 0x3d156f9fbd839c34U, 0x3da42db0bcbfde3fU,
  0x3e1c8b793d03c8a6U, 0x3d7831f43d711522U, 0x3cd5ca2c3ce10850U, 0xbd503a673c7a132cU,
  0x3d073a993c3f2a19U, 0x3d1b0eb6bdc82d50U, 0x3c3716f3bcaba547U, 0x3dfe8bf0bd3390acU,
  0x3be5fe953dc3675fU, 0x3cce108f3d06ae48U, 0x3ce722893d9d6f92U, 0xbbf6668b3adb4bc4U,
  0x3d047ae3bcdd11c5U, 0xbb8fea833d6d9adfU, 0xbdef10d6bd98e7b4U, 0x3dd251ab3d193d89U,
  0xbca4a98e3df894b0U, 0xbb8279a0bc3d9c00U, 0xbd128ce6bd95d6d7U, 0x3ccda9933a04c43bU,
  0x3c9084a2bc05d231U, 0xbd5826073c96dae2U, 0x3cab0ed0bcd98a2fU, 0xbdd775a7bbc7b780U,
  0xbc54fa9e3d0a8c3aU, 0x3d698136bcba0ae7U, 0xbcdd044dbcc2dbddU, 0xbc8fe04db9ee1474U,
  0x3bc9d49b3ca255ecU, 0xbcae0bfb3c77e02fU, 0x3d32638c3c19e589U, 0xbd2269ba3b60e018U,
  0xbd80bf663d9efe9cU, 0xbd7d0adf3c65804fU, 0x3c66fda9bd132ae8U, 0x3d82fe7aba15c0f1U,
  0xbd57f5fcbb9c3a55U, 0xbc0e630c3d507866U, 0xbc6a133a3dc02464U, 0xbce4bb673dabb4b3U,
  0x3c42d1dc3c61d8e6U, 0x3d20cfd5bdf59f62U, 0xbda89ee2bc9aab10U, 0x3e0f9815bc513554U,
  0x3c8c03ebbdc11bc2U, 0xbcb1afd03d9ddcd4U, 0x3d830bc83d3e7b26U, 0xbd6186b33cdb2fefU,
  0x3daf607e3d680da1U, 0xbe111e1dbc9de2ceU, 0xbd206fa83d8af014U, 0xbd37be6fbc3a0634U,
  0xbc8293debd485a02U, 0xbd5295bcbb9cf18eU, 0x3bf7ed9bbda26dcaU, 0xbbbd3d3c3b9c9ffdU,
  0x3d9b52c8bdc51f41U, 0xbb636d83be10900dU, 0xbdf1e2f1bd985d2fU, 0x3d0193a33dfa6518U,
  0xbd4ae85f3c938774U, 0x3c7b465dbd1ec3b6U, 0xbc5104193cf26367U, 0x3c0b48e73dbc6557U,
  0x3d8fcc02bd19d7beU, 0x3ac205c33cf07c14U, 0x3d33a6ce3d9a6e03U, 0xbcaa41223d90fcc8U,
  0x3cac18363ceb3bd6U, 0x3d6efcf93d407127U, 0x3e2e76323d391cbfU, 0xbd6165aebd972a6cU,
  0xbcbea85d3d7f380aU, 0x3d411936bb2a07a2U, 0x3cfd3d183c2ad810U, 0x3ce3c8ec3c341447U,
  0xbdab26363d9f1fb3U, 0xbdc30dfe3d1d06b2U, 0x3e350cc83d8ce72eU, 0xbd3dcabe3da05e85U,
  0x3d0a5f84bdefc90dU, 0x3d636a7ebdb5db19U, 0xbce6861cbd3c59d4U, 0x3c110bc03d25c523U,
  0x3d0a18d43e16f62eU, 0xbe00e4fabcb9812aU, 0x3e68c5e3bdd4609dU, 0x3c3f40a73dadbf19U,
  0xbbdc16e23de8f595U, 0xbd7f7792bd8f6f41U, 0xbd84bb0b3e0f5ba1U, 0x3de3dac73c9dc610U,
  0x3d88b65f3c482514U, 0x3dd369c93cd36f2eU, 0xbdabd79d3c8bd0a2U, 0x3e432e113d7fc349U,
  0xbc277dbabe109106U, 0x3b0d75893e43c96eU, 0xbcf30ce53c4dd868U, 0xbd168c8abd366583U,
  0x3c43ae62bdfba8c8U, 0x3ccedbcf3d520453U, 0xbdeb5533be3a2f58U, 0x3dd18c27bd354695U,
  0xbd78b96ebc22016dU, 0xbd062e873d1c0265U, 0xbde915093d6bfd70U, 0x3d852726bc9569e1U,
  0x3dff8c9e3dd4d9e2U, 0xbda2ee3c3c5ccf11U, 0xbc96d35a3c595c66U, 0xbced93e5bd9dd985U,
  0x3bf067aa3ca70421U, 0x3dcfc1863aafd18cU, 0x3d27c7b0bc2ce496U, 0xbbacf17f3d1462a3U,
  0xbd117d45bc90af55U, 0xbc960619bda2b565U, 0x3c98c4283d87bb10U, 0xbc9e07183df3a85fU,
  0x3e50305c3bad175aU, 0x3da2ec72bcf97f5dU, 0x3dace1c4bdb10470U, 0xbd7695673d5d78abU,
  0xbba5bd463c1c7cadU, 0x3cd3995ebc7c96bcU, 0x3cc9c37abd98e845U, 0xbc7b1df7bbc0641cU,
  0x3c25e6dcbd0a3610U, 0x3d652aeabcefd804U, 0xbd5c8b32bdb783b1U, 0x3d5f95efbdc4166cU,
  0x3d89baa93dd76ad4U, 0x3da7dfb33d46b1e1U, 0x3c752e713d5b5cbdU, 0xbd2dca08bdb9e9ecU,
  0xbd4907dfbc5aaa76U, 0x3da1b41fbe2657caU, 0x3ca9f285bd89899eU, 0x3dad510dbdad45f7U,
  0xbcda3388bd088670U, 0xbdb615acbd3df544U, 0x3d04aa663d8d5562U, 0xbd09e226bd7c09feU,
  0x3cefdb8bbdb58af6U, 0xbd0e27d1bdfd52d3U, 0x3e02f815be106380U, 0xbd85c08abd50cd7cU,
  0x3c99606cbd871b07U, 0x3e159bb2bcc07ab2U, 0x3b022a4f3ce7f9c7U, 0xbd8b00fa3d273e30U,
  0xbe5d76e0bd8765b9U, 0x3b78480ebdd0d0a2U, 0x3ccd0e453cd83a6bU, 0xbc6d5357bd95de32U,
  0xbc5edb423d4f5b0aU, 0x3a875eca3dd67f33U, 0xbdf1087cbe00492cU, 0xbd08af7f3ccd64bcU,
  0xbd0d1c2abe00cd0bU, 0x3c706e24bbd19eb5U, 0xbe20d4953d191028U, 0xbdd5d376bd64d858U,
  0x3da2faf6bda96be3U, 0x3dd51a513de3aa24U, 0xbbc3fb3c3e081979U, 0x3d5dea703ca36674U,
  0xbc023752bd46f6e2U, 0xbdf822eb3df9b6cdU, 0x3e02ffd73e118f34U, 0xbc8276453dfeb5e8U,
  0x3d86e8c23e444ba5U, 0x3df51c713b648908U, 0x3dcb9b35bd64ab54U, 0x3e05b4de3ddfd06fU,
  0xbd231cc73e0253eeU, 0x3df17c653e85c72fU, 0x3d06ecba3dd6bf8eU, 0x3de474a43c6f5b59U,
  0x3cf7e3973e1140b8U, 0xbc108498bc8a2a71U, 0xbc5200dbbd7e80e9U, 0x3e317d48bbd252b6U,
  0xbd849588bcbcaa4dU, 0xbc968cf23e1db180U, 0x3dce863e3abcad0bU, 0x3c83189dbd68b229U,
  0xbe189d003d8fd5b5U, 0xbb918d133c0edd88U, 0xbc9290c7bde70bebU, 0x3c847c623cb5a256U,
  0x3d652df1bd3ef2e7U, 0xbe5c0ff6bc3e606eU, 0x3d2b2741bd319d4eU, 0x3d43a858bd41f1cdU,
  0xbd4b0b07be0b8b45U, 0x3d924cf3bba9e2a8U, 0xbd94d936bd7d2522U, 0x3e198edb3c751479U,
  0x3dcc74703e19ddd9U, 0x3d8a06413d82c6a1U, 0x3d0f541d3d5af4b8U, 0x3d1406693d020a4dU,
  0x3d0a293b3d514a0fU, 0xbd83c3953d41f169U, 0x3d79bf563d157182U, 0xbda2ce8f3cb403edU,
  0xbdacb3593c8d6ab6U, 0xbd4328c53dad2efdU, 0x3df35b00bd5d31acU, 0xbdae02a13d289faeU,
  0xbe18e6f43d87b788U, 0xbc8b73d4bc5b229eU, 0xbd68a017be3018daU, 0x3de44d95bda339f0U,
  0x3b9e18503a29dec8U, 0xbd8479a13c54f33bU, 0x3c3e734ebc7697a0U, 0x3d0cc6fdbe194e4fU,
  0xbd60ff98bdba67b4U, 0x3c105e14bdc837aaU, 0xbe68daddbcc52013U, 0xbe1df61f3d3c6af5U,
  0xbd7e672c3e0a584aU, 0xbc2970dcbe59e476U, 0xbb990f8d3c6f2a92U, 0xbd22cfbfbd867084U,
  0x3b7c159d3dafa3f1U, 0x3d7426ff3df9845aU, 0x3d5c42aa3d35d751U, 0x3d1c21c03cbb2596U,
  0x3ca2a5d4bd43235eU, 0x3bb47c4abcdd4013U, 0x3dc1caff3d37b494U, 0xbc8415adbbe45824U,
  0x3d3f151e3cc18de4U, 0x3df9e2c63d42d754U, 0x3e46da6c3daabbbdU, 0x3da4ee7a3e10ab29U,
  0x3e539318bd47698aU, 0x3da355d1bce453a9U, 0x3ba8f6d63e056a7aU, 0x3d2385033d372ba4U,
  0xbd05a48fbd56130bU, 0xbd2d5123bdc4f239U, 0xbc843e163ac2535cU, 0xb9c710cebd416a65U,
  0xbd11f04bbd07c342U, 0x3d733ad8bcb8c7c1U, 0x3b90c8243c895219U, 0xbd8f4b0cbd465e98U,
  0x3dc615b0be0ce11dU, 0xbd567702bd0b71cfU, 0x3d1f957ebc6ec42bU, 0xbdb4de1b3d949ed3U,
  0xbd12f8643dad7d8bU, 0x3cca67bbbcffd48cU, 0x3e06faef3c52011bU, 0xbd00f3aebdd7750eU,
  0x3c6ac3bf3cb659d4U, 0x3d9037553c987e9aU, 0xbde0fd083d2bfd01U, 0x3dab153ebd9c3fc8U,
  0x3dab2e293d9f78daU, 0x3d61ad213db963ceU, 0x3d4e07fe3c442989U, 0x3d90aee53bf474f6U,
  0xbbf3cd8ebdcc3ee1U, 0x3d100eadbd033cb8U, 0x3ab7de91bd5a717bU, 0xbd0b4acdbd86141aU,
  0x3caf28533ba3315aU, 0xbdc668ee3d927705U, 0xbcef1968bcd361ceU, 0xbdb83ae43ae01f89U,
  0xbc1e838e3ceb3d04U, 0xbbda5a733d6db1e1U, 0xbca792e9bd5c5eddU, 0x3dab18ea3d2bd39eU,
  0x3ce9e777bdadb074U, 0x3ac0a9043c210c68U, 0x3d1ea995bca76c5fU, 0xbc81783abd5351b3U,
  0xba0daddebd0dfc53U, 0x3d59c011bc9f613fU, 0x3dd82883bd100810U, 0x3cce36503e178588U,
  0xbc7358e5bb39d2a4U, 0xbdd6e6f03d57b31fU, 0xbcf1e36b3d30297dU, 0xbcb9da26bce06178U,
  0x3c325c15bba52055U, 0x3d07c5c0bd0e0af7U, 0xbd5a721c3db6ff14U, 0xbe2788c6bdf006c8U,
  0xbd1e3556bc84535cU, 0x3dc5b796bd15c85cU, 0x3d8a9a7ebdcc6e4cU, 0xbe316464bcbde8bcU,
  0xbe353de53cdbdb70U, 0xbd6fa7973d664b1cU, 0xbe4cd30d3d7a92c3U, 0xbe89aac0bdabd68eU,
  0xbe2413b63d692989U, 0xbdd3a757bdb869acU, 0xbde85d29bdc45fdbU, 0x3b3d9a9e3d914f75U,
  0x3dc7d8b2bd90abc6U, 0xbd180ca7bd9559efU, 0xbc7d5f31bddb6424U, 0xbdf82d0cbe0cffc9U,
  0x3d1ccb4d3dddd23fU, 0x3cfe5d8bbbe64edeU, 0x3da497c5bd6af327U, 0x3d302162be1af743U,
  0x3d4fc2f9bda433b0U, 0xbdbd5fb3bd710d3eU, 0xbb98cbfd3d722d9aU, 0xbe73b64e3c2ad486U,
  0x3df1169c3d6d0962U, 0xbbb3ac66be664f8aU, 0xbca18b92be581e80U, 0xbe00b341bd336433U,
  0x3c825da2bd521f39U, 0x3d7e01cb3d81b731U, 0xbd108805bc072a30U, 0xbe7cffdb3d3089fbU,
  0x3da132ef3d320e48U, 0x3e08d253be00f8c5U, 0x3d472acf3c4b04d8U, 0xbc09b6bc3ba7a7cbU,
  0x3d5a6953bca7de36U, 0x3d9fee6dbda526caU, 0xbd956e03bd6bd8d8U, 0x3bcff95e3cec11cbU,
  0x3cb45e563d37aaabU, 0xbd0ead8c3c9b86d2U, 0x3cf2767d3e2baac3U, 0xbd70e6a0bd09d213U,
  0xbcbba3e1bdce0c66U, 0xbd37cd91bcfdca92U, 0xbc81cc2b3d094239U, 0xbd17a2aa3d3a2b5aU,
  0x3cc6b4c2bc697b24U, 0xbd83763b3c773541U, 0xbcbd17d5bd4d636cU, 0x3d69f890bc1e4f42U,
  0x3c2ddffb3d7d18d0U, 0xbd9ce0ad3dbc580cU, 0x3d07666fbc78c4e5U, 0xbb5702fa3b9f15c3U,
  0x3ddeff433dbdaa4fU, 0xbd5f1d283c3d3dcbU, 0xbd23d7ac3dd39802U, 0x3e0737873c6899d9U,
  0x3dc4471dbda3e743U, 0xbb1372ebbd032b75U, 0x3dbb7b7b3dc845f4U, 0x3cacfd143d4f1f80U,
  0x3c539fe1bcf3f518U, 0xbd79bdb7bdb870d6U, 0x3e01376e3d0cdfe4U, 0x3c8bd2adbab156b6U,
  0xbca0b625bd15e43dU, 0xbd3f59edbdac39c9U, 0x3b9857b93dd46bd8U, 0x3dac61e4bbfe3387U,
  0xbd20e959bd69c086U, 0x3c9869903d6e6d00U, 0xbd0a2ce53c2752c6U, 0xbd61f583bd1ea915U,
  0xbc54f284baf7f51dU, 0xbd18a1743da3b627U, 0x3c8776d2bb84de04U, 0x3c263edd3c1aa72cU,
  0x3d358418bc2278a1U, 0xbcb801e23d684209U, 0xbd8b6c14bc165a4eU, 0x3d6a4da73d4d2ba0U,
  0x3d9c6b33bc9326c7U, 0xbd03b7a63d878f8fU, 0x3ce77a843e0319a4U, 0xbd9279a83d25feb4U,
  0xbcc230babd5c0d8bU, 0xbd64a7a13d889eafU, 0x3b43a08c3d3627a2U, 0x3bf621febb9d50f0U,
  0x3d3209203d90a639U, 0x3de4b7a73d9d7363U, 0xbc63821c3d0a1f55U, 0x3d7b86153d5e0bd1U,
  0xbd246ad3bb5b6990U, 0xbd9549aa3d93448cU, 0xbd2315a2bc26d1fdU, 0x3c64a96cbd569e11U,
  0x3d5d3019bd4ca2a2U, 0xbda350e6bd135e1dU, 0x3c721cadbc64c610U, 0x3ceb4b503c87aaaeU,
  0xbc26a4963db25aadU, 0x3dbd9614bc45f085U, 0xba7d41e6bd80daa6U, 0xbd341f03bc335aa9U,
  0xbe0b3763bcbddca5U, 0xbcb2fc46bd82a033U, 0x3d60285ebdb3c5fdU, 0x3db3172ebcfac924U,
  0x3d4b0638bcd7d1daU, 0xbbcb95da3c047a92U, 0x3c93a5e5bd137203U, 0xbd65c574bc8f8ca4U,
  0x3bc1cfd8bce4f1dcU, 0x3d8d16b43d7d9249U, 0x3dcf444d3dd8e717U, 0xbe44efb33d7e6bb7U,
  0x3dba68efbdb41a74U, 0x3ca313abbd10869aU, 0xbca6938bbdbebca8U, 0x3c7ed3943d9fab90U,
  0xbd6783d7bd46bf62U, 0x3cd319d13d44261fU, 0x3ddccd393d164bacU, 0x3dc2a1b03dad418aU,
  0x3dfd31f03d2267d3U, 0x3d889a193e11a83dU, 0x3d267c6e3e14f499U, 0x3c49672abb96bbd1U,
  0x3cfcc4fb3c393aebU, 0x3bfa27f4bdac7d9cU, 0x3d20b6453d111180U, 0x3dcbace63d0bc7ddU,
  0xbd50c6e03b8bb452U, 0xbcf13ee03ded1249U, 0xbd4fadf93d970118U, 0xbbbd03b4bd3c6aebU,
  0xbd10f53bbd7a126fU, 0xbd9a3c463d7f6fdfU, 0xbd82f350bded7066U, 0xbd363c89bdb2c276U,
  0xbd894f7ebd6749a5U, 0xbd782dbf3d244888U, 0xbd8cfd893cefedcbU, 0x3c81b8523cbbca53U,
  0xbb7e94c0bd8593c8U, 0xbcfa7d523a43a719U, 0xbc8b2f68bd0e5f92U, 0xbd01579b3cdedc78U,
  0xbcfe56323d2f1e0fU, 0x3c3a13843d8fe838U, 0xbbc3687d3d2b25cfU, 0xbdb21d64bdaa414aU,
  0x3d8de1a1bdb68433U, 0xbd8a05b8bd31c1f6U, 0xbd93da3f3d606624U, 0x3c8cb6e4bdb8f759U,
  0x3d619389b92a079dU, 0xbd7a3b4f3d12c397U, 0xbc808606bd8d46b9U, 0xbc24f0a03c588a4fU,
  0xbd971c633d2a7d3aU, 0xbd89d3823bce16fbU, 0xbd91c782bd62f341U, 0xbc7422a53d41e1f5U,
  0xba16225b3d1584c3U, 0xbd7c29f0bdb2cfefU, 0x3d76db7bb9f3d079U, 0x3cadf080bd8c3834U,
  0xbdb03f453d4cc369U, 0x3d46544c3b695359U, 0xbc96fb1c3b8937f7U, 0xbd738047bda21de7U,
  0x3b520d313cc9d072U, 0x3c2a9bffbd81a982U, 0xbacac644bd08c55bU, 0xbd38af17bcdabf43U,
  0x3d6b25453d81ed7aU, 0xbd075f2ebd757000U, 0xbda6d2bbbcbd912eU, 0x3c0a6c8cbc89afa9U,
  0xbd4a3b183cad629fU, 0xbc9692323d1483d7U, 0xbd6081503d242649U, 0x3c9ba971bdae8521U,
  0x3d923c7b3d2e2bfeU, 0x3d976abbbd831337U, 0xbca078663cfd6d0eU, 0xbd96f26c3d0be10cU,
  0x3d6854473ba073bdU, 0xbd9ee1efbc7dd7a0U, 0xbd734214bcc17e31U, 0x3d5c6233bd70b9c7U,
  0x3d792df7bb982c48U, 0xbd0c7f59bc36e4faU, 0xbd1a1ba33d8097a6U, 0xbb58ec6d3c90a712U,
  0x3d82f4ef3cbbb4a9U, 0xbb5ad2a8bce55a35U, 0x3d1c1d33bd139f09U, 0xbcd6908d3d1f8e73U,
  0x3d30b4163b83a516U, 0x3d3c2816bce6299eU, 0x3d93c464bcce2dc2U, 0xbd4a521a3d08c38cU,
  0x3d8bdfecbcc5901bU, 0x3d50fc053d81dc79U, 0x3d868661bd388bc0U, 0x3d09fb49bd30549eU,
  0x3b763de63c85fcfaU, 0xbdadbcedbc81acd3U, 0xbc9ead963c3c5efcU, 0x3d07bbe5bcdf80ebU,
  0xbd647ae1b9b2f0feU, 0x3d4eac78bda84a5eU, 0x3d481bf6bdb12bacU, 0x3cc10c6e3cb7208dU,
  0x3c696504bd3692e1U, 0xbc8d67c2bcd35c41U, 0x3d8ce36dbda75e46U, 0xbb9d0541bc01c1c4U,
  0x3cb66c233cf39e36U, 0xbd7606fa3d3e8355U, 0xbd6c18a2bb08180bU, 0x3cf7481f3cc5ba5dU,
  0xbb615d33bd68812bU, 0xbc8edd143d24b1c3U, 0x3d7df7ee3c6a0f60U, 0x3d2f6e79bcf39303U,
  0xbdafe9093d1ff667U, 0x3c96d7443cd89d9cU, 0x3cf413303d2b5acdU, 0xbb9deef83b5d140aU,
  0xbd5cb8d7bda75e01U, 0xbc8c9e753c572b93U, 0xbc7ff1bcbd3c1807U, 0xbd748fdbbd422130U,
  0xbd1aa77fbd8b15d9U, 0xbd0d76663d648d92U, 0x3d79cea83d459b85U, 0xbd63d0403d76a300U,
  0x3d4e2d90bd721ec8U, 0x3d7163c6bb8e1201U, 0x3d76880e3bc6a07dU, 0xbd9946f33d8663e3U,
  0x3c8fd7133cf2a2c0U, 0x3d58d830bd178111U, 0x3d130af7bd8d4b13U, 0x3d911889bccf4bbcU,
  0x3c8ff259bd09b474U, 0x3d5b2f7cbc8fca22U, 0xbdb36356bd6b5b99U, 0xbda3df933d1bc9d1U,
  0xbdb0262fbd0dda96U, 0x3bd146db3d90172fU, 0xbd4453bcbd3587d5U, 0x3d81b1b83c893e4cU,
  0xbd3d26793bcc7076U, 0xbca27466bd8ba4f9U, 0xbd534adabb1a0a70U, 0x3d681192bc193c66U,
  0x3c8c1d4e3cfcb5f2U, 0xbd9d235dbd88fffaU, 0xbdb670ad3b5fe9c6U, 0xbce19e53bc046ecfU,
  0xbc947e89bb65a4f1U, 0x3d0c7332bd562296U, 0x3cfc3d0bbd87800bU, 0xbd33a2583d4274deU,
  0x3d613d823c8da24aU, 0x3bb332c5bd3be2f6U, 0xbaaaa4203c97081dU, 0xbd6140aebacd9caeU,
  0x3d77e84abc540fe0U, 0x3d46f7f93c063c83U, 0xbd29b4abbd6cfcb0U, 0x3d7caeacbd7e7247U,
  0x3d9248493cbe81a1U, 0x3d811b803c2ad011U, 0xbd17d0f33b777d41U, 0xbd98ffeabd162061U,
  0xbd11fbe23c3fae91U, 0xbd23e0a03cf54990U, 0xbd1ca6363d4295aeU, 0xbd3fb3c43c5fa918U,
  0xbd8f7ab3ba9052d7U, 0xbd575619bca71ac4U, 0xbc7a0684bd8ff2f1U, 0x3c328425bce960e0U,
  0x3cd46b153d2ec9a4U, 0xbd5e2239bb431c23U, 0x3bc8d2383b6a3124U, 0xbd4659fdbcc0825eU,
  0x3c63b1d8bd884052U, 0xbd86291e3d24de76U, 0xbca81692bd222860U, 0x3d78e6c6bd0aa039U,
  0xbda7c8b43c586a78U, 0xbda72c1cbda63ff0U, 0x3d1431333d6e1801U, 0x3d1cc9b8bc061543U,
  0xbd336249bd422c0fU, 0x3d1c398cbbd4ff40U, 0x3d828ba0bcc16ee0U, 0x3d4befcebd899cadU,
  0x3d276f76bb43d123U, 0xbdb74ca93c7cebb6U, 0xbd8555b5bc96cba9U, 0x3d05fddf3d15d28dU,
  0x3cfb3e7c3d7a67c3U, 0xbd93d24ebceebb79U, 0x3d47fd8239a07df2U, 0x3ccca0aabd856c97U,
  0xbcfb1f58bc99924bU, 0xbc9a7e32bd826468U, 0x3c8ac1a53d673c24U, 0x3d439802bdb6efc1U,
  0xbdb05edabd5b5584U, 0x3d51706dbd17eeb2U, 0x3d815050bc47540dU, 0x3d495cce3c617239U,
  0xbc906337bd8a8191U, 0x3c55781e3d1d4d07U, 0x3d80ed6eba34e246U, 0xbd2178573cbc990cU,
  0x3d8894d4bb90cdeaU, 0x3d207642bbe3b327U, 0x3d3dee99bda70db6U, 0xbdab6e443cfe51feU,
  0xbd2542d23ae01c9cU, 0x3d4354aebda1ed17U, 0xbc863193bd64a652U, 0xbdb4c6b13d258779U,
  0xbc8fb0633d510705U, 0xbbe4a8553cade996U, 0x3d3ca435bdb7ffc2U, 0x3b06042f3b279da5U,
  0x3d8eaab5bd0e3986U, 0xbd2f32d43d02f04dU, 0xbcc228adbc90d64dU, 0x3d64529dbd68d7d9U,
  0xbc33983bbcdc5178U, 0xbda90ac53cf9dc6dU, 0xbdb499ffbdbac473U, 0xbb74feb43d1d5ff1U,
  0x3d92241abceeea4fU, 0xbdaf3489bcb5b744U, 0x3b352bbdbd2014b5U, 0xbd139c2bbd283592U,
  0x3d72a0273d23f92bU, 0xbd28a0e5bdae23e9U, 0x3c5551a03d32be77U, 0x3cc29bf2bd42abc2U,
  0x3cb6029fbd803147U, 0xbda741e2bd33420aU, 0xbd0c2742bbfb07efU, 0x3d901faeba92af21U,
  0xbd568c26bd4eef71U, 0xbd8b3f30bd8bc686U, 0xbd309fc83d5e5437U, 0xbd8a15373bf89c56U,
  0x3cd3de123ccbe421U, 0xbd93e5603c58fbe3U, 0xbd94e74bbdae3c9cU, 0xbd3f8dd93d76c25aU,
  0x3d28e40f3d50b7abU, 0x3d1f555cbda3707bU, 0xbc3713363bb9ac00U, 0xbcf60dccbca05cebU,
  0x3d5b6f6e3d11ee52U, 0x3c842e383d322febU, 0xbda310acbd11ca28U, 0xbda8badd3d05b738U,
  0x3c42ff833d2f76aaU, 0x3963fe66bd4eaa1aU, 0xbd9422383d7b88c2U, 0xbdaeeb21bd69f694U,
  0x3d63beae3d88b29bU, 0xbd6cfe6fbd5d3e7cU, 0xbd29422cbd196073U, 0x3d466f7fbd70ed26U,
  0xbd45c819bc8cae95U, 0xbc370aeeba8f05a3U, 0x3d916b123d8d5d57U, 0xbda52acbbd40ae77U,
  0xbaa00e40bd9cf413U, 0xbd899082bd94f4b2U, 0xbd8bf403bcc4647eU, 0x3d02d01c3d902a05U,
  0xbd5e43aa3c835f2fU, 0xbd46be1e3d7215f7U, 0x3d8f00ac3d00b7f1U, 0xbcc36dba3d1cac37U,
  0xbdaeb2e3bd17d6e7U, 0xbd60a0c7bd11b50bU, 0xbd4bc2c4bd1f5bdeU, 0xbd210d0c3d8fa0ceU,
  0xbda0323d3d283998U, 0xbdaf5116bb43f998U, 0x3cbe442cbd5fce4aU, 0xbdaea500bda13606U,
  0xbd93d735bd62a359U, 0xbdb1d90abd9e9845U, 0x3d83017d3c90b1f2U, 0x3d83975e3c1edb9cU,
  0x3d29750cbcb3f4fcU, 0x3b85493e3bc56dd7U, 0x3d1300a9bd2bdf78U, 0xbd1905d3bc65ef4aU,
  0x3d0c30203d1f8b38U, 0xbd41864cbdb73709U, 0xbc962acbbbefe887U, 0x3d3f84c5bda1f847U,
  0x3d461a1d3d7f6d4eU, 0x3c1ff8333d667442U, 0xbdb324e9bd67d8daU, 0x3b9b3d3bbc9988e4U,
  0x3c3ddf52bc61aaceU, 0x3d43a495bd377458U, 0xbd9373cc3cbcc8c6U, 0xbd8001fc3d12c855U,
  0xbd9345ad3bf5c07cU, 0xbd1deb4dbb991ee7U, 0x3d6cbf9c3d91236fU, 0xbda366163d5ca33bU,
  0xbd8153303a43c6d7U, 0xbcaa19d1bd877c2bU, 0xbd8f0af13cb34300U, 0xbd92b931bd9ae4d5U,
  0x3cdc304c3d2187e9U, 0xbcb66178bc67a011U, 0x3d70f01f3cadab3cU, 0x3d85a7f83d0f2f8dU,
  0xbd42cdb5bd87590fU, 0xbd82a06e3d46a8dfU, 0xbca26ccd3d65ce04U, 0x3d7ff863bd2ca400U,
  0xbd2391adbd9e3171U, 0x3d379ab2b9f17758U, 0x3b1c7687bd4445bbU, 0xbcf4a0b93cb89108U,
  0xbdb65f633aaf61f2U, 0xbd7ec5bb3d711304U, 0x3c5109f43cd731daU, 0x3d713805bda4873eU,
  0xbda6b8d43c869928U, 0x3d8cd0a13d4f9e0cU, 0xbd0dee62bdbd9840U, 0xbd831f5b3b5019f2U,
  0xbca7c1b73d867867U, 0xbcf4df673d348285U, 0x3ac6603b3cb283ceU, 0x3d0611463d0e64c9U,
  0x3d224b303d561795U, 0xbcaa5b5abd9a4466U, 0xbd76bf3a3c26ce89U, 0x3d08f414bd974d03U,
  0xbcf25457bd890c8dU, 0xbdab21dcbd8ff3e3U, 0xbd676f023c969ec2U, 0x3d80bc633cd675d4U,
  0xbd4cedecbd103223U, 0x3aca9251bd33c6bbU, 0xbdbad2a03d199e31U, 0xbcfba08fbd8b61c4U,
  0x3ceb6b4fbd45f638U, 0x3c9c085fbd486a2fU, 0xbd807a883c427986U, 0xbc5d7638bc2882bcU,
  0xbd95ce223cd4be2dU, 0x3d8f631e3cc953bdU, 0xbc901d31bd56b6feU, 0xbd74c55fbce207a9U,
  0xbd8468743d665043U, 0xbd83e8143cda253aU, 0xbd9f7de0bd2d18e3U, 0x3d31f4783d8e3a56U,
  0xbd9fff263ce4d5d2U, 0x3d41eb8b3d5a3819U, 0xbd5287b4bd29565cU, 0x3d7a32413d28e277U,
  0xbcac07cd3d49537bU, 0x3c655dff3a5fc16eU, 0xbd4c31773cd26fd6U, 0x3c0f223ebc960622U,
  0xbcb3f3553c926325U, 0xbda00e00bc8f658fU, 0x3b3c14efbda43278U, 0xbcdca8093d721bc6U,
  0xbdacf6263d603ad2U, 0xbb8e455ebc1f65faU, 0x3a2365723d71e63aU, 0x3b42b5fdbc8d3d35U,
  0xbd0260e43c8771e7U, 0x3d1158bebb8c0234U, 0x3d0f1d8e3d1bd1a9U, 0xb9332d8bbda1fb1eU,
  0xbc9f8c79bdaffc8bU, 0x3cf2d975bd8a020fU, 0xbd6afbb33ca94091U, 0x3cd067ce3c82f49bU,
  0xbd97c275bda3ade6U, 0x3cbf2b85ba8f29d3U, 0xbcf1af86bdac4530U, 0xbd72c6223ce62242U,
  0xbd3a8bc0bd261589U, 0x3afc87c23ccd22a6U, 0xbb796513bd030158U, 0xbd9c9c003cca5b83U,
  0x3d24511d3d6845c7U, 0xbd7b228cbc9a93daU, 0x3d689b67bdb519f3U, 0x3bb0f825b98da55aU,
  0x3c6b7b49bd650a70U, 0xbd841e783cf6f727U, 0x3d2ad34d3d75f600U, 0x3d3cfb84bd010792U,
  0xbdad014d3cf9778cU, 0xbd0b530f3d228e6fU, 0xbccc22d6bc8015a4U, 0x3d37e668bc94ea14U,
  0x3d4510923cd12e2dU, 0x3cb3cb7c3d5d4f1dU, 0x3d356aa0bd6218c8U, 0xbdb849043d90b91fU,
  0xbc5787cd3d2218e5U, 0x3d81a5eabcc91f8eU, 0x3c8754e3bd94d4eaU, 0xbcf4a441bc5ba374U,
  0x3d6f80dabd09c178U, 0x3c4eff333d4c99ddU, 0xbc4f148cbdb1a4caU, 0xbce9e8e9bdb257ffU,
  0xbda84864bd59f643U, 0x3d8ce8113c8563adU, 0xbd02ddadbce6254cU, 0xbd4b5db3bda9d0ceU,
  0xbd323edcbd565699U, 0x3c6e7e763d21015dU, 0x3c473f7b3d717d04U, 0x3d4875a63d542d53U,
  0xbc5cb3773d06f0dcU, 0x3bed229abc0059f1U, 0xbd650bd6bd425c66U, 0xbd2f67c9bd789146U,
  0xbd62c7d7bd86b110U, 0xbcfbe5f4bda0fc27U, 0xbdb1dc2bbd98c4ecU, 0xbd7d6ed83ce218b6U,
  0x3d8225233d04fb37U, 0x3c1edbf4bd802f61U, 0x3cbb76cfbc6f07cbU, 0xbd9323ed3d2dc4e5U,
  0xbd5d3c6b3d25943cU, 0xbc7b58033d15b043U, 0xbd06a47ebc5b9d78U, 0xbdb61974bd027f22U,
  0xbd90c763bdb4122cU, 0x3ce25a77bce0ba51U, 0x3c77b2afbda35499U, 0x3d86d5f03c43ca14U,
  0x3bae9b47bc4abe29U, 0xbc8c96d83cd20b4cU, 0x3d336ad43da7e0a3U, 0xbbaa4126ba8b7f75U,
  0x3c946955be183e68U, 0x3e36201abd871255U, 0x3cb958b83c9d1bdbU, 0x3c48da703c666cdfU,
  0x3d7193083d81541eU, 0xbd002eb0bd61981dU, 0x3d6998cabd2b0a27U, 0xbd58b3ee3c9005f6U,
  0x3d2d0b10be0563f6U, 0x3d449a63bd805599U, 0xbc7689be3c9d2884U, 0xbcfdcc1f3cf74c68U,
  0xbc309c1f3d5f5f36U, 0x3c9a7bd4bd6a35efU, 0x3dbba16fbdeab71bU, 0xbca002873d56273dU,
  0x3c5d66723c306861U, 0xbca3ea233ce64283U, 0x3db01e32bcdf48d5U, 0x3bce12423c1676eeU,
  0x3d855db5bc99f089U, 0xb922cf19bcb07c2aU, 0xbc429aef39915a1eU, 0xbd98e838bd0e38c2U,
  0x3cbeb127bd453ca8U, 0xbd981e1fbcf47354U, 0x3ca2bfdb3ca7d930U, 0x3d8c22ebba4b4ffbU,
  0x3d1e396fbde0ab92U, 0x3ca8d358bdb3497cU, 0x3c126256bd8b9f6aU, 0x3c3dc4a53d508ee8U,
  0x3d4891f43cbe8ed9U, 0xbe225d99bbee8ba5U, 0x3c500c7fbcc3de57U, 0x3d687e5fbd503f14U,
  0xbd2fa1ebbd0c7d32U, 0x3d8058bbbd386dd3U, 0xbc3f47733b21e331U, 0xbb441fd2bdbcc545U,
  0xbd2c5badbc804117U, 0x3ce917453d0afdaeU, 0xbe184fe7bd07647cU, 0xbd3599f93c73ebfbU,
  0xbdbb5a0ebcbee63bU, 0xbc0585f13c3fe97eU, 0xbd3196a53d8bc93eU, 0x3d7855d93ce019eaU,
  0xbcbe55a83cfba855U, 0xbd8d6e88be2719d7U, 0x3d087327bd0cf18cU, 0x3c479c2b3d07d287U,
  0x3debb187bbd9a3b3U, 0x3b1ee0e7bcc1cdebU, 0xbd4088103b144b32U, 0xbd1e03a33d391bf7U,
  0x3c9c5a813c1515adU, 0xbdf1aabd3decacfcU, 0xbcd583db3ca7016dU, 0xbc7cb4c83d6447d2U,
  0x3c7c11e93cc4f344U, 0x3d0381733d09abafU, 0xbbde3553bc4e4979U, 0xbe03eee83d7efea1U,
  0xbbbd94ba3d113445U, 0xbd8eb278bd10b9e4U, 0x3dd437d3be3f8eebU, 0xbd87da0c3d869171U,
  0xbd82211ebdfc39fbU, 0xbd5b1ef53d2b8f89U, 0x3dc73c34bd6428d9U, 0x3dbeb1803d58da88U,
  0xbd9130043e010018U, 0x3a5b7f80bd1f80d6U, 0x3d61b8f6bd59afd7U, 0x3d817b433e051f1dU,
  0x3dce466f3d2a6041U, 0x3d22203bbd9d1f3fU, 0xbd0707483d37f732U, 0x3d8c27c33bea4c71U,
  0x3de435f93e09303fU, 0x3dd825b5bc4df65eU, 0x3d992c8f3e0e4c0fU, 0x3bef892f3c34ba18U,
  0x3c97a7fe3d1f8c8eU, 0x3d43a8cabd537b5bU, 0x3d19a3b13ce6f106U, 0x3d09a2b2bc3fa9a4U,
  0xbd4a88643d4c13ddU, 0xbd3bebbc3e169128U, 0xbd412a8ebc54d3edU, 0xbae23e48bcaccfb2U,
  0x3c5857f43be86de1U, 0xbd74e7033d10e6e0U, 0x3d33b475bc8eccb0U, 0xbbebeda93d146d30U,
  0x3dc3fffa3d9ec53fU, 0xbd3f08c83cf22895U, 0xbd1a7355bd996b58U, 0xbe19d24cbc54ede0U,
  0x3a28bee9bca1c6f3U, 0x3d1686d23cdcfc27U, 0x3d7d622c3dfe25b1U, 0x3d99ba1f3b64ffecU,
  0xbc039d88bde99351U, 0x3cec8b173cc3d1c1U, 0xbd1aa21a3e052358U, 0xbd5809f83e0d5993U,
  0x3cd071623dc5312cU, 0xbd39b33e3dc1db13U, 0x3d9250133dd7c201U, 0x3cfc27213d3d0ab1U,
  0x3d693fefbdfc64f5U, 0x3bafb59f3df7ef87U, 0xbac9afb4bd662a19U, 0x3a83fb283d2f4645U,
  0x3d38dcdf3d70ecf0U, 0xbcb6a61bbd92dfbdU, 0xbd69221fbd397591U, 0x3d2b8ade3d570ebfU,
  0xbd5bf096bd4a9822U, 0x3d3afabd3d6f3677U, 0xbd8298693d087cc3U, 0x3c7c13283d0eeb7cU,
  0xbdd1a936bcd57257U, 0xbd0e1de63d692648U, 0xbdcc4231be1e9f44U, 0xbd4f97713c178c4bU,
  0x3c4831b83c128459U, 0x3c50fae53cc2d0a8U, 0x3ce492d83d4656c3U, 0x3d7322603d648c94U,
  0x3c9653f5bd5d631dU, 0xbdb59f263d77e5d8U, 0x3d32def5bd335bfeU, 0x3d1fd1623d94e02eU,
  0xbc6c5a0b3c718794U, 0x3d830c97bd9e9df6U, 0xbd3b43fabd097167U, 0x3caf6930bde544acU,
  0x3d12f946bc3d2ab2U, 0x3d401484bbd58ef2U, 0x3c4ccc0dbd81aa1bU, 0xbda6c32cbd8bac99U,
  0xbace883cbda127a7U, 0x3c4a4a58be1d98afU, 0xbdb9fdbabe0337e3U, 0x3d6412a0bc92605dU,
  0xbc6e42d73d042ab5U, 0x3d5678033d6cb339U, 0xbd9cf4483c97f229U, 0x3c86213a3d7f5922U,
  0xbd26cbbbbca2e6afU, 0xbd0ccf433d076daaU, 0x3dbc70babd7ad7edU, 0x3d11bd1fbd9c6959U,
  0x3c8949f6be488e23U, 0x3c970bce3d434a82U, 0xbde11b943c289d31U, 0xbdfeea7fbd480cf0U,
  0xbe171307bdbcaf03U, 0x3cba2358be2be405U, 0xbd880d16be5b1ba4U, 0x3bc51904bda6a794U,
  0x3d532e44be50e7baU, 0x3cbdf9403d183e82U, 0xbe33b320bdbb0cb3U, 0xbc836f3e3d9e2bd0U,
  0x3d1e96ab3ccbf41eU, 0xbd476fd5be8a7a95U, 0x3df32fb9bdcaa6adU, 0x3cf9e7a4bd8f2754U,
  0xbe434ff3bc13b7fbU, 0xbce07aac3d0a3484U, 0xbd54fe953d6be32fU, 0xbe4b37da3b6d0686U,
  0xbc8cae063dc08d61U, 0x3d6f402fbe365b19U, 0xbd518acabccc3a59U, 0x3d0ca54f3dde4773U,
  0xbc9c45333d80ebe2U, 0x3b979f9fbdd297deU, 0x3c9952a63e12ab85U, 0xbd3664b9bccb5e42U,
  0x3d65f11dbdcc95c2U, 0x3d94d3953d4a6d8aU, 0x3dbdd5de3dd9f471U, 0x3e2630a13dc232aaU,
  0x3e1795bb3c091345U, 0x3e0296edbdf8faefU, 0x3d129bff3c91611dU, 0x3e14dfa7bcbf0f61U,
  0xbc652e18bdcebc14U, 0x3cc4f7843d9c92c6U, 0x3d042faf3e2d5197U, 0xbdc1aa6e3da7f29dU,
  0x3e00830a3ddd86e7U, 0x3c976b26bc3a0ae3U, 0x3d72b8ddbcf7a0c4U, 0x3e1afe1d3d84ea45U,
  0x3d0a2b373d34385cU, 0x3d4ba2753df4cd78U, 0xbd19727abd46fa89U, 0x3d8719b43c67bc98U,
  0xbcc559b83e20f1a0U, 0x3d967a2a3db162ceU, 0x3cfb11f2bd81db4dU, 0x3db2c5d13a47d4dbU,
  0xbd5f43cabd8daa52U, 0xbd10172a3e231758U, 0xbc957a61bcacc841U, 0x3ddfa34f3d1875f1U,
  0xbddacb7d3d5ea853U, 0x3d5e2f9fbcc69de9U, 0xbbe49d60bde253acU, 0x3e242572bd5ee910U,
  0x3d2e11d6bd7f7e63U, 0xbd831aac3e069761U, 0xbd1018c83d6feac9U, 0xbd5682a03dc3fb5cU,
  0x3dc425da3d30647fU, 0xbc4123f93d39a8d6U, 0xbc8187cc3c4aa52cU, 0x3c324ae5bd00579bU,
  0x3d65706fbd474a1cU, 0x3cb6f4483d77cf7bU, 0xbd2761133b337b3bU, 0x3c0fc156bdaca941U,
  0xbb9381c53c1b9873U, 0xbc6988ca3b767824U, 0x3d2d21f7bd44fda7U, 0xbd51b2243d1cb3b8U,
  0xbcacc268bd34bd84U, 0x3db49d5bbd084463U, 0xbd1e29bd3e17de20U, 0x3c717b923cd3cb6fU,
  0x3a5755cabd0050cdU, 0x3dde1497bc38777aU, 0x3d26d4d43bd4262aU, 0xbdab74113c8261e2U,
  0x3d0faee03ddf235fU, 0x3ce1ebe4bd32ca73U, 0xbd5c7b6fbbd4694bU, 0xbc3d46e9bc51fd12U,
  0x3d61bf1f3cd7f895U, 0x3d5ae168bd54c371U, 0x3cded161bd6ef6eaU, 0x3c848fc43daa75deU,
  0x3dc41591bd4e2cf2U, 0x3e0369163dc28c50U, 0x3d293626bd043e71U, 0x3d1190cabd9b0393U,
  0xbd1a8e8fbd256a73U, 0x3dd6be58bdaaa104U, 0x3d0ce68b3d9901a0U, 0xbe11eb75be10524eU,
  0xbbaea5ba3daba1feU, 0x3de64241be2741f3U, 0x3cbf16afbd806246U, 0xbd5fe580bc3fa07dU,
  0xbd551af0bb8678beU, 0xbce336bdbd6f2188U, 0xbdbf1692bd3edc58U, 0xbd6a85b5bd7f8e29U,
  0xbdf3796c3d86a2e5U, 0x3d3513353d1867c6U, 0x3cb63ac4be92400cU, 0x3d63e4a03d66fcc7U,
  0xbdc2f99f3d9c288cU, 0x3c444cd13de96dcdU, 0xbe98977e3d8c662bU, 0xbe15522dbcebf4bbU,
  0x3c1f425d3d61ff0aU, 0xbd8fa229bd4f2033U, 0x3d929266bcf153faU, 0xbd780e213d2c3da4U,
  0xbd8a430a3c1b7cd5U, 0xbd6be777bcb245e1U, 0xbe58e9c33dd4840cU, 0xbd9f90b63d3d2210U,
  0xbd605ef8bc39f2cdU, 0x3d8a9e2cbd151a6bU, 0x3c2a17bb3d839264U, 0xbbe11c313da2a40eU,
  0xbda97ac43dacedc9U, 0xbd676d28bcd30cc1U, 0xbd915320bc2d2d64U, 0xbc252d3539828e15U,
  0xbe167abe3ca08625U, 0x3d87d6f5bb2712abU, 0xbda693903d86f6e9U, 0x3d2893d43d05a8d4U,
  0xbc0fe07f3df7f4a9U, 0xbc5eeee8bd579003U, 0x3db1ac7dbd510de8U, 0x3daf0d7c3d7fd928U,
  0x3e02fc993ab846e1U, 0xbdc74ce73da6dd4fU, 0xbd53bd5b3d843a2cU, 0x3d89797f3c5a7653U,
  0x3cdd5a043d92e38eU, 0x3c93d6283c5eb90eU, 0x3e18f49fbcaa7bd8U, 0x3e0303ff3db1c599U,
  0xbd1fe460bd374e4cU, 0x3d05078e3e1f4dabU, 0xbd38aee53cf07223U, 0x3d83c866b9321ce1U,
  0xbdd374ff3db44ac7U, 0x3d47d83b3d066b46U, 0xbd47cc373c22a5f1U, 0xbcb57baa3ca92bbcU,
  0x3d20cdefbd10c9d8U, 0x3cbbdfdcbb119bcaU, 0xbd529c0a3db58d4eU, 0x3c26ba8a3dbeb818U,
  0x3d5a82573dc0ecf3U, 0x3d91fbcf3ba50a5eU, 0xbdd05317bdb4407fU, 0xbb9564f8bbdce60dU,
  0xbb7a03cd3be5ce9aU, 0xbdea25ed3d27aa44U, 0xbcfd2b2c3d72d982U, 0x3d883c7a3dd46415U,
  0x3b3d22373aa0074fU, 0x3db02882bd3e6ccbU, 0xbd4cadf53c8f3b47U, 0xbb9398e13db6ff3bU,
  0xbc5120043be15a45U, 0xbc2463edbd189efeU, 0x3c0b34063cab6affU, 0x3dc2dbefbb30178dU,
  0x3ac4e636bd961ba5U, 0x3db23f18bc99f7feU, 0xbcfcc25e3b6e6b7dU, 0x3c69aa1dbc5edb0fU,
  0xbd4c082b3deec42bU, 0xbcfe6db43cc4cc23U, 0xbcf6b8c9bc6e0072U, 0xbd2086ea3b906baeU,
  0x3da147543ddbe543U, 0x3bfc2d503d95ceaeU, 0x3cf85f54bc428ce0U, 0xbc23c2083da64ba8U,
  0xbdf42968bc8efddbU, 0xbd95353dbdab432eU, 0x3d7dbf0a3b9f1c19U, 0xbddfc1c33dbc77d6U,
  0x3d8da6723bc6e129U, 0x3dcb9061bcf23e2aU, 0x3d17fef23d8d75e2U, 0x3d1ec141bccf6bfeU,
  0x3c46559fbb0df03aU, 0x3ca3e90dbc8fbcccU, 0xbd735977bc87249dU, 0xbd64fa03bcadffecU,
  0xbccfbc35bd3a77d0U, 0x3dd71c123b54c05dU, 0x3cedfcf0bd9248a8U, 0xbe06dfa5bd8b9746U,
  0x3d466d1dbd2d37d3U, 0x3ddc31143cdf5478U, 0xbba28245bcc61039U, 0xbd094e483dd01664U,
  0x3cc2949ebc3ae287U, 0x3c5b2c19bcb59168U, 0x3d63a6323d456261U, 0x3d7f34933d4d1c68U,
  0xbd125af33d9ae045U, 0x3d4738053af69e73U, 0xbd63753bbd283257U, 0xbd40f8853d926db0U,
  0x3daab1b6bce4e332U, 0xbd7678573d0dac7aU, 0x3cea23cabd0787f2U, 0xbec63626bbee355eU,
  0x3cbb67383d18fafcU, 0xbd06f7c6be3ea4b7U, 0xbc87b5a63cd1c258U, 0xbd8a64373d190134U,
  0xbcc48fa23d59b58fU, 0xbd966c1c3d6586f2U, 0x3c812d8c3dc06ce2U, 0xbd86dc99bcd00bb4U,
  0xbd204ff33d2d2f2cU, 0xbccc9842bc26d981U, 0x3dacc4c8bd3d66b0U, 0x3dab05c73daa35b8U,
  0x3db5eb033bb86ff3U, 0x3d4615ca3d266cc7U, 0x3c9ad378bd26c67cU, 0x3d27514ebd1dfacfU,
  0xbd94b1c73cd0f31aU, 0xbcb49fff3cbf1bbdU, 0x3d60b587bd382e00U, 0xbd8bbe4c3d685a22U,
  0xbc010dafbd537262U, 0xbdb6f6a0bd15954dU, 0xbd28610a3c2f2216U, 0x3d44e3c3bbd313d9U,
  0xbcb75e2c3d5e88adU, 0x3c57e4203cb95c68U, 0x3d00d0a63d900011U, 0x3c17c5963d951bbeU,
  0xbcc1d7113d38580bU, 0xbd96e13d3d9ef1bfU, 0x3d54f754bd3e89ebU, 0x3d86ecea3d16d06eU,
  0xbd03938cbd41f943U, 0x3d5e23973d8e00e3U, 0xbd3dc682bd82e6bdU, 0x3d919f413dd3df12U,
  0xbd61de5dbbb3ec37U, 0x3da9dd563c86cb6cU, 0xbd3cd04bbddea2ccU, 0xbd696839be038f5cU,
  0xbe231a90bdaf20f1U, 0x3a9829c03c2f4f6aU, 0x3d81532b3d51ce9cU, 0xbdc1611bbdb7f40fU,
  0xbda0b9b73dcf2c9eU, 0x3d85f4b5bd21699cU, 0x3a61cc64bdb69eafU, 0x3c0a18abbd690666U,
  0xbc766fb13c9c00f7U, 0xbdde1df43da5daefU, 0x3a1471de3cdd1506U, 0xbcdfcc10bcde670eU,
  0xbb852d7cbca6f374U, 0xbcc342debd89af37U, 0x3d7fb38b3c910282U, 0xbcf4baf0bd0d141eU,
  0xbd91cfbb3ccca0dcU, 0x3e1c9cfebca53ad0U, 0xbd186697bda6a0b6U, 0x3c0ffd21bb0bd2ddU,
  0x3da33ec63b2ecd97U, 0x3daf06de3c2bc6b2U, 0xbda3795c3d22f021U, 0x3bd3aefebdabd380U,
  0x3d2221eebc78a425U, 0x3d227a79bc2b3d4dU, 0x3c3ac2ee3d7d664dU, 0xbd8487d4bd3ba28eU,
  0xbd2a1fa6bd849ed5U, 0x3d4d1a99bde3b1c3U, 0xbdbe1bf73b2968a9U, 0x3d30d2f6bd43f997U,
  0x3911e742bcd8ff8cU, 0x3da404cfbdccd071U, 0xbce704f8be1df40eU, 0x3d66a2db3dc97846U,
  0xba3dd1263b4faa46U, 0xbd53249b3d0257a9U, 0x3c47021e3cf6a60aU, 0xbacf433c3d19ad1fU,
  0xbb8cebc33d9b49ceU, 0x3d0df52dbd74b984U, 0x3d8aa93dbba0ec83U, 0x3abef8933de48e0dU,
  0xbd9d1b13bc836e87U, 0xbd9effbbbc0766a4U, 0x3c89afcabd28b5f5U, 0x3d680801bcc91c7dU,
  0x3d374788393414f0U, 0x3d962babbd72a3daU, 0xbd2a8ace3d9bac1aU, 0x3d97d6893dcc820aU,
  0x3cd0ca6c3e31003dU, 0xbdbaaac23d076d80U, 0xbce7893ebc2f69ebU, 0xbcb8737c3d5c278fU,
  0x3da074093d0ece60U, 0xbda747363e0a050aU, 0x3c857d8c3d91b3b5U, 0x3d0ccdd93e019ffbU,
  0xbd1624563d8218aaU, 0x3d41243dbce835cdU, 0x3da710063d8b69b5U, 0xbdafae3fbd9c7605U,
  0xbcd91518bd53ab6dU, 0x3d389c703d1c2989U, 0xbd4493433db8f2e4U, 0xbc63a311bd04924dU,
  0x3e2c35953e202d24U, 0xbd40b4063d6e9480U, 0x3cdf6d05bd9ccf12U, 0x3d878ccb3d902174U,
  0xbd9879f83df064e2U, 0xbda63fba3dcc061cU, 0xbdbf9e8a3bc70398U, 0x3de16c5e3d8349bdU,
  0x3b7fb8843c9498c4U, 0x3dc5143a3cf6c06dU, 0x3dba967cbb96b9aeU, 0xbcba0d16bd3b7514U,
  0x3d1e1d0a3d47871eU, 0x3c07beaa3da4dfdeU, 0x3d3c2f0fbd8f97f8U, 0x3dfd7539bdf43169U,
  0xbd44b644bda16f05U, 0x3d90f8a53c3547b9U, 0xbd9090463b82dd5eU, 0xbe196fb23d2e0f3fU,
  0xbcf68429bdd4b1a6U, 0x3cc23ba8bdb452aeU, 0x3cd41059bd9c0e47U, 0xbd5bb25d3c77beaaU,
  0xbda5af503d03af8eU, 0xbce21006bbbb0d5aU, 0xbd210f473ce94665U, 0x3c84555c3d13c9f1U,
  0x3d102103bd3be3bdU, 0xbcaec5243d00008bU, 0xbd4b48e4bbc8d540U, 0x3d25ba7dbc0f082dU,
  0xbdc4f8013cbd0d42U, 0x3d2564b9bbcddc78U, 0x3d62946c3dbdf660U, 0xbc524b69bd0b1692U,
  0xbd0c6e58bdc7fbefU, 0x3d08b2cdbbdb6953U, 0x3c0c0df03cd6696cU, 0xbd80e67a3dd27ed3U,
  0x3e15ea37bd9c20bcU, 0xbda6a6c7bcf7a1c1U, 0xbcb435fdbdbcbaedU, 0xbe781d70bdd4b1e1U,
  0xbdd746383d36019dU, 0x3a5699cdbe4482b7U, 0xbce02c1ebaa4337bU, 0xbd1f600ebb24b096U,
  0xbcc8b976bd9809d0U, 0xbdb13388bc81ac79U, 0x3db7598dbd030c74U, 0xbd2e29953cc73de1U,
  0xbc4148d4bd1bc272U, 0xbb12f50a3da9d115U, 0x3dd6eb213d9c8a43U, 0x3d9cc7913b051bc1U,
  0x3d8b7646bcfd171bU, 0x3ca745393c8ed519U, 0x3da9c78cbda62f83U, 0xbd41df12bd90a7f7U,
  0x3d8cba5bbe036d5fU, 0x3c0bc2373dbcf3abU, 0xbde7a62abc30ad9cU, 0x3d9d56083cf985b3U,
  0xbcf190cdbd41a22fU, 0x3e146cdb3d85438cU, 0xbdfa1efc3db89598U, 0xbd3d2ffabbdf4f33U,
  0x3c178acfbcae2c94U, 0x3cde12243c78365bU, 0x3c280171bdc197fcU, 0xbce2eeeabd39950aU,
  0x3e150ec3bd012ba8U, 0xbe0e4c1dbd34e326U, 0x3dcfff11be80e9c1U, 0xbde55361bcd33d1eU,
  0xbd7285dcbd3f6963U, 0xbd1a6e3dbdd0776dU, 0xbd6b2341bd6208cdU, 0xbcc7fb043da62a25U,
  0x3e0c2415bd9daf1eU, 0x3cec738f3d1d9429U, 0xbdb33c8f3d77fac2U, 0xbeb68e7d3b0ddc71U,
  0x3d3172e1bae2889cU, 0xbd9b270f3deebfedU, 0xbcb975383d92e0d9U, 0xbe04b0a83d3d765bU,
  0xbdac58fa3d0e88f8U, 0x3d8e937e3ddb6a4aU, 0x3db9ff61bb8803f2U, 0x3d96e6e2bd918b07U,
  0x3dd9d9cd3bb8e35cU, 0x3deba9463d8ba81fU, 0x3dcc92993e0dca42U, 0xbe5484913d2fa03dU,
  0x3b2d83d83dd9d4a0U, 0x3c7ef856bda762c4U, 0x3d034dee3d905515U, 0x3dd51417bd89974dU,
  0xbbbd733b3b04705fU, 0xbd88b81c3d08aed8U, 0x3de9ac2e3ded25eeU, 0x3d3a6b6d3dcd4b13U,
  0x3ce50867bb3352beU, 0xbc950f493d81d0a6U, 0x3d7b08ff3ce05250U, 0x3deddfcb3dd79db1U,
  0x3d86a98abd881cfcU, 0x3d312b7e3d04e3d8U, 0xbd97e340bd019550U, 0xbe12260ebda40f5fU,
  0x3d64a8acb9bbacc1U, 0xbbb25c71bc7410dfU, 0xbdcd37303d081ebaU, 0x3dbce17abdb0acdeU,
  0xbd2cc3dcbe02c588U, 0x3e04a7ec3e067e8eU, 0x3d6dd6043dbf2041U, 0xbcf41050bd574023U,
  0x3dab57313d7e9057U, 0x3cfd96613ce66516U, 0x3c6d97c5bd9f20cdU, 0xbd4017adbe0eabfbU,
  0xbd7c343a3d5bc10aU, 0xbd35fad83d70267aU, 0x3d5ed592bc36073bU, 0x3b4c38a23ce43609U,
  0x3d7c66cd3daec44aU, 0x3df46447bc40f383U, 0xbb7d03713d9d2948U, 0x3ba51b093c30aeb2U,
  0x3dce57bdbc46ebdfU, 0x3da722693d98cbbfU, 0xbcab41773da97670U, 0x3b890cf3bc3759f2U,
  0xbcabc7c1bc89f0d8U, 0xbd3d82e03cd8bd00U, 0xbc6d008fbd51b947U, 0xbcffdb263d4a998eU,
  0xbdbf68173d72b5e3U, 0xbd8e0e81bd35648bU, 0x3d838e5fbdcb47abU, 0xbb4a37d33c115298U,
  0xbbec8a4bbc6d25ffU, 0xbd4a5637bdd0c608U, 0xba7e2611bd1197b0U, 0x3d97ee9abc11a6adU,
  0x3da99c433c93dba1U, 0x3cc1ecd4be13d6ecU, 0xbd752cdabc756d94U, 0xbd331f2dbc6acdb1U,
  0xbdf460e33e0b025cU, 0x3de19ccf3d628b6aU, 0xbd91b1983d172285U, 0xbccf9ae43e016a24U,
  0x3dbe2c2e3e135d65U, 0x3d60a13f3d139ae2U, 0xbc895515bcae6d9dU, 0xbdfb8176bc7881a4U,
  0xbdf68cfc3d8aadadU, 0x3c96e920bc4a076cU, 0xbce0a5ae3ca1ce98U, 0x3bf758b13d5608c5U,
  0x3bedb5253daf6864U, 0xbd533095bba525e2U, 0x3d791f073d2f488bU, 0xbb4c812c3b744d08U,
  0x3c175d333c96710eU, 0xbd639d463da1a227U, 0x3c1fc768bcbc7069U, 0x3d05f1d3bdc8b923U,
  0xbc497a8dbd15af5bU, 0x3d48c274bc432db9U, 0x3da68b4f3dfd2b07U, 0xbda1d8773c69a071U,
  0x3d3507c9be171c9eU, 0x3dab1956bd347570U, 0x3dc988de3d4155b1U, 0xbd8290c1bb45e491U,
  0x3df3ecf5bcfa43e6U, 0x3e3de7b0be67000dU, 0x3d23611abe45777eU, 0xbd9f5e5e3d6cdc32U,
  0xbd9408553d86f8cdU, 0x3d4d771a3da6a1ceU, 0xbd0c0fcb3dd19856U, 0x3d91dc923cbf2114U,
  0x3e29e483bd8d4bafU, 0xbd946b963ce4f413U, 0xbd04e6253c45419cU, 0x3d1527d4bd250416U,
  0xbd92ec59bbc33c59U, 0xbb73eaedbdf446e4U, 0x3dacffb13d9a0e56U, 0xbd24033ebd977873U,
  0x3b68d34d3cfa5187U, 0x3ca04c4dbc55a683U, 0x3c3793d33d9d0f20U, 0xbd5ff65f3c991542U,
  0x3d347cd3bd565c1fU, 0x3ddbc6febb564612U, 0x3a7cf0b23cf50a4eU, 0xbc94a8163cfd43b8U,
  0xbcd1cd123d51fbaaU, 0xbd270cb93a8e2960U, 0xbdb98bbcbc83afe5U, 0x3dc854fa3de77a50U,
  0x3c50ffa53c40977bU, 0x3d68d0cabdc8045eU, 0x3cb0abea3d09f504U, 0x3d13e6c13cb7b8e5U,
  0xbc40550a3b1c0726U, 0x3c8894973ca37d49U, 0x3d3a77d2bdac4b49U, 0x3d6fc99f3daeec59U,
  0xbc54348e3dc4a8c6U, 0xbd0d22003d056922U, 0x3b8c9e2c3dcf656aU, 0xbc3c776abdc854c8U,
  0x3c9592573dc16e59U, 0xbd12d12e3da04918U, 0x3d19060fbd00fe35U, 0x3d34c51e3d95a0b9U,
  0xbd89a42dbd7e1ee1U, 0xbb81d59ebbc029bbU, 0x3bca01123d249107U, 0xbdb1960cbd1d22a8U,
  0x3d8323c03c12688cU, 0xbbfc0f1d3d5ec87aU, 0xbda49c5cbd6c15cdU, 0xbd6fa02abd22aab5U,
  0x3d52a9453cbf5dc4U, 0xbd09536abd3dd4c5U, 0xbd61d8e53d81ce7cU, 0xbe09f1b73c97e9cbU,
  0x3d08224abdd82e26U, 0xbde47a15be076febU, 0x3d75382e3cafb921U, 0xbdc4c44cbce6c3b0U,
  0xbd86b34abbc91678U, 0x3c8758613dc2b04fU, 0xbd1a5abd3e031ab4U, 0x3d84bcff3d92405cU,
  0xbd607808bd3dde20U, 0xbd80434cbc068e82U, 0x3c443649bd794155U, 0x3cbc1ba93c8c5c0bU,
  0xbd4ff963bcb469e0U, 0x3c1903803c693d51U, 0xbcf01447bb483d84U, 0xbc868d9a3cac25d7U,
  0x3d9cfb42bd953125U, 0xbd5fcb3f3cb9197cU, 0xbd414d5f3d9c8bceU, 0x3d15c1263d4de19cU,
  0xbd39a766bd39559fU, 0x3d27d2d43de5ec98U, 0xbdc188b33cfc4ff6U, 0xbc90ff3b3d813daaU,
  0xbde0a142bdbebd2dU, 0x3bfe397b3d58eeceU, 0xbcf4ca6f3dc3b587U, 0xbd38a714bd8c0987U,
  0x3c8a05013bbea947U, 0xbdbce85abd7e9157U, 0xbc818733bd96f530U, 0x3d6d4987bdd06f07U,
  0x3d358596bce5fa45U, 0xba35e346ba231934U, 0xb9b9ae34bbfef51eU, 0xbd2114bbbb728b01U,
  0x3c01fd6bbd422f5eU, 0xbdbe8f86bcc9e72eU, 0xbd8589c7bd9a60fdU, 0xbd1b4507bd79ed80U,
  0xbd522a22bdcc9f4eU, 0xbd35b7a6bde46e6cU, 0xbd0cc7be3a38797fU, 0xbd26c4bd3c0780d9U,
  0x3d2b2ae9bc847a23U, 0x3d80ae06bc220e8aU, 0xbd4adfae3d489137U, 0x3d8d978c3d861994U,
  0xbc721ad23da87a88U, 0x3a1fd2cbbd3988ebU, 0xbd4089fabcd8690dU, 0x3c6f377e3dab8202U,
  0x3cd69cfbbcc564d8U, 0x3c37dc86bd4cd594U, 0x3b3da5103dcc0f83U, 0xbd258996bc39e88bU,
  0x3c8ec2cabc8de674U, 0x3b457197bdb7022aU, 0xbc6df3d2bd7cd735U, 0xbd10491cbccd13e7U,
  0x3ca460883d266ee4U, 0xbc23ee6e3d96c50fU, 0xbd87e9023d631979U, 0x3cb75f5fbd6943b2U,
  0x3b83cc38bd509186U, 0xbd086e0bbd454e77U, 0x3d785a323d1f66baU, 0x3c58d0efbcc10c11U,
  0x3dc6de993d6b7289U, 0xbd08954fbd2731daU, 0x3dad9ecbbcb6af7cU, 0xbc265843bc1c2bb1U,
  0x3c1906443c54d0dcU, 0x3c9f652d3ca05d2dU, 0xbd85a06f3e0416a0U, 0xbd805da7bcc4d8a9U,
  0x3d9a28cd3d42c3d6U, 0xbcb8f9073d184ca9U, 0x3dec10d43c9aa44dU, 0x3d02356f3d965edfU,
  0x3de0164ebd0e7ba0U, 0x3da5d9d93cade444U, 0xbd289598bd02dfa6U, 0x3d060ece3d633c17U,
  0xbdd392b5bc936f9eU, 0xbc4e5e30bc43b225U, 0xbcd7e6ba3caf3934U, 0xbd9e370b3d3998ffU,
  0xbbece466bbfbe486U, 0x3d426ac33d02ef3bU, 0x3d26b55f3c894e6aU, 0x3dd58433bca7b572U,
  0x3cc4b5b03d0787eeU, 0x3d574cfa3b074d0eU, 0x3d87b0b5bde3e078U, 0xbd6239983da49194U,
  0xbd1fad36bd7d54a3U, 0xbca9fe973df2a7c0U, 0x3b3accc1bd004bb8U, 0x3d90a8e13dd8fffaU,
  0xbda88c8b3d978844U, 0x3d1d54663cf47abeU, 0x3cb6892b3e07f9efU, 0xbba11e693dc66f85U,
  0xbce06e473cac10b5U, 0x3dbf6878bca77c81U, 0x3d8c91f03d17fc49U, 0x3e15f1fe3cbbb548U,
  0xbd1f82383d5d795eU, 0x3cee2fc6bd95593cU, 0x3d493be43dae4116U, 0x3d8c17eb3d66f546U,
  0xbb8d68143dd28441U, 0xbc866c50bd1b99e8U, 0xbdc2cef73d0c4fb8U, 0xbdf7227d3bcebe20U,
  0xbda02afa3d0dcda5U, 0xbd690619bc4a9645U, 0x3d90d2403ddf0da7U, 0xbd885cffbdadf103U,
