/**
  ******************************************************************************
  * @file    fourline_data_params.c
  * @author  AST Embedded Analytics Research Platform
  * @date    Tue Nov 19 15:13:08 2024
  * @brief   AI Tool Automatic Code Generator for Embedded NN computing
  ******************************************************************************
  * Copyright (c) 2024 STMicroelectronics.
  * All rights reserved.
  *
  * This software is licensed under terms that can be found in the LICENSE file
  * in the root directory of this software component.
  * If no LICENSE file comes with this software, it is provided AS-IS.
  ******************************************************************************
  */

#include "fourline_data_params.h"


/**  Activations Section  ****************************************************/
ai_handle g_fourline_activations_table[1 + 2] = {
  AI_HANDLE_PTR(AI_MAGIC_MARKER),
  AI_HANDLE_PTR(NULL),
  AI_HANDLE_PTR(AI_MAGIC_MARKER),
};




/**  Weights Section  ********************************************************/
AI_ALIGNED(32)
const ai_u64 s_fourline_weights_array_u64[35146] = {
  0xbd25800a3c3b542cU, 0xbd3d193abdb08582U, 0xbdfb27b7bcf01574U, 0xbd7432ebbc1bd6bfU,
  0xbce7eb0a3a846202U, 0xbc994515be660758U, 0xbc09050f3b1d9bb8U, 0xbd7de90bbbe4b6b4U,
  0x3ced4303bd6cb32cU, 0xbc118568be0a9171U, 0xbcae621a3c2885faU, 0xbd32a3693cbfef48U,
  0xbda866ca3c6b96beU, 0x3c8736e53da47227U, 0x3d7e845dbda17af7U, 0x3d14a3bd3d50cae4U,
  0x3e080f7b3d218651U, 0x3bae5597bdb7ea60U, 0x3d33e0223d072354U, 0x3e230399bd332dbfU,
  0x3e16c6c33e7a37d6U, 0xbe0610463dc218f9U, 0xbca0a584be0a49b0U, 0xbca69efd3e26af44U,
  0xbe0137933c96a6caU, 0x3dcf895cbe0fa8d3U, 0x3b9343c93c3e6dfaU, 0x3d9c44e83d0f2f22U,
  0x3c7ff9b1bd9c3796U, 0xbdff20b53d3218f2U, 0x3df5b6adbdb8806dU, 0x3d09d5aa3d813451U,
  0xbdd9fb9f3d8bf40eU, 0x3cafce483d59b90cU, 0xbdb6b89a3d89083fU, 0x3cae1062bdba0d1cU,
  0x3c10b9933dcfa04dU, 0xbd0d0461bc849321U, 0x3da17b013e00cbffU, 0x3cab96bdbad95321U,
  0xbd9100bebd0acfa1U, 0x3cd2ff003c98c2b1U, 0x3d2f77853d15ff72U, 0x3b93db7e3df04734U,
  0xba846eee3d986c8eU, 0x3ddc16b0bdf01de5U, 0x3cdb80c5bdd9a598U, 0xbdc150823c0c3612U,
  0x3c24707f3db0f6a0U, 0x3d86d612bcb769a0U, 0xbd9cea523d6b5c5eU, 0x3e0b26113d7a9395U,
  0x3e5e07143d8f3d40U, 0xbcb6e7ef3d2a52bcU, 0xbd0378b4bc908b09U, 0xbda334c43ce1d654U,
  0x3e0f03603e247eceU, 0xbd947941bda7e994U, 0x3e62f3bbbe231136U, 0x3de94fbb3dded00dU,
  0x3dd67c883d51ad4fU, 0xbd8352e03cb16b3aU, 0xbdbfb44cbe02e18aU, 0x3b65d68dbd0bdc0cU,
  0x3d5587693dcca707U, 0x3e2cb98bbd90a23aU, 0xbcfa2d6d3db98633U, 0x3e0d6529bd320245U,
  0x3e385905be12b34dU, 0xbd25bc403e040b07U, 0xbe1da54cbd90546eU, 0x3dc05c55bd7dbb99U,
  0x3d8e4596be4e1544U, 0xbe201f813c37f56dU, 0x3db390acba447fc3U, 0xbe466b9abe3a4b8aU,
  0xbdcb6d3abd241887U, 0xbcf3828ebe81b846U, 0xbdec31d0babbdc61U, 0x3d7aec723c361c53U,
  0xbb91c162be1ebde9U, 0xbc880eec3e5ec7eaU, 0x3e43954c3d523b3cU, 0x3d82f58cbde49820U,
  0xbcb068e0bda60cb1U, 0xbd8ba1cdbe277e02U, 0x3dd89c3ebe04af39U, 0x3ba273363d97a50aU,
  0xbb8cb93cbe87ac21U, 0xba7c4cb5bd9c9d5cU, 0x3b0aa9d7bda2a255U, 0xbc91ed47be8fd3caU,
  0xbd00b071bcd9d4efU, 0xbd373c05bcbbf107U, 0x3ded15403e1059e7U, 0xbd9a9557bdb101b4U,
  0xbe17d2cb3c98020eU, 0x3d50d462be0c7601U, 0x3d3bdb363d280aceU, 0xbd1bc52d3da369fbU,
  0x3c2b34edbddfe9d5U, 0xba9fc67e3b826e29U, 0x3e6594ff3d19f43bU, 0x3cc19999bc5073ccU,
  0x3d3e62dfbccd7e5aU, 0x3d3def343e2555c2U, 0xbe1d6eeb3cbffdebU, 0x3d156ead3d3562f7U,
  0xbd4961933c08558cU, 0x3c2086febcea995fU, 0x3e00faaf3d1e860bU, 0xbb042b5dbdad5abfU,
  0xbdaa3c17be8571b9U, 0xbd1727ccbeb82d83U, 0xbe6c4a25bcc49f5bU, 0xbcecf0ba3d922933U,
  0x3eb027933f00c003U, 0xbe461cd5be6c1c9bU, 0xbe21de4fbe25e05dU, 0x3cf84d053ce18a91U,
  0x3dbe4b5ebd1a9ffdU, 0xbc7456ebbe68a7f9U, 0xbc1991b83d038842U, 0x3c449340bea11f3eU,
  0xbdb6903d3e06adabU, 0xbece5d4bbe6a81d1U, 0x3d470e2abd9a2f09U, 0xbc02c172bd8a8c34U,
  0xbea689e1bea53671U, 0x3d3b17523e7f5f9dU, 0xbddf43c93cfc001cU, 0xbe02ad2d3c26c1c5U,
  0xbd3de789bd3c396aU, 0xbe08f9c7beb10d99U, 0x3e1923d63dbbddb4U, 0x3dcb396e3c0d4f5eU,
  0xbdf6bfafbe4903b5U, 0xbe6ae02bbf0b97c9U, 0x3d395a663e125323U, 0xbc30a7453e77d9e1U,
  0x3d4e1e983babdbc7U, 0xbbb61d293c76cc35U, 0x3d699409be6af15eU, 0xbe1f2ca83cae4eb9U,
  0xbdbb5e563e352d92U, 0xbd264b45be0a8ad1U, 0xbd846b5f3d9dfc1aU, 0xbc26dd63be417c86U,
  0xbbdabdfb3d8f1889U, 0x3ce2ecbdbe1a7c4cU, 0xbd750415be485ec6U, 0xbd690007bde1a86fU,
  0x3b8e49143e460815U, 0xbe008c9c3eaa58f0U, 0xbde06bb1bdabb84eU, 0xbd4d9d7cbe3cec86U,
  0xbe92b70cbc047804U, 0x3ccf1f973ce2285cU, 0x3db7f8d2bc0cf11fU, 0x3e20b093bdabc537U,
  0xbcf9691f3e138843U, 0xbcea00af3d53d168U, 0x3c0d61b6bdff4600U, 0x3c5309163d8e023fU,
  0xbe34828d3d86cd28U, 0x3969a5333db2eecbU, 0x3e4f6f063d816feaU, 0x3dc142f23dd5a777U,
  0xbe8b0480bdd0ccdeU, 0xbd3f00053d969bd5U, 0x3dbc8520bba87879U, 0xbd4468bf3ddcc431U,
  0xbd8d18f63dff1544U, 0x3d921bff3dd4ab7cU, 0xbe6896c7bb2d3011U, 0xbd77847e3d609771U,
  0x3d976087be7bb134U, 0xbbeaff01bdf253b4U, 0x3d88ac0c3dd1c569U, 0x3c50544abd8955c8U,
  0xbd622e5dbdb146ecU, 0x3e337247bdba1a48U, 0x3e00d3b9be67cbe2U, 0x3da61e183bf6941bU,
  0xbe43a25dbcfba966U, 0xbda4e127bdfa11aaU, 0xbda1fe423d9a69edU, 0xbb7a9ebfbe1c628fU,
  0xbd899aad3dd45a15U, 0xbf045f803e6c1d04U, 0x3d9987e1be879368U, 0x3da5e10fbc7e9c04U,
  0x3cd37463be414de1U, 0xbd004377bcc66b67U, 0xbdb663c33d11dd71U, 0xbd80865dbe4eb6b3U,
  0xbd635e7fbb8c199eU, 0x3d297622bd8abeb3U, 0xbd9ba07cbe598b60U, 0xbdf72356bcadac5eU,
  0x3dc5cd22bd11afa0U, 0x3e168dd7be8b27fbU, 0x3e082375bd6e2ba2U, 0xbd002e4fbe3303c0U,
  0xbd1da9fa3dd9a922U, 0xbbe0d67f3ced6c5dU, 0x3cc3c576be4c3c9eU, 0x3d4b83b03d0cfaeeU,
  0x3e8738043ddcf021U, 0x3de1b8d5bd52c428U, 0xbd3cbb9dbd9775feU, 0xbd74a781bdc8ac56U,
  0x3db113e83c0af9d1U, 0x3dbb12a1be02f857U, 0x3ddfc5083e293de8U, 0xbd9eefbfbd0876c3U,
  0xbe281fe2bdf4201eU, 0xbe74085cbd53f051U, 0xbe74f11f3e82bd91U, 0xbe073418be5aee84U,
  0x3d64bbb7be05d878U, 0xbea7ee1abe809c1bU, 0xbda97527bea6643eU, 0x3e354849bd9bdeb3U,
  0xbc55a61f3d4e0e86U, 0xbeb9f444be118a0aU, 0x3e2b29303e45c8d3U, 0xbe88488bbeded92eU,
  0xbdeada5a3dcc80e8U, 0xbd6ce409be344c5aU, 0x3d8329893e06cf72U, 0xba3b352d3d303cd9U,
  0xbeaeb572be2d45f7U, 0x3df2cae4be0d18eaU, 0xbea818003d55202bU, 0x3e2c30e13e5c129cU,
  0x3db1dd0f3da2f128U, 0x3db6ea87bd07ddebU, 0xbe0529103d89d924U, 0xbda6dfb13d36b088U,
  0xbe61ed0fbb17366fU, 0x3dfae3cbbe06eb7dU, 0xbe87567dbd4a0fd1U, 0xbda6abd3bd2aab04U,
  0xbded30b4bd2e4befU, 0x3dcc86c0be276de2U, 0x3dff5874bdd4cbadU, 0xbe79a32ebda77bc1U,
  0xbde8178ebe8ea615U, 0x3d3493debd4ccb13U, 0xbe6fb34a3d95f396U, 0xbd8f394cbd28224eU,
  0xbd89cc79be157766U, 0xbe18e524bd291198U, 0x3da699cf3e091ffcU, 0x3da86af3bcee8cccU,
  0x3e86222e3e09d591U, 0xbe63ed733b0dfd11U, 0x3d597294bd2c4d41U, 0xbc71c3763c68a8dcU,
  0x3d012edc3d330bf2U, 0x3de63b5d3dbc3795U, 0x3dfbe8303d4b41d6U, 0x3d99b6c33db25cdbU,
  0x3e4f9cd73e59e0d1U, 0x3dd9ffe73c2899d8U, 0xbd6b0f58be7efcd6U, 0x3e06c7473dc07f9cU,
  0x3e559d8bbd8e9324U, 0x3d280d35bcf27cdeU, 0x3e6fa3473e94cc87U, 0x3da081dfbd0bd08fU,
  0xbc8915cd3dadd2a0U, 0xbd19de323e010c3bU, 0x3d3e34333d4855adU, 0x3e4ce22d3e9ff45eU,
  0x3e4c7815be3540caU, 0x3dd4b4983dfc3725U, 0xbe2486d0bca46a48U, 0x3de95f343ded9ae7U,
  0xbf18c009be62a6f0U, 0x3d634b2d3d2644eaU, 0x3e1d22d83da54ec2U, 0xbcdafb7abd0b5b6fU,
  0x3bf80a163d8e9417U, 0xbe85cccebdb3096eU, 0x3d98349f3e67a8cbU, 0x3dddf77e3ca3fc08U,
  0xbc1d6e36bdf4fccaU, 0xbc4fe0dcbf10fdc2U, 0x3e8240d6bdd50feaU, 0xbeb46c9abf454031U,
  0xbe3116e53debabe6U, 0xbebc4b61bf799625U, 0xbdf8edef3d2b99b8U, 0x3b1a5d843d165e3fU,
  0x3c0f3a61be351d78U, 0x3e06bbd7be8910ceU, 0xbd90993e3e8e0ed1U, 0xbb4812e1be7993daU,
  0x3e5738b8bda19c6dU, 0xbea9aae23e117617U, 0x3e3aa0cf3c090201U, 0xbd8d70dabaa41a04U,
  0xbd5ad70cbe8041b9U, 0xbe512d6cbe3715d9U, 0x3da0ededb92d9bedU, 0xbe49535b3c37e2a2U,
  0xbdde077e3d9c69c6U, 0xbeb5316abd867bb9U, 0x3d81da4fbdfe8c23U, 0xbe4cf978bd91f20eU,
  0x3eadaf483c92d00dU, 0xbe01494abd98e616U, 0xbcbeb78c3daed6b2U, 0x3dafdcacbe43a1c6U,
  0xbd2acf31bc8f7b5dU, 0xbe07f73f3d995c7dU, 0x3d213f873c8679fbU, 0xbcc1b090bd5be3e0U,
  0xbe0e9d7c3d1c8245U, 0xbe15fe3bbc745d2fU, 0xbea6f48cbd3d98f6U, 0x3d54f009be66d6daU,
  0xbe760dcfbe650933U, 0xbd981792be52330eU, 0xbdf970be3d099deaU, 0xbedc72cfbc362b26U,
  0x3dc742ffbe738913U, 0xbdc061cbbe50b23fU, 0x3e3cdd97bc8a8b4eU, 0xbc94f33cbdc3b225U,
  0xbdfe0cd73d847c55U, 0x3e6327be3d8fa6d9U, 0x3d8aa295bd13f334U, 0x3c0f2cc03dc049b9U,
  0x3d5345753dd17273U, 0x3e0b38fd3e9dc7f3U, 0x3e19f0023db6d615U, 0x3dfb3cb13dd9437fU,
  0x3dbe02a23c28a897U, 0x3dadfd3a3cd39eedU, 0xbd988dd73da01b2dU, 0x3c3a699c3d969d7aU,
  0x3de0fbcb3d0a6a90U, 0xbe41b001bc9de986U, 0x3e538dd23e4dc941U, 0x3cf9e4813e02ae36U,
  0xbb81c599bc3d705fU, 0x3e0dca67bdf9c211U, 0x3e45804c3dbdd636U, 0xbe366a893d8338eaU,
  0xbe43f7a53dab02aeU, 0xbe276fc63e6363f0U, 0x3d05245a3e7532feU, 0x3cc8118dbca9a6d9U,
  0xbb174212be4101a9U, 0xbcbdca663dcf1518U, 0x3e33a0993e159408U, 0xbe6a13443d7bd795U,
  0x3d96fc44bdb3f578U, 0xbe222ebb3d368b5eU, 0x3d8dbdf43d0ef172U, 0x3d5220203cb189a3U,
  0x3d9564f23e010300U, 0x3aecd6bcbcb24154U, 0x3d1d9fe0bce37e12U, 0x3e37c06fbd7957eaU,
  0x3eb84dc13e62a556U, 0x3db647d53e066438U, 0x3e3d99b8be3e289eU, 0x3d692f853e04e264U,
  0x3d9022563ebf18baU, 0x3e7012993d8fe96cU, 0xbe24933d3d6f0ec6U, 0x3d9ebbbe3da2b72aU,
  0xbb6ef2d33e8e346fU, 0x3df9761c3e2783adU, 0xbc153419be25869cU, 0x3e4de53d3e11e1deU,
  0x3de6e984bdda70baU, 0x3c8facaa3de0f435U, 0xbe05e7babc84809bU, 0x3daec96c3bddba68U,
  0xbebb50863d51a10eU, 0x3d5edf083d10b4aeU, 0xbf182f823c8f98ecU, 0x3bdd8fd8be454aa2U,
  0xbdeeb94cbe90c3c3U, 0xbec1b9db3ce710d8U, 0x3d58eccd3d4f36b9U, 0x3e2e18883c8ec145U,
  0x3de8f080bdaeca1dU, 0xbf24d65ebf83b934U, 0xbe83df8a3e53cedeU, 0x3da74cffbe04ee7eU,
  0xbe832b89bd3e4c75U, 0x3e105847bf2b3067U, 0x3d7a36483ca34926U, 0xbe3a9fd13d5091e6U,
  0xbd3a3a463c87e807U, 0xbd8e4ea0bec23385U, 0xbef942493d0c2846U, 0xbcd29c44bdd6dc44U,
  0xbe05fdacbdf9e55fU, 0xbdaace40be928b4fU, 0x3dc292483e29f674U, 0xbc600084bcedf445U,
  0xbe3c5caebddd07fcU, 0xbdf1bd2cbe4cb766U, 0xbd5e13ddbe355ac6U, 0xbdd7068ebe241a7aU,
  0xbe0ed3abbdfef3b2U, 0xbe0ca414be404e5eU, 0x3c5cd2123d6c72efU, 0x3cc9cd2e3d8300a6U,
  0xbd22d474bcbe0dabU, 0xbd1f5fdfbbf7bb21U, 0x3cb595a3bdd0688aU, 0x3d298664be2f4a57U,
  0xbe5e6df0be3af82eU, 0x3d418340bdac4a2fU, 0xbb612a2abc6a5e05U, 0xbd8d30c83c25e8f9U,
  0x3d457fac392187a6U, 0x3da43c9bbd62b274U, 0x3e17d6bd3e13caa9U, 0x3cb773c33db7339cU,
  0x3ea6adc5bcfa5cd7U, 0x3dd4890a3e1c3bf7U, 0x3e628f5abd7fad3fU, 0x3e30e7243d6185c4U,
  0xbdb91e963e8195c1U, 0xbe3beee5bddc9a2dU, 0xbdde91d63c334deeU, 0x3d5c4c0cbe85e899U,
  0xbe923fe9bcae35daU, 0xbe0c25103ddebc07U, 0x3d35a0323e320f65U, 0xbe024dc6bca9cbf6U,
  0xbe1e8cdd3e1aa6a2U, 0xbad1e9b43e59860eU, 0x3c5aa459bda646a6U, 0x3dbc9a73bf100917U,
  0xbd6339213d756149U, 0xbe7285973d48689bU, 0x3cb99ab9be58f37cU, 0xbd09aeefbd957786U,
  0xbdbbaaee3d324d22U, 0xbde1c2b13e1911f1U, 0x3e4bf689bd5d3342U, 0x3d865e953e15d199U,
  0xbd67b14e3d7541c5U, 0xbe1253fdbdfd6cd4U, 0x3e0311fdbe11f092U, 0xbe61cd903d6e207cU,
  0xbe1b9204be66184bU, 0xbe2ffb9d3d839e32U, 0xbe4267873e56f2caU, 0xbea653b53d997d01U,
  0x3d9e62c83d19560dU, 0x3e5ba7b23d2ed3ddU, 0x3e03d5ec3d9e0ee5U, 0xbdfc0c2fbdbff67cU,
  0xbdf8d038be965414U, 0x3e0d6198be8b4075U, 0xbe7f218d3d427970U, 0x3d673a7a3dc796a7U,
  0xbd582d073e6e2c20U, 0xbec1332c3e4ebd80U, 0xbe0adedebc3dab80U, 0x3d1e2474bcf3980aU,
  0xbea19c7dbd7a62f1U, 0x3d8ee541bcbe550cU, 0xbe60d946bd93d1fdU, 0xbe7c1354bf1c9feaU,
  0xbe907759be572302U, 0x3ea691913e8ad2a6U, 0x3de860a4be5f41fcU, 0xbe47cd88bceb719cU,
  0xbd3b05a8bed30e44U, 0x3ddd8a8f3ea4a2acU, 0xbe7ddad53e1206e6U, 0x3d8ba92bbe84e676U,
  0x3d3a09fa3ddd323cU, 0xbeb68dfe3ed81900U, 0x3e6b43b0be18df77U, 0x3e2c03c43c20ab1fU,
  0x3d91437a3d9976c9U, 0x3dba8768be0a6b7cU, 0x3e09a199bdfb1a45U, 0xbc8828ecbd800853U,
  0xbd1b105c3dbf23dfU, 0xbe4ffa7c3ce8f7b1U, 0xbe18e3ecbcbf5fb7U, 0xbe6b84babb62921cU,
  0x3d70c2a13bee049eU, 0xbe3f67043e045a26U, 0x3da2944cbe609b7cU, 0xbdbf41a23b91a528U,
  0x3e3012293e07a714U, 0x3cd473323d6b2b8dU, 0x3d3459d73e16f8deU, 0xbec57e5cbc8e38f8U,
  0x3dd784113e43589fU, 0x3e1b1f203e06b7c1U, 0x3d5c605dbdad4ef3U, 0x3ddbf3d7bdc07df1U,
  0xbc9ea7cb3de24d5dU, 0x3c1c8f9bbbdf297bU, 0xbe7031a9b95b7f30U, 0x3db105b0bd7afc14U,
  0x3cdea52b3d70e8e0U, 0xbcb5a4723dfd36ecU, 0xbc73a5c13debdf73U, 0x3d7bd72b3e0e9cd9U,
  0x3e17e3edbe240ef9U, 0xbd1d3fb93e0143bbU, 0x3cf44b81bcd1bdedU, 0x3decdf92bc41048fU,
  0x3c70a3d4bc84d4d1U, 0xba95e444bd58123bU, 0xbd8329f4bd3c663fU, 0xbd6cb7dfbd45a6acU,
  0xbdfab3d73e49cff4U, 0xbdeb7d18bbedcae6U, 0x3d5323b7bc9ecf81U, 0xbcd4fc583d1188d6U,
  0xbe5df3b7bc834aa4U, 0xbd9226383e0bc3a0U, 0xbd44c6be3e57f897U, 0xbe3a7d2b3cd35b99U,
  0xbe7706f1bdeeb36eU, 0xbd9790c83d348b2bU, 0xbea79aa03b7c2f06U, 0xbd7263f03cd3fe4dU,
  0xbe2c8790bec6e354U, 0x3d73b854be4d80efU, 0xbe473ebabd06cafaU, 0x3e9c70aebe85b505U,
  0x3e1fec0f3e3ba60eU, 0x3e160881bf0ab194U, 0x3e6839ddbeb45c4fU, 0xbe846cfcbce1f2fbU,
  0x3e8b58f6be2059a4U, 0xbe9681323c0137bfU, 0x3cbe97e13da2359fU, 0xbe128cdebebd2975U,
  0xbe136abf3cc5f4c7U, 0x3d6e5fdfbecb43a3U, 0x3cfec37ebdbadce6U, 0x3e685087bdeb496fU,
  0xbeb41a9bbf371897U, 0x3e1f32ebbccc0b55U, 0xbd041924bd7aeabbU, 0x3e50e0543e6211eeU,
  0x3d2a231f3cbef19aU, 0xbeade4693ec7df8cU, 0xbe614a1ebedb007cU, 0xbd251e7439efb9e2U,
  0xbc84ec88bea6a11eU, 0xbca13215beb33350U, 0x3db5fc4bbdabdad4U, 0xbb72abb53d540b11U,
  0x3e0601dcbdea9bc6U, 0xbe90f76b3d161c5fU, 0xbdd9233cbe36b49eU, 0xbe194d77bd84b313U,
  0xbe833115bd0e0abfU, 0x3e23c786be4e78efU, 0x3e84e2823e45f53cU, 0x3e7e2bd03f1b942dU,
  0x3d00b9d0be89eaa5U, 0x3d9186c83ecd1752U, 0x3de1a150be949937U, 0xbea28e853c47f3eeU,
  0x3d9a4b88bdf7ee8aU, 0x3db1328c3eccef82U, 0x3e90c54a3d8b6934U, 0xbe052e3fbf2f6442U,
  0xbd86c6983e1067a7U, 0x3d82900abe6e8b31U, 0xbe86f035bcfacfceU, 0x3e467b893d70da1eU,
  0x3d8767d1bd68d490U, 0xbcd00f78becb0b1fU, 0xbeceb13a3e339ca9U, 0xbe2b988c3ea3a056U,
  0xbea516a6bc54a1b4U, 0x3eb34fe03e8a7e49U, 0xbe7a212bbec87656U, 0x3e834af9bdb1efa4U,
  0xbe0710a83d0ce1a2U, 0x3ecf61293ebd6cbdU, 0x3dbd350cbe026a7eU, 0x3e04b4de3e8d48e2U,
  0xbe3d7e4b3d802b6cU, 0xbe65cfa1be41ef69U, 0x3dac2658be100c88U, 0xbeb36835bdb39569U,
  0x3e0b38db3c9ebbebU, 0xbea65f743dd1d5b0U, 0xbefc6eabbd8114bcU, 0xbe371511be477849U,
  0xbc823af03d459cacU, 0xbd48ae0e3db7de7fU, 0x3d77cd98bc64c1c8U, 0x3e86498bbd99fe3eU,
  0x3db229de3d9d5e4aU, 0xbe0d3743bc77d451U, 0xbc19a5c6be7c147cU, 0x3b6499ac3d831705U,
  0xbed1cde2bec5972dU, 0xbd80d609bbf4dfedU, 0xbe16009c3ce21701U, 0xbd042773bc568146U,
  0xbc5a03c13c0469baU, 0x3e6b9150bd04b75bU, 0x3e0bdf2cbb9a4f20U, 0xbc1d4a1abd932673U,
  0xbb703ba03d08bfe9U, 0x3e0df4e1ba918d4cU, 0xbeb136763e027ee0U, 0xbd00f63dbd4a6dc2U,
  0xbdf761e9bd806d58U, 0x3cfc39753c28406fU, 0x3e8b63173d734570U, 0x3c7cf165bdb0f9c3U,
  0xbc94db8b3e5b1d01U, 0xbdadb2d13cf5b4faU, 0x3dc6f5c43bb6df8bU, 0x3da318f93ca3e9e0U,
  0xbc658ae0bd577544U, 0x391de48cb91aa38bU, 0xbe261ec2bd22c5deU, 0xbdb632013d668fc3U,
  0xbc762d4cbe7fe20dU, 0xbd9139ee3d9c429aU, 0x3ea04073be15f2e6U, 0xbe56ac45bcd6df48U,
  0xbf0dc71fbeb6482aU, 0x3a867fd33eef20e2U, 0xbe0013dd3df37f82U, 0x3c9e21d9bda37f60U,
  0xbefbc84a3e5a03e4U, 0x3e4ee3dcbc884a7bU, 0xbe19f093bec059d9U, 0xbe4700b43cbc0bd4U,
  0xbd6291c23d8029acU, 0xbe07e6e23e0350b7U, 0xbe103fe83ea6733fU, 0xbea604883d8a1be3U,
  0x3e08e1353dc118c0U, 0x3eda7e403e8c3dcfU, 0x3e49af503b973605U, 0xbf08e797bd7c2da4U,
  0xbebe8cb0be04568dU, 0x3d89e541bea9d36dU, 0xbe25d480bce41672U, 0xbc0b0dc9be8a5db5U,
  0xbe159ec1bcc6e519U, 0xbd87db46be0af433U, 0xbd1844853f268539U, 0xbd955f72be044a2bU,
  0xbbe20ab2befafffbU, 0xbd67664cbe43f889U, 0xbe11f0c9bd42ea89U, 0xbe88841bbdcdbde3U,
  0x3beacca7be1d530dU, 0xbedb1239bf0aa26fU, 0x3e0f0aec3e015633U, 0x3e882753be1d306cU,
  0xbe577e023e3471b4U, 0x3e092819bf13ce11U, 0x3eb2b3e2bca66259U, 0xbd143eb2bb835f12U,
  0xbe05a61ebe9a1858U, 0xbe76e2693e03adf5U, 0xbdaa2e293cc2eba3U, 0xbeb695c83db9f837U,
  0x3d97e422bf2851d6U, 0xbecaa1433e53e98bU, 0xbeabb38e3e876364U, 0xbea122c0be0cd2ecU,
  0xbcd9572a3d12044cU, 0x3eabc5f93ef11d95U, 0xbe2a70d3bef7f652U, 0x3c58ba76bd96eea9U,
  0xbeeb2a43bf1fd3dbU, 0xbdfab6e53dcad673U, 0x3da0a8f03e17badbU, 0x3e2c4c8d3cadee5eU,
  0xbd6584abbe560ee1U, 0xbf1f0a22bdcdeb36U, 0x3dfdd36bbee35c41U, 0xbb30deebbe1b9fd0U,
  0x3e45f4eabca1d1f4U, 0x3e014b9fbd0579dfU, 0xbe9f108c3ebb1dc1U, 0xbe2d0c003bb2c208U,
  0x3d92abd5be2ff531U, 0x3e09da843d3642ecU, 0x3e86458abc0b7810U, 0xbf535bbebdf85c36U,
  0x3e1387f53d6b00aaU, 0xbda237e9bcba1260U, 0xbea0684b3e156de5U, 0xbce8ac6f3d9e9c22U,
  0xbdf19080be11465fU, 0x3de744d3bcf60349U, 0x3bb5d89a3e3a327dU, 0x3dc082d23c1dba22U,
  0x3e2897f13d310b95U, 0x3d6fdf883dd60917U, 0xbdef26eb3e4e83b7U, 0x3c8869723e226966U,
  0xbd8ad5acbe731307U, 0x3dd095b53dd2d448U, 0x3d3d4a6b3cae0ec9U, 0x3e1e90d4bc71e80eU,
  0x3d56e3213bf49f96U, 0xbb28a2c23e4b16f7U, 0xbddfcb35be9f2a78U, 0x3d199d2f3de304feU,
  0x3e18a776be67b50eU, 0x3d83e9e93ca2cd9cU, 0x3c02a1eabe64b2dbU, 0x3d54345f3d227aceU,
  0xbea1785cbde9b12fU, 0xbcdbb1303e42c5caU, 0x3e210698bd8c0fc0U, 0xbda294973d1c4e0cU,
  0xbe0cd5513d7bee74U, 0x3c97efd23e01ce35U, 0xbdfbc1aebe544fa2U, 0x3e2741c1bd44b3e2U,
  0xbe0a72833ccf5475U, 0x3d23e5083dd273a0U, 0x3ed1fce5be824f9dU, 0xbe03a5963cbb20dbU,
  0xbd78be26be465de3U, 0xbe3d69023d58c1cdU, 0xbc479a4b3b409285U, 0x3dda5599bd59a32eU,
  0xbd876308beb228d9U, 0xbe60ab1b3eb92be5U, 0xbf0ba6053d8cb9d7U, 0xbe9c45f4be5e4a82U,
  0xbe2fd4f1bea561b9U, 0xbe3b35773ea8fb58U, 0x3d15ceb1bde0afe5U, 0xbedd0f7fbdd9f7ecU,
  0xbe5c8d0abed34c96U, 0x3e852e12bf55b691U, 0x3e2882f73e5993b5U, 0xbe8260c8be0a5cc1U,
  0xbdcff228bd0685d3U, 0xbd5771353dfd50d3U, 0x3ddea0733e9052e7U, 0x3c01d17ebd8cd396U,
  0xbe14e1743ce533feU, 0xbe093d663e602281U, 0x3e9d9d8f3e324da6U, 0x3e8031fbbde2e4a9U,
  0xbdf17810be31d5edU, 0xbe412c52bdcd3b7aU, 0x3d1691423dd412f6U, 0xbea6d95bbbb0ed49U,
  0xbe4361903d973284U, 0xbe90e4aa3eb3b588U, 0x3cce3d973c925c19U, 0x3e065153bebd217cU,
  0xbea81f17be203fcaU, 0xbe8d0f09bd9098d0U, 0xbd4b40603d40dc05U, 0xbe8594febc198d73U,
  0xbe6781c2bdfbf4b2U, 0xbda569d8bd80ba2aU, 0x3e9c2f93bda3fd75U, 0x3dddec08be65e58dU,
  0xbe506315bdc69a13U, 0xbe4c58383d87df74U, 0xbe051385be837bf3U, 0xbd8df7043d82ac99U,
  0x3e1f88dbbe1d47c5U, 0xbf1a0eec3ee16bd5U, 0x3df55fcf3e4341cfU, 0xbc9cadb73f073aa4U,
  0x3ed5a1f6bea82155U, 0x3e03293d3e870cdbU, 0x3d080d6fbde46f09U, 0xbd16d0e6bd5c34b4U,
  0xbe5f12b2bebbecc5U, 0xbe2d612a3e5b913eU, 0x3f0fb2283e2e010dU, 0xbeca1ad7be970b78U,
  0xbe872a00bf38fb71U, 0xbeb03951bdfc6fe9U, 0x3e46f5753e73260bU, 0xbe902c4cbdc2a458U,
  0x3dfcdb22bf0dc9a2U, 0xbf5570893de25ab8U, 0x3e1d9d763e9807e0U, 0xbe5c67c53c1e6a8fU,
  0xbd6fd0853d70b285U, 0x3ded8c33bd077214U, 0x3b8b83ab3e08a04eU, 0xbe172318bd22e76eU,
  0x3daf55b73d666880U, 0xbe82e03d3e318e60U, 0x3e145fa1bd40ed97U, 0xbd26c8603df1cd98U,
  0x3d240c283e3cdce2U, 0x3db05a9e3c01dd01U, 0xbe591e7b3d8987d2U, 0xbe29976abc1a8b90U,
  0x3dfd82893e2a9964U, 0x3da9cef2bc1679c4U, 0x3e08fe1dbeb75a61U, 0x3e7824673e02993eU,
  0x3d9a36253dc10210U, 0x3df7238e3ce73267U, 0xbe0f2f3c3e66bb79U, 0xbc7620813cc6c8b3U,
  0x3d76ad4a3e0ecbedU, 0xbb7b7efb3e4519e8U, 0x3dd7ec853e92e3dfU, 0x3d4b0543bc21e5edU,
  0x3d541dc83cc68ea7U, 0xbd0bc2003db15c1bU, 0x3e718d5f3e43c243U, 0x3dc6416f3c335d36U,
  0xbd7aaaf63d04dd3eU, 0x3d211f1b3d72b392U, 0xbc60a94fbd3cfc71U, 0xbd6d9e02bc63df0fU,
  0x3d483b6f3e8a4429U, 0x3d1a5e2f3de947acU, 0x3c1af6303dd88db4U, 0x3daec7aa3cf29f10U,
  0x3dec19a8bd86bdf2U, 0xbd86ade2be3c59efU, 0x3e1c8686bd651eb7U, 0xbcbe4b343b61104eU,
  0x3e669bf93e0116ecU, 0xbd1bc0a13d3aefdaU, 0x3db12e263e26367dU, 0x3da220403cd93997U,
  0xbd652c3f3ddd2ab9U, 0xbe07687f3c4f67ccU, 0x3d051ad83d41a07bU, 0xbc84972a3e38816fU,
  0x3c93e5393dfa7897U, 0x3c4f3eb8bdb01806U, 0xbe4ff279bcf603bfU, 0xbd3ca0b73e13e018U,
  0x3e75c4e03cbfd3c1U, 0x3d11b1aebd75b75eU, 0x3a4e16433e003f2fU, 0xbc8a7ea83cb17a17U,
  0xbd3c034cbcd3019bU, 0x3e206bd8bd5404c7U, 0xbe171c6a3de55f14U, 0x3ce936a53e21c1b4U,
  0x3d7afa623e1da678U, 0xbcc574c13ce17b42U, 0xbde058d3bd7b9cdaU, 0x3db383733e54ec15U,
  0x3e0c3e54be222ed8U, 0xbda402053de38ee0U, 0xbd9588353c9d59e7U, 0xbe1a87e33dd89330U,
  0x3c1221e9bd49a094U, 0x3de2dda7bdf01cc3U, 0x3c0d67aa3d8e7b1dU, 0x3dfb288f3e0925f2U,
  0x3cabbc1fbd732b4aU, 0xbd38340e3e9eab79U, 0xbd1dce21be4ac5b5U, 0xbd4752c83de42144U,
  0x3e7c8653be2124fdU, 0x3e1e0cffbd8ba632U, 0xbe8cfcc0bdabf9a5U, 0xbc7122803e4690f1U,
  0x3e568257bcdbe844U, 0xbcf33fffbdf6baf5U, 0x3edfa1703d21c810U, 0xbd5816ff3dc43bb0U,
  0xbda7f8403e43d2f0U, 0xbe188a3e3e02eb3bU, 0x3d9f8200be09b252U, 0x3da9ca823e4c338dU,
  0x3d8d36883de65ac0U, 0x3d5d96823b79b0ebU, 0x3d25ac34bd48789cU, 0x3d9357633b604a7aU,
  0x3d0503163d4fbf31U, 0x3d3c9b003bec596bU, 0xbcf092f3be2af33dU, 0x3d0723733d478badU,
  0x3d110d693ca65683U, 0x3ca42aca3c8b126dU, 0xbd6f14793d1572d4U, 0x3d8129fc3d57364dU,
  0x3daa1f563d77f8b4U, 0xbc8fbf3cbca49e21U, 0x3d497a4abd318ed0U, 0x3dbe8b29bdbbf6f0U,
  0x3e5a2e423e1f22f9U, 0x3d17dcbcbdd0cc57U, 0xbc90ff37bca5bdefU, 0x3d27423b3dbd353fU,
  0x3e2459c03c90bf96U, 0x3ca8825cbe2b19adU, 0xbd93971cbbe4195aU, 0x3de61fb3bdccf46aU,
  0xbcde93e8bd40849dU, 0x3e1cd63cbd827b05U, 0xbdf021ae3bec7cfeU, 0x3de44dd23d36a7afU,
  0x3e8013cc3e08a9d9U, 0x3db961c53c68e7e0U, 0xbde0b95c3d059956U, 0xbd29a2dc3e72f121U,
  0x3de258df3db42cd8U, 0x3d9bfa803ddc8755U, 0x3b616625be368fe4U, 0x3c9635513e3afa2bU,
  0x3da218ea3db2c2e3U, 0x3d36c4243c66fd68U, 0x3df069abbd9eca90U, 0x3e158b773d17ce83U,
  0xbe17f307be232915U, 0xbe027144be3b1b41U, 0x3b3548e1bd9c4169U, 0x3d69dd9cbcc4f482U,
  0xbe3bc5d5bdf5280eU, 0x3d9955093c9cc32bU, 0xbe86e6d2bd68bec2U, 0x3cb32bc5bda19783U,
  0x3d0d1f41bd87f454U, 0xbd6a50963ba8ea31U, 0xbe4fae833d7c89e9U, 0xbd7d50c83d173cbdU,
  0xbda4b3a83d8e634cU, 0xbda4b7bc3c607ffbU, 0xbda9461c3c8d3bc3U, 0x3daf9c853d843f0cU,
  0xbd7d49263e3f48d0U, 0x3da2216c3d78ffe5U, 0xbdc9f5c13e6172c5U, 0xbd4d428b3d7b7637U,
  0xbcff42563d204db9U, 0x3e060f26be1ccdf8U, 0xbdf8b84bbe7697b3U, 0xbc3986043c74a5bbU,
  0x3cb725ff3d82b1bfU, 0x3d0247e3be68dbc9U, 0xbdce0610bd1f5b16U, 0xbdee8d2b3e0d4b48U,
  0x3e8d69f93db1b764U, 0xbe75e1013e6dbd13U, 0xbdaa7131beae25d2U, 0x3d877c04bd9b5942U,
  0xbd9883063e574a97U, 0x3e0b9adfbe8463eeU, 0x3d28b59dbe4e10a8U, 0x3d57a7f43dd4ed7eU,
  0xbd046360be114983U, 0xbe0afaf93d036852U, 0x3d8899edbd95edefU, 0x3d5c3d55be3ecdfaU,
  0x3a7e18893e162e99U, 0x3e29ee38be4e7615U, 0xbe404e3ebe406eadU, 0xbdc5a7bd3d801710U,
  0xbe355c07bd0175dfU, 0xbc1e434c3e0d4a21U, 0x3eb845ed3e5026caU, 0x3d30f56538c35098U,
  0xbe52f334bda2b2a8U, 0x3bd087d73d9b94fcU, 0xbdb45634bdf08ac3U, 0xbdf99f09bca5a1f1U,
  0x3df6dd2ebd976218U, 0x3e8e8209be3b0f9dU, 0xbe91c895bcf9c83aU, 0x3d0df414bdbb2b67U,
  0xbcba10743dc8a783U, 0x3e70cc323ba3a8feU, 0x3c85bac33e4e1cc3U, 0x3ba984ba3c44a16bU,
  0x3e2dd5d13e3a7d43U, 0xbe3f54223e829cc1U, 0xbe2a829cbc026ce7U, 0xbbcd57b93d5822bfU,
  0xbdac4225bd791a33U, 0x3de71c563dcb570eU, 0x3e78f8d13d0223d0U, 0xbccddff53d9c0a74U,
  0x3e0a8eafbb882e8fU, 0xbbdb72b73d84b5e3U, 0xbd26c8423d5ffeebU, 0xbd942f0d3e085475U,
  0x3db37501be36d7c1U, 0x3cbee21dbd47c321U, 0x3dc0eb0c3d824672U, 0x3e1285b63d7e895bU,
  0x3df1b2a93d6ae06dU, 0x3d9ed6b53d2310e4U, 0xbddcb38bbc29655dU, 0x3c8dd5a23ccdf1a8U,
  0xbea7f9cfbda3bfe6U, 0x3e1af8eabe474ad1U, 0xbe20af57be1b2ba5U, 0xbdf550be3ddc6bfaU,
  0x3dcd0e263de8e5adU, 0x3cd291c5bd3e1e3bU, 0x3cf4be283e84b527U, 0x3cb466553e244335U,
  0x3e4368dc3e54bea1U, 0xbc872e9ebd6378c8U, 0x3d4e3c8ebdf8a36dU, 0x3e27ead7bc7fb618U,
  0x3cad3cb73dcd27ffU, 0x3da9d45fbd149472U, 0xbd4597463d940333U, 0x3c38ce84bce1239eU,
  0x3d688c04bdaaeaedU, 0xbd71d21dbd8a1872U, 0x3e71f9443e14d4f0U, 0x3ca7ad413cf88bd9U,
  0xbdcea2143da959a3U, 0xbd4fc0d53e38bdb9U, 0x3ddf9f79bcdf8f14U, 0xbd9e476f3db8931eU,
  0x3da22b723e025fdfU, 0x3d861c42bd29354cU, 0x3d08b02b3e57897eU, 0x3e0f6e9d3d618bcdU,
  0x3e7f975b3c46916dU, 0xbd83929bbd976c53U, 0xbe2e74bc3c800324U, 0xbb8b6b0d3dd64918U,
  0x3b7e8cf53d5ac869U, 0xbca1cef6be8c6715U, 0xbd7a98c83d690684U, 0xbe056e7e3ddf0b3fU,
  0x3e265dbf3e425ef1U, 0x3eb8cffebe22f1a5U, 0x3c8a5bb1bca1f657U, 0x3d0550353e1a4fd3U,
  0xbddeda68bea33e02U, 0xbdc5681bbe62a502U, 0x3db89795bd5091fdU, 0xbe62b8de3d669c2fU,
  0xbc078dfc3e358059U, 0xbeb8f7f73d25ce4aU, 0xbe1b0c99bddd15d3U, 0xbc3f2cf03cf17ac1U,
  0xbe91e8ecbd8ad65bU, 0x3e512505baa0d066U, 0xbe0c3866bdf4af9aU, 0xbe81062a3dc1672bU,
  0x3d8516ba3e0df085U, 0x3da5d2343e6c00b3U, 0x3d92a8ee3e30e9a1U, 0x3d86e9a53dd6ef45U,
  0x3de1bfafbe2efad7U, 0x3d7860ef3e8bfa73U, 0x3e6e0978bd6f26ebU, 0xbca388fe3e01055eU,
  0xbd3ea8283df339d3U, 0xbd780ad83db637f2U, 0xbda5302a3dc2cc9eU, 0x3d59cf59bced2947U,
  0xbdaed75bbcd71116U, 0x3cf5b6cb3dd7f532U, 0xbde5624a3d72ba92U, 0xbe6458f83d2d8c15U,
  0xbe0fbfd5bc1df26fU, 0x3da107f53d964783U, 0xbde9bb43bce7ae47U, 0xbdaefa92bd2c36daU,
  0xbe6260dfbdd4b42dU, 0x3dde45443e3e826cU, 0x3db9fb3a3c0ba0f5U, 0x3d88210f3dbbeec1U,
  0xbe258c27beb1f6ccU, 0x3d13ed8bbde86d55U, 0x3c0b293f3dff0c42U, 0xbdfe3b1f3d56fd93U,
  0xbd2d4b4c39fdef0cU, 0x3dbe25c13d5442b3U, 0x3cb1181a3e1f16bdU, 0x3bf120883d40ba1bU,
  0x3e190d3a3c4d5b0bU, 0xbda135dcbe45bf14U, 0xbe4368593d8ca325U, 0x3dec923d3c758195U,
  0x3db1f6763d7f3f31U, 0x3e08fe95bd269299U, 0x3e0ba1713d53f1feU, 0x3e08a68a3c4716d0U,
  0x3d152b793dd123d4U, 0x3e0f5822bd970d6fU, 0xbf2929793da3abb1U, 0x3e42d8c13e347b9aU,
  0x3dd4cba03d2960d5U, 0xbc64c629bea51b37U, 0xbcc80326bd3eeb02U, 0x3caf84aa3e11e393U,
  0xbd7a9fd3bd668e66U, 0xbe6458cd3db3de8eU, 0xbead4e13be13a78cU, 0xbdc136553e04dce3U,
  0xbee76387be43c57eU, 0x3dc03e7b3e2f4e70U, 0xbd5f5d77ba7eeae9U, 0xbe0b42563d3cb443U,
  0xbe01d111bd9902e7U, 0xbe2665993def07b5U, 0xbe965631bdb0a299U, 0xbd0e9fcc3bb24482U,
  0x3d9491c9bcc0dd10U, 0x3c16e2073d7ed92fU, 0xbd7b07b1be032b95U, 0x3d6f2b813c8d49b0U,
  0x3db2a4193e176ad6U, 0x3d7391adbe5e97e0U, 0xbd6207153dd01e70U, 0xbe8867cabd976c39U,
  0xbd9d5423be1ebb87U, 0x3d9751613d9d9300U, 0x3d053d733e094448U, 0xbedbc936bd125c2dU,
  0x3db7646b3bd88cb1U, 0xbba4118dbdf222c2U, 0xbe2861d63e396628U, 0x3dfd96653e0b85c7U,
  0xbe5fcc3ebed2a02bU, 0xbd38dd7a3d73129cU, 0xbd3e80e2bdaf155aU, 0x3e4f11513de6c3a7U,
  0xbef88ca43e1bf1d8U, 0x3adb858e3ceb9913U, 0x3dd8ff3fbd8804e2U, 0x3e1351cc3c2bc568U,
  0xbd633c283ba55387U, 0xbdb7b5f3be1e8517U, 0xbd9a217fbe825fa2U, 0x3dc5ab3a3d93cefaU,
  0x3e180826bd3ffd76U, 0x3e59ba3bbd002333U, 0xbd8677debe5c3e3aU, 0x3c9044fdbd629e2cU,
  0xbdb5bb013e0a6858U, 0x3e04a13fbe4f75f4U, 0xbe164180bd94f72fU, 0x3db591583ce99c06U,
  0x3ca447c73e163d9bU, 0xbdc72685bcf162b2U, 0x3cc85081bda807c4U, 0x3d4a23103dc13c5cU,
  0x3e2f144e3d8abc9eU, 0x3e565295bdde5507U, 0xbde18882bd30dbb1U, 0xbccb90453d8c5aabU,
  0xbcb603e33d5eca87U, 0x3da79c1f3cf90ebfU, 0xbe4223e1be8d6d36U, 0x3dbd579a3d285396U,
  0xbd8484783df56c26U, 0xbe878921be719edaU, 0xbe39d1d83db8efd7U, 0xbce059cd3c757096U,
  0x3d802e683c882636U, 0xbe4e4050beaa6091U, 0xbc57b43abdd9576eU, 0x3ce1a1983dd1af53U,
  0xbcdb3b2d3d89efb9U, 0x3e02347fbda84bfbU, 0xbd8574cebe905db7U, 0x3e830fb93d8d9e8fU,
  0x3bd6c67bbc9fc7d3U, 0x3bceba513e21dde9U, 0x3b67dc23bc1327e7U, 0xbbb63c5e3d9f483dU,
  0x3dd732863ca3cb83U, 0xbcc08182bd7ad93eU, 0xbcb1a75a3d643f88U, 0xbea0676c3c9ff163U,
  0xbf0056cabdb1832fU, 0xbe0bfdaebc9a2393U, 0xbe9c522b3da8ef47U, 0x3be67482bdab66b6U,
  0xbd3028fdbe578195U, 0xbebafd49bbdecec9U, 0xbbe42ed23c406e9aU, 0xbe510550bcfddb77U,
  0x3cca7645be68e3cdU, 0xbe2f63d0beccb3b9U, 0xbe008cb1bc8d1bd6U, 0xbd6c5d31be4727fbU,
  0xbe97036e3d21f488U, 0x3c45b811be983058U, 0x3d1f2565bd579361U, 0x3d8424c03e3e6d59U,
  0xbdd2e4113dd61695U, 0x3e0b55edbe6ee9a3U, 0xbe95de033e4e16bcU, 0x3dde4cd03da9d2a6U,
  0x3d6a631e3e09197fU, 0xbd81531abeae53efU, 0x3d2676cebd0d3f66U, 0xbe0bb59b3dc55fe3U,
  0xbe9bad723dfaabbcU, 0xbf0271a3be7f162bU, 0xbe1228e23e9ff636U, 0x3ca3de683dc5a17bU,
  0x3e08931abe14d738U, 0xbe0c0a99bd109163U, 0x3ea7f0cb3e582256U, 0xbea74fd53df51891U,
  0x3da0b66cbd4c7d79U, 0x3d6dd452bda7547eU, 0xbe1a80233e3e187bU, 0xbd4cee803d3f2c50U,
  0xbd4233c3bd914b8eU, 0x3e23ce5bbe941227U, 0x3e3687093d381896U, 0xbec81a87bd13d4aaU,
  0x3dea24efbe2b7ff6U, 0xbbb2bb69bd42c866U, 0xbe449186bde2cf53U, 0xbdf73f4a3de46695U,
  0x3db817743e8480a9U, 0x3d93d314bdeb99ceU, 0x3d9298623d991a82U, 0x3e50d1223dcf5629U,
  0x3d45f2cc3e751400U, 0x3d6b44fbbdeb5d64U, 0x3d102e76bc0938a5U, 0x3e299f19bb4f6524U,
  0x3c7527a33cc25cb8U, 0xbd34c24cbdb7de3fU, 0x3d4af73abd9b1f1eU, 0xbe0941a33d9ed287U,
  0x3d2cfa243b7c38e0U, 0xbba049133db2df68U, 0xbcbb01cbbe43d8adU, 0xbd98032bbd3c599fU,
  0x3d5cf158bcb7fa86U, 0x3d82be083e81d777U, 0xbd474869be398ea4U, 0x3e147f943dba192fU,
  0x3dc2bb0e3cc87b0eU, 0x3d8c4d41bc7a007aU, 0xbd16fd83bde6142fU, 0x3df30f653d9b1bbdU,
  0x3da50c1ebd780540U, 0xbe8dd55cbd05be94U, 0x3d9121543d1e344eU, 0xbd9683543d6a50c8U,
  0xbe508f953e024598U, 0x3d7ab4a8bd5d9b98U, 0xbdc94fd6be3c9d4cU, 0x3e882ad53ebc5fbfU,
  0x3e469474bc76a0b4U, 0x3e0d74ebbd614b1fU, 0x3e6f86b9babbca95U, 0xbe4629623dd16cc7U,
  0x3d8d2800bd68ff66U, 0x3cab9c23bd826782U, 0xbdc756683e5ef3d3U, 0xbd1950653d72ffd1U,
  0x3d4b8cc63e08c057U, 0x3d6d8f53bd929fbaU, 0x3dbdfb763df030f7U, 0xbdf859553d8cc064U,
  0xbcc29574bc5b6777U, 0xbd9a9612bc5e5cb2U, 0x3d172e4abc3811baU, 0x3cc438f53dd0bd17U,
  0xbd4407e0bc156e9eU, 0x3dd272debe267f0aU, 0x3e2ef8d4be4e85d0U, 0xbe4b487bbcab7d9aU,
  0xbc512a1e3d7c28c3U, 0x3e0a78afbdaa1214U, 0x3d8dbc9cbc37006dU, 0x3d0e813cbdf4ad6fU,
  0xbe080b05be13430aU, 0x3e1d5bd3bdaedc41U, 0x3db24402bd892d5cU, 0xbd59b052bd25de8cU,
  0x3d5be5a83db38cfdU, 0xbde82a9c3e2d49cdU, 0xbcad4b593e0aa5a1U, 0x3d11b8893e5275faU,
  0xbd9efde8bd8a169cU, 0x3d3aa4423d8f9331U, 0x3e5fec953d8d4c86U, 0xbd1abd6ebbebe936U,
  0xbd74446c3be65880U, 0x3d2ef3543de4a79cU, 0xbdc69ac7bd5de7b9U, 0x3d2b9ac33d80c85cU,
  0xbc9e8e6d3e4acc61U, 0x3dac88b7be85efafU, 0xbd147b6b3dd643c9U, 0x3bf2ab573e02af4eU,
  0x3e061bdf3d959836U, 0x3dce96b23c7903c3U, 0xbe8697473d8304ceU, 0xbdd106a6be039fbaU,
  0x3d88bf483c1755d9U, 0x3d841aeb3c7f9834U, 0x3c4e7472bd0f7a68U, 0xbd984201bc9ffc51U,
  0x3dd26123bc57ae9eU, 0xbe07b70cbd782075U, 0xbd820189be82a4cfU, 0xbc9555d83e2e3ba0U,
  0xbe44f15bbe438a0dU, 0x3da304133ae8da0aU, 0x3dff528d3a9c4ec6U, 0xbc884ba83da919a3U,
  0xbc388af2bda50613U, 0xbd9e22ca3bfc0c86U, 0xbcd442fa3e436cc9U, 0x3cdedc9e3d6ec8dbU,
  0xbe231fde3cdb6831U, 0x3d9df80fbc361984U, 0x3e7c5e91bd7d0c7bU, 0xbe073a153d1e774cU,
  0x3d8fd4263dcc89c6U, 0x3da5817abe0b5476U, 0x3de675633e0e3d44U, 0x3dfc0e0a3dbc275fU,
  0xbe133c5cbdd5e45aU, 0xbc4ad5cf3b8f500bU, 0x3dde4ac5bbf97758U, 0xbd8ba84cbb51b94eU,
  0x3e63a627be93a2dfU, 0x3db619a9bdd14dfbU, 0x3d91f0733d2529f2U, 0x3caa01503d81f449U,
  0x3e396dd53dba8c47U, 0xbdd7286c3ac11e39U, 0x3e0018d13e8bf359U, 0x3d8d925d3de313c3U,
  0xbd9564b93e10e7b0U, 0x3b855b843d441664U, 0x3c393f75bcf41655U, 0x3dbbfc85be531420U,
  0x3c5b715e3c0c4c8dU, 0xbe6412a73e882f88U, 0xbe4b2a26bdc77aa8U, 0xbcbad11fbd802b34U,
  0xbd99cf99bdbe9206U, 0xbd6ae9ddbc492f8bU, 0xbf243d10be653f8aU, 0xbe1d2a39bf381be2U,
  0xbc2af2f13cc0b12fU, 0xbec2b4d2be4b8fecU, 0xbc5abebabc98a01dU, 0xbea2b2f63d2acf3bU,
  0x3e165dc4bc00a02dU, 0x3c8b913bbf013846U, 0xbe8886a2be06f059U, 0x3dcef61abe747111U,
  0x3db9e4c13d45d2b5U, 0xbda32a6dbdefa927U, 0xbde907ebbd3ee36eU, 0x3c8a2561bc65e435U,
  0x3d9c2ef43de5fbacU, 0x3dcba5c2bd0eda0bU, 0x3d4cc6373c87b470U, 0x3d9119e23e653a6dU,
  0xbe4f7f69bd5d6401U, 0x3ea05fa33e1d61a0U, 0xbe3ad3a53d10e39bU, 0x3dae29d73b0de561U,
  0x3c9e5983bd914eefU, 0x3dbd92bb3e65b49eU, 0x3de4d0b33e2ee9eeU, 0xbd1886183e14d9dbU,
  0xbcff4e79bc81cb84U, 0x3e599ee93e1e91b2U, 0x3e16a945bc9f8044U, 0xbe06679b3d534160U,
  0x3e0a686e3d491d81U, 0x3e2e84923c98c763U, 0xbe2ad1393d9e45bcU, 0x3cd51a2e3e0b4438U,
  0xbda2c379bd8f513eU, 0x3e4c6be73e1a3efeU, 0x3db0e71bbdb0868cU, 0x3d1f6f52bc29cdb2U,
  0x3dd5b6343d331d3aU, 0x3db17f393c0fe79bU, 0xbdb6e6b3be24bc62U, 0xbd752674bd0d8c68U,
  0xbcb5b4fd3dccefc7U, 0x3d27741d3db81c3eU, 0xbe78f817be8e4ae7U, 0xbd1e97613c060a3eU,
  0xba151e9d3e278880U, 0xbd170d423cbef205U, 0xbd41bc3abe07dac0U, 0x3e11150b3e08c30eU,
  0xbd8e31d9bddd9e9aU, 0xbbc929a53d4d1385U, 0x3e56dcb63cc490c0U, 0xbd5389debd1ac166U,
  0x3e1b9684bcd5b477U, 0x3e2273bf3e2f5d75U, 0xbe376870bd855370U, 0x3d90d73ebb8d9cbaU,
  0x3d83c4243da77a12U, 0x3e501c4a3e48d2fcU, 0xbdb0b3423e6d01e8U, 0x3c1954083cf2e236U,
  0x3e488a893e4507d6U, 0x3e36f2353e451d48U, 0xbcac25ea3da3f178U, 0x3d796d913d0e9d12U,
  0xbb58e1353e8dd4c6U, 0x3d92e1823d750610U, 0xbda5a0b6be206726U, 0xbc15c300bd191747U,
  0x3d7ea36abb234b2aU, 0x3e1d47713da6414fU, 0x3e59eab0be57a2c2U, 0xbd64b5593e14cf67U,
  0xbdf44c71bded17f3U, 0x3e081e773e2bda22U, 0xbe5b5d05bc8898b7U, 0xbe268b313dac1303U,
  0x3e56b4a43e0bea05U, 0x3d4d60c43e321576U, 0xbe713886bcf6e0beU, 0xbd0a62d83d9ace03U,
  0xbd958ef73d891c66U, 0xbbc210ef3e24bbcfU, 0xbd2d9163bec4126cU, 0x3d4e15a13cda4c59U,
  0xbebe876bbdf0c720U, 0x3d66f29e3e0ae93eU, 0x3e8703313dc173c6U, 0x3ce59f1b3d4cdb3dU,
  0x3dd61e753ecefbeaU, 0xbee7e51ebce50c99U, 0xbd0c8164be5a1aa9U, 0x3e838092bc79896eU,
  0xbdd6c02fbdd4d6b5U, 0xbf0de5e4be950ef9U, 0x3e02cd89be094436U, 0xbe3a5532bed53f5eU,
  0xbd22ddba3d203910U, 0xbea403a4bda7fe1bU, 0x3e144b35bd43cfb6U, 0xbe2e1e26bcacef79U,
  0xbd7a2f71bf0620ccU, 0xbdd3aa8fbe341978U, 0xbece04493e20c5d3U, 0xbde0de42bd751f3dU,
  0xbdf44f983d88f6aaU, 0xbd723180bed10744U, 0xbe2a4de33e0addd4U, 0xbe90c2ce3ce4207eU,
  0x3d40ecb5be1432e6U, 0xbd87d313be24df5aU, 0xbe8c79cfbe04220dU, 0xbb8631dfbe9846f0U,
  0xbe2bc9063d626d3bU, 0xbe54426fbef98e67U, 0xbdccc81dbd67b88bU, 0xbe33bfd6bd8ef7f9U,
  0xbcd005aebe49d2abU, 0xbe1bfe79be957ac2U, 0x3f02b610bdcf9edcU, 0x3eb35746bd29facdU,
  0x3e21565e3d274d5dU, 0x3e0f27c2bde57505U, 0x3dabcbd0bd571f95U, 0xbe567aa03d6995aaU,
  0xbd778a5abe0e16b7U, 0xbda9cccc3d425ec8U, 0xbd38d2693e3162a7U, 0x3b82bc333d78bf2bU,
  0x3e0ef377bd00e661U, 0xbd04ea553e8aef18U, 0xbddcbee93e5678e9U, 0xbddd10e9bd99f330U,
  0xbe6fffafbe5204f9U, 0x3e0fdeef3d1c5106U, 0x3e8009dfbc702d62U, 0x3d04c0633e0020d4U,
  0x3de0ee1b3d83c3c6U, 0xbe2a2de63e0c20f7U, 0x3d353105bcecf80eU, 0xbd9542473df6a62aU,
  0xbe43a42ebe086cd8U, 0x3d978a533e519122U, 0x3ddc03293d83d015U, 0xbe00b8d6bce98583U,
  0x3b8ade373d32fc44U, 0xbe8e2c8a3e9420c5U, 0x3e31e375be0b8b5eU, 0xbd24d442bcf636faU,
  0x3e85e89fbec9c521U, 0xbdb17de53d7ffdd6U, 0xbf0dc569bde150f1U, 0xbe5c2093be99af75U,
  0xbd2248d13d66b90dU, 0xbe13df08bd085523U, 0x3d8c60193ce4181aU, 0xbe4c92593d4da29fU,
  0x3dd196ad3d86a6e3U, 0x3e0f057c3e61af0bU, 0xbc7bb9493eb07034U, 0x3e1524cf3e0bfbcfU,
  0x3db93c733c89c49dU, 0x3da368a23dcfff95U, 0xbe3181b6bee5f494U, 0xbdbd30523d614b36U,
  0x3e10b587be31ab8fU, 0x3d2f1e873e230393U, 0xbc644fdc3ddac75eU, 0xbd067a653d8bc1e3U,
  0xbdddb67bbd9c19bcU, 0xbd418c20bc12bf71U, 0xbd8a2012bed915dbU, 0x3cc7ee883d09f35fU,
  0xbdbb5f0f3e3d6bd7U, 0xbdd344883d7c81edU, 0xbe147b66be145871U, 0xbd234870bdfa8b6aU,
  0xbccf7f8cbe390c6bU, 0xbe4449923dd372b6U, 0x3e3b1b83bf075227U, 0x3dbc775bbd8256d6U,
  0xbed5d3a13d2e13c6U, 0xbe57470bbe8d4ed9U, 0xbeb28bff3e911e27U, 0xbd1f2f8a3cb9cd51U,
  0xbe860c02bcc7f8cfU, 0xbee0eb5dbec88a12U, 0xbd338efe3e905471U, 0x3e087dc13e168c34U,
  0xbe916b51be02fec3U, 0x3e900fb2bee5b985U, 0xbe6013df3d0c9020U, 0xbe221777bed67f8cU,
  0xbe900595bed8beb3U, 0xbe382455bf1d4abdU, 0xbc9194a93e082427U, 0x3eb6f444bb78b9ddU,
  0x3dbe7632bea98322U, 0xbec3c59ebe919773U, 0x3e67d41abceda131U, 0xbd20ad8b3d347b3cU,
  0xbe6eb9b03d5d3185U, 0x3bd44ecc3e004251U, 0x3cac6b893e69d436U, 0xbe0ce5723de8d7e8U,
  0x3eb335d93e5365a7U, 0xbe8e083ebe257c2aU, 0x3e61f26dbd15e821U, 0x3e514f2abeb0bc0eU,
  0xbea3c3d9be884ed7U, 0x3d910799be6d869dU, 0x3cadc50fbdd6e842U, 0xbea91186bc6e9208U,
  0xbddf28edbe949df5U, 0xbe2e4a383ed4d0f7U, 0xbd99e3123c4f34daU, 0xbe29449ebe4925edU,
  0xbe81400ebe0a125dU, 0xbc9a5109be94ff02U, 0x3d0adbfe3e6ca14fU, 0xbe47c9843d6081faU,
  0xbe9c2901bdf2dd69U, 0xbcb0fbe0be9d515fU, 0xbf1064c33ddbece7U, 0xbd4e2f5fbe8017ccU,
  0xbe0e5b69be856722U, 0xbe98a474bf0149e8U, 0x3dbc393b3c454f98U, 0xbdd88145bcef2c93U,
  0xbe458b2dbe558bd2U, 0xbe843c50bf211881U, 0xbf015346bd4c40eeU, 0xbd7e2888bd6e5e35U,
  0xbdc86ffbbd5b1e10U, 0xbdf49a8fbee58a6cU, 0x3c646deebbc964e6U, 0xbc2fc6b63cd6300cU,
  0xbea57dacbd1607dcU, 0xbe95ac82beda6c25U, 0xbeaa977cbc9895c8U, 0xbc45003cbec0ee00U,
  0xbed297a1bdd1b0a6U, 0xbe892df4bdfe25f6U, 0xbc1ad73fbcace83eU, 0x3cb787183da83473U,
  0xbec90441be5f51faU, 0xbe08ebc1bed6b66fU, 0xbf2845c53e2101a3U, 0xbd338b2fbe53dbbbU,
  0xbe25ed47be8d0ca4U, 0xbe8306853d88f3d5U, 0x3daec8063dbb71feU, 0xbd968c883cc863b1U,
  0xbd917f76be8df04dU, 0x3dcfd927bf103ee4U, 0xbe33b571bd90a1f9U, 0xbe2ac804bea18354U,
  0xbece016ebd6e7658U, 0xbdc914ecbe5d31f0U, 0x3cc4adf63e4b0e77U, 0x3e8aafa93d7cb99fU,
  0xbda81e98bcbfa349U, 0xbbb71567be27ad78U, 0xbe72797dbd12236cU, 0xbd099705bd8089dcU,
  0xbd5fa563be25f740U, 0xbc87ff163d99d1e3U, 0x3dcff3753a9b37c1U, 0xbe95e1cf3cc35393U,
  0xbeb04234be12ff0dU, 0xbe86e207bdd2d446U, 0xbe0577ef3dca4f81U, 0xbe4f519cbe3b8ec2U,
  0xbd2b5ec2beda4a0aU, 0xbea45f88bc8a03c7U, 0x3e305ff83e128cfdU, 0xbef915113d34aeb5U,
  0xbe5ec994be828efaU, 0xbec48277be495d77U, 0xbf28292a3c535f75U, 0xbe1aa5edbe87591fU,
  0xbe942bf33ec32cc8U, 0xbdcb8971be703eb6U, 0x3ddce4c7bc54be62U, 0x3e4655573d83ac24U,
  0xbdba460e3ebe3519U, 0xbc0b6f1bbf486012U, 0xbdd45291bdb12045U, 0x3eccf153bdfafb27U,
  0xbc95ce40be265afaU, 0xbe78e9c3bf60b726U, 0xbe3c7f1bbe065c02U, 0xbd50fadf3d2127d4U,
  0xbca83946bda36ab9U, 0xbe60892cbe81074aU, 0xbde8583bbda3d8e2U, 0x3d08f1363e3034fbU,
  0x3d41ed363deae28bU, 0x3d1d2220be005917U, 0xbdae93e03cf6f583U, 0x3d66e5ecbc22a381U,
  0x3dab0c283e3ac8ebU, 0xbd31a8a2bd98530fU, 0xbaa1280ebddc9b5bU, 0x3e760134bce47344U,
  0x3d16ae623de4ca56U, 0x3ca56da73c492b93U, 0xbd7afc0dbdad84abU, 0x3d415667bcf0f0a5U,
  0x3e32f46b3d54fa81U, 0x3e866c0f3d0a057eU, 0x3d3fc4023d8b6357U, 0x3cc79f923bdf1640U,
  0xbcb8641f3e11ab48U, 0x3de263093d2b5ceeU, 0xbe26ecfabdaedb30U, 0x3dfb069f3cfa3e59U,
  0x3d7e2320be5cf1e2U, 0x3bda035b3e0c395fU, 0x3d096720be976508U, 0xbd0dec54bd7e3083U,
  0xbcccaa0b3e1615e5U, 0xbc96a37dbde70cd4U, 0x3e2a871a3e351120U, 0x3ddf92643d38ec5cU,
  0xbe0f9af03dbd06feU, 0x3de1f1e03de204ffU, 0xbe56ac44bbae4610U, 0x3da969a93d32d47aU,
  0xbdd64a58be4a35adU, 0x3ce0ad65bd3e5171U, 0x3d315a24be8071f3U, 0x3d4a9a1ebdea6698U,
  0x3dc97b593ce3877eU, 0xbea8e8ea3bca7275U, 0xbc4818c43d81ce53U, 0xbd8e13c4bdca6119U,
  0xbe3ab2413e605c22U, 0xbdcf68cabdc913c1U, 0x3db75d39bdb94046U, 0x3d2c2f20bbf1f33dU,
  0x3e11b8bfbdcbd841U, 0x3d672a10bd6e4a3cU, 0xbdb1a59fbd77f725U, 0xbc8048563d82e2d0U,
  0x3d8613913d81db74U, 0xbc3b947e3caf4ec9U, 0xbe403b523bca22a0U, 0xbd7c6783bb9fbadaU,
  0xbd6bcfeb3de5f26aU, 0x3d8ec5d23e2c6330U, 0x3e240a76bc9a9617U, 0x3dc93f6ebbf1e644U,
  0xbd3a3a47bc01539aU, 0x3e17d1cf3c2c14e1U, 0xbd8fb9283d37bf12U, 0xbe20ba663d83330aU,
  0x3e37966cbe149f42U, 0x3e76f384bd819215U, 0xbdcbc026bd4daa63U, 0xbc81c91bbda08b84U,
  0xbd9439d7bd88ec62U, 0x3e1c217e3ddec3a5U, 0xbe2a5fa63de50d8aU, 0xbe18c5b6bdaa9b34U,
  0x3df52ef53deb4f03U, 0x3e4301473dd101a8U, 0x3d89a68fbe45d05fU, 0xbbf30eec3e5f5e4fU,
  0x3da10d703e667a5eU, 0x3d7a57b6bd5c10f8U, 0x3b47dfe1bd180595U, 0x3d19610e3d87f279U,
  0x3c292a283d49ff5eU, 0x3e7536c8bd65b71aU, 0x3ce549babe25c6a9U, 0x3e0373e73e6e8431U,
  0x3da7d089be0c0f86U, 0xbc5cec153c25ad3eU, 0xbc91bfe8be247d26U, 0xbb1a1d21bc5e20ffU,
  0xbdc86aebbc855818U, 0xbd076ac13d8bd383U, 0x3e15f683be471abcU, 0xbe02b98e3d2b176bU,
  0xbc9eea583e153d89U, 0x3d9967113d32d6adU, 0xbe5f99613dc8900cU, 0xbe3312dd3d84693fU,
  0xbbee5c993e2a36d4U, 0x3d993fe93e243322U, 0x3e385aa2be5ed28cU, 0x3e12608fbcf56002U,
  0xbc5596323d99a268U, 0x3d380a84bd0417dfU, 0x3e6d38f63d830cb5U, 0x3d595d633d5d5b68U,
  0x3d66f9d2bcb399e5U, 0xbcb6d5fc3c4a7091U, 0xbe0e70853d4dc9c7U, 0x3d8c79ba3dbb3badU,
  0x3e0411b83d30df14U, 0x3e4aff3dbe13d4b1U, 0x3d0f28e23e675321U, 0x3d9668f63dfa00b7U,
  0xbcac560e3e0040b3U, 0x3c2f8ffebdeac2f6U, 0xbc528ad8be2b99a5U, 0x3d875a8d3e1b32cdU,
  0xbdc2ec46bdd0bc4bU, 0x3e0fd9c7beaed32dU, 0x3c935dc3be3954fbU, 0x3c845a59bc2ca13bU,
  0xbd65f55dbd012ef4U, 0x3d9e19443d0a547aU, 0x3e1819b53d8ea39aU, 0x3dbaf8c43e2880ccU,
  0x3dcaa763be0a6899U, 0x3daf1c783d26c5c1U, 0x3dae77fdbdf92e4dU, 0x3cb96f5f3d0c1b3bU,
  0x3e5deaaebd98057aU, 0xbdcf72d83dcfafafU, 0xbe8847ff3e45034bU, 0x38dac26b3dbd0217U,
  0xbc3cc75dbd22bb52U, 0xbcf502a9bd08a022U, 0x3b2c89a1bd15cf56U, 0xbd5f6bdabdd5c6f5U,
  0x3df442cfbd4df36fU, 0xbe6bd466be8a933aU, 0x3e88804dbe02ba1cU, 0x3e190ce03e3fcbe9U,
  0x3d5a4af8bd009d80U, 0x3e09daeebdce0c50U, 0x3ea9412e3e3564deU, 0x3cce40983d12a00cU,
  0x3e79b3f4bd2eda8bU, 0x3e46f018bea6e623U, 0x3e3598a5bc60ebfcU, 0x3d80a9183d6bcda4U,
  0xbc8a4aa63dc98529U, 0xbe3b9b8e3bd8e251U, 0x3d2020ef3e422efcU, 0xbdfd44843e058238U,
  0xbbbf48323d2caa77U, 0x3d84d1533de4ca2fU, 0xbde0f8623e473562U, 0xbd59bea13d7b9f58U,
  0x3df3adc2bcd20e00U, 0xbdf6b8243e5ba169U, 0x3cbf8bd6bc2e4903U, 0xbe18dc35bccc6b84U,
  0x3d711d663dae89ecU, 0xbdb3a7ea3d71736fU, 0x3db7d9483d881207U, 0x3d1bb82f3c36fe96U,
  0x3e26016a3df45a6bU, 0xbd17192e3d6baae6U, 0x3e0e163ebb43e82aU, 0x3ea3dd53bd6509dbU,
  0xbc1b4cffbde927c9U, 0xbda495f5bdfed395U, 0x3dd43150be17d248U, 0xbceb35ed3e39ee5cU,
  0x3c0aece23d409d00U, 0xbd03c4e8bdb5d321U, 0x3e9c5663bcf31932U, 0xbdd757a63cef77faU,
  0x3db40afabcae4db1U, 0x3dae08133aeab694U, 0x3dbd88cdbde5e814U, 0x3e18e78abe9d34baU,
  0x3da225003c76d787U, 0xbe5eccf43e2506c9U, 0xbd077b97bc018741U, 0x3d035bfe3c0c6da2U,
  0xbc6404003db1a4b0U, 0x3c81c258bc52d89aU, 0x3e917abd3bf0d95cU, 0x3e103bb43d1afe0cU,
  0xbdb8e539be0a3620U, 0xba89b342bde0697aU, 0xbcb5b7563d298a57U, 0x3d8bcc883da59c1cU,
  0x3d6d6311bd2798d9U, 0xbedc1c733d7e7fb8U, 0xbe2294093e54f69bU, 0xbdcf353f3de63733U,
  0xbe7fcbdfbdf88135U, 0x3d5b5846bd82e5d0U, 0x3d90a093be8711ecU, 0xbd3cc2703da43b1bU,
  0xbc89f3e23de75cd9U, 0x3e5242913d907d3fU, 0xbc845bd83d7cbf48U, 0x3e69d6ea3bdadc25U,
  0xbc90678cb8773f89U, 0x3e4d8d3a3d0f327aU, 0x3d3e04f83bc252b1U, 0xbe119fc5bc12ac4dU,
  0x3e2537363e7d71b3U, 0x3ccfb58d3e0035e7U, 0xbd47ae403de46d20U, 0x3e7cf1f43dd48999U,
  0xbd53900cbbf36095U, 0x3cb3c30a3db8f471U, 0x3d154eafbe0735cbU, 0x3ad6ca4f3cb16461U,
  0x3e2ecb973c1b9e97U, 0x3deb5b063e115dbbU, 0x3cfcf3cbbe6a0d3fU, 0x3d166050bc8670bbU,
  0x3d21f1a1bdf6bc67U, 0x3d3287a93d0c1e24U, 0xbc6f539ebe3455aeU, 0xbd4aa1843d3c9b2cU,
  0xbebc1b59be625228U, 0x3d850c38be166041U, 0xbed179dfbdeb40f7U, 0xbd2426d2bc76ac39U,
  0x3e04bdecbd8a8181U, 0xbeb886cd3b9c3095U, 0x3e2a965abdc3b14dU, 0x3e67c108bc0407feU,
  0x3d86f3793e5a63cfU, 0xbd4413ddbedb2906U, 0xbd5dac2c3e84d353U, 0xbe70c000be23fff2U,
  0xbedb1f95bc8ce87aU, 0xbd9ad4d5beda1fc6U, 0xbd29eb463d9fe4a6U, 0x3e8748a1bdacc591U,
  0xbb91dd91bcb596cdU, 0xbe8b76d8be90d97cU, 0x3e8db7413c86e7f9U, 0x3d4ffb2d3e36de98U,
  0xbe3a13ff3e16ec32U, 0xbe1f74ecbeaa6871U, 0xbaa0e98abce2a8efU, 0xbe743bbe3deea706U,
  0xbed8d3c3be0c4952U, 0xbc64de04bec2fbd9U, 0x3d2db5c6bda4af26U, 0x3d7bbe313cbbb271U,
  0x3db5d86a3de9cebdU, 0x3d802a51be8de276U, 0xbe121a6ebde3b2d5U, 0x3e12b4353d939694U,
  0xbeb17188be22da0cU, 0xbed3662abe354124U, 0xbda49e73bca5663fU, 0xbd4d5fdbbede34d3U,
  0xbdc89118bdb334b4U, 0xbe2a68fbbed6a532U, 0x3c868c5dbe43e64fU, 0xbe855e64bd168a84U,
  0xbbe76509bdac20c8U, 0xbf09e9acbdad5b9bU, 0x3edb6d653eba967eU, 0xbcf2c56bbe5f9b70U,
  0x3e3b6ef9bc5305c4U, 0xbdf19e523dba1ca6U, 0xbd0456dcbde3428cU, 0xbe5f4d903b5cf263U,
  0xbe5982ef3e08bc94U, 0xbd2b59903d514775U, 0xbe0be68e3dae99ffU, 0xbd5c09d5be07a7a8U,
  0x3c845c3f3d791619U, 0xbda828f8bea9250fU, 0xbc1a23b03dbce933U, 0x3e441446bc996addU,
  0x3c8b2c343d31c5c6U, 0xbd9fc013be7f8e19U, 0x3d2e6e67be3b1c51U, 0xbde616d5be1c2990U,
  0xbce5aec8bdf0ca94U, 0xbd8d4bbebd69fb0bU, 0x3e12eb013e0761feU, 0x3d81b4da3d447514U,
  0x3d82e904bcaf41b7U, 0x3e9a45a9bd3be317U, 0x3d98904a3cad3259U, 0x3d2458ba3d613208U,
  0x3d90c9efbd7d628cU, 0x3dc4045bbd1c47c5U, 0xbd1d530e3e9fb7a5U, 0x3d15883b3e033c84U,
  0xbd6ab192bdde9891U, 0x3de53a8f3e072993U, 0xbe131dcc3df99f9fU, 0xbdbf44fc3d82451eU,
  0xbdeb68c1be94f747U, 0x3cba6e54bdd53db2U, 0x3e114a16bd22816dU, 0x3d31076e3cad908aU,
  0xbdc6f63cbde76c97U, 0xbe31c0cdbe1de155U, 0x3ef53a86bdf1e579U, 0xbdc0467fbdf1093cU,
  0xbd5d14c03e41f0bcU, 0xbd0e44a2bdc4441dU, 0x3e9c7a3b3dc88461U, 0x3df52e35bd686789U,
  0xbd38ee9ebd92bf70U, 0xbd94e7e6bd8cf404U, 0x3e0be7213e28fba7U, 0xbe580ef93e521f23U,
  0x3d8cff9fbc94c9c6U, 0x3e17e01a3d8093ceU, 0xbde6001a3dcd3d6aU, 0xbd9147e33e15d151U,
  0xbec08e60bcf32d33U, 0xbd082655bdb3b6c6U, 0x3e0cae57bdffda1eU, 0x3c2fd93c3d067c78U,
  0x3d1aab95bca8d591U, 0xbc756b713da36e7dU, 0x3d432cbb3dd20732U, 0xbdebc8e9bd6d8031U,
  0xbd7fff573d530ab5U, 0xbd869689be88153dU, 0xbe0e6823be0c8aa9U, 0x3d007ca2be8d8e91U,
  0xbe0ddfdebe0faa48U, 0xbdecc8e6bda7e8a7U, 0xbd42996dbccc2f78U, 0x3e5fbf11bcc27ffcU,
  0xbe4d7725bda23f8aU, 0x3d09759dbeb172c1U, 0xbe8fa2b2bc002695U, 0x3d0d1d2ebe8666deU,
  0xbe80e5213d6ccc6aU, 0xbe3ee2a6bf150af5U, 0x3ce639b9be22dc41U, 0x3e98e519bd7d4029U,
  0xbca0d2223e4e29feU, 0x3e78f9f8bf092f93U, 0xbdfec892be6bdaecU, 0x3d9e9596bd1d927aU,
  0xbc8784583d085c76U, 0x3d20b1e0beaeaf57U, 0xbe60e5cdbe0082ffU, 0x3e18faa9bd3d7a86U,
  0x3dd6d68dbc6dbedbU, 0xbd4d3c483df22237U, 0x3c61467d3d6e5d8aU, 0xbd4432bc3dcb4f4bU,
  0x3db152b8bde0853dU, 0x3c568481bed6d63dU, 0xbd169cf4be1de241U, 0x3e2493fd3d7fb9d0U,
  0xbee170e0be7df2adU, 0x3e0ccb8c3e30426cU, 0xbe4f1657bdc1e0dbU, 0xbe173998be99f37bU,
  0xbebc0832be11e02dU, 0xbf0126ec3e80b11dU, 0xbda653dd3dab4f65U, 0x3ea020a23c7ae012U,
  0x3e0148c73cfd9b0fU, 0x3e4f0990bedd8e23U, 0x3dbe5b143b802563U, 0x3d84b3dabe0d1be9U,
  0xbe5288afbcd64986U, 0x3d9b73e5bc2b9ae7U, 0xbe118a22be48d3f5U, 0xbe00c0ab3d60101eU,
  0x3c8bb162bd1a6d21U, 0xbd6924da3e47044fU, 0x3dc582b03daca854U, 0xbe33ccb63e1615b1U,
  0xbbd513a0baf313b2U, 0x3dee10b43e688d05U, 0x3dfe9c0f3e0f275fU, 0xbebcb13e3d6f0eedU,
  0x3ddd038a3d741939U, 0x3ea671b83d241ad8U, 0x3ddd038abb997a9bU, 0x39d880723e116a3bU,
  0x3de5f68c3e5ebd84U, 0x3cc67149bca30ab4U, 0xbca0a4e2bbdc28e9U, 0x3e85ecad3cdffd33U,
  0x3e5e9ea03e5f0d16U, 0x3e903e7a3e1e817cU, 0x3e0832993d03c3ecU, 0x3d6c423b3e2c3384U,
  0x3e602ef43e29db7eU, 0x3e6fffcf3d1ffd0fU, 0xbd62a4653dd817d4U, 0x3e8de86abd810236U,
  0xbdbc97733e671ea6U, 0x3e4512b43de3dec4U, 0xbdf643813c9e0325U, 0x3e2fcf523d2e81e0U,
  0x3d179b16bdce2831U, 0xbd97864b3c754c0bU, 0x3c4405c83e1136c8U, 0x3e10067d3b8bd4f4U,
  0x3e802247be62a43dU, 0xbdfc41a3be20f927U, 0x3d0f4ce2be23d35bU, 0x3b221fa73e2da4beU,
  0x3e0990f63eae4a60U, 0x3e593ab93d948146U, 0xbb35c04dbdbef924U, 0xbe4df9693d59d7c9U,
  0x3d1b51133ebf7cf9U, 0x3e324703bb8a2263U, 0xbd903490be832bbaU, 0x3e5b41733dc1b0b6U,
  0x3da100e63d067e97U, 0xbd4dac68bddc3362U, 0xbe68a1b9bd99e419U, 0xbcb47fa83d617719U,
  0xbce376943d1dddd7U, 0xbcaf2f61bdfab4f1U, 0xbc8e889fbdfa6632U, 0xbd8ef28dbd6552ecU,
  0xbbdf3400be2364f3U, 0xbd78d3803dc13881U, 0x3ca3c3cf3d551014U, 0x3cd6937bbcbbf40cU,
  0xbd55bf423d2be5afU, 0xbdaf7faf3cd62124U, 0xbd20d7303c249f20U, 0xbe1f051d3c8e291fU,
  0x3cf500bfbe3d2122U, 0xbe23f8a63e02307dU, 0x3e51ab1b3e0f0a2dU, 0xbdc5db0dbcad9900U,
  0xbdcd15773d29b397U, 0x3de32ced3d540907U, 0x3e2192f3bc5b2f12U, 0xbdde9c683d289f01U,
  0xbdada6933cac271eU, 0x3e1b8f3f3c8a6a6eU, 0xbd0b2c643e05cb3fU, 0xbdb91c283c248953U,
  0x3e4607873cd72b22U, 0xbd58a4193cce62adU, 0xbe1cb6833dae808aU, 0xbda88081be128d14U,
  0xbda95855be96670bU, 0xbc221107bcc7cd62U, 0x3d989291bd731f08U, 0x3e31fae4ba5b90feU,
  0xbcb7817e3e22e073U, 0x3c20f2653db323bdU, 0xbe0677b0be114a38U, 0xbd5097d23c39d2d9U,
  0xbd793145bd8642c1U, 0xbcc9b113bda6ed6bU, 0xbdf07753be133e62U, 0xbdb8fc943be716cfU,
  0xbc76090f3da64716U, 0xbc80ca233da40d52U, 0xbdbcbcc03e13633dU, 0xbce3c6823daa1485U,
  0xbd41304b3d54e2a6U, 0xbd769e383c76b7e5U, 0x3e1531c9bdbcef2cU, 0xbe3cb6093ad826faU,
  0x3d1f2612bbbd5801U, 0xbda55f3cbd4403ffU, 0x3d2671363cf530fbU, 0x3d55557bbdf72b00U,
  0xbca398193ce7f673U, 0xbbe8f10c3c427591U, 0xbd67a041bd1fdbb8U, 0xbdb4f79e3d8a4e03U,
  0xbe53b9603dcbb5fcU, 0xbda607603e0830d8U, 0x3da6b8d43e21d8ceU, 0xbdc6e2763da19b0fU,
  0x3db6df453d8e9531U, 0x3d2d00463d45a823U, 0xbd6e3958be507bddU, 0x3e1b68eb3d91266aU,
  0x3d98b4473c31229cU, 0x3d05ad0d3d5aab83U, 0xbd9f5b91bcf5cdecU, 0x3bfcb21cbe1ca04bU,
  0xbea96f88be5ea2c4U, 0x3e11913bbde73aeeU, 0xbd83b1eabdd91f5cU, 0xbe1837abbcc6a30fU,
  0x3da16015bd0a9c96U, 0xbe1c601c3d798778U, 0xbd591d893e864ae0U, 0xbd0cfc983ccbb14dU,
  0x3dc32d14be19a051U, 0xbd30c8a03ed654efU, 0x3e291c1f3d897221U, 0xbe3901aa3c4e357bU,
  0x3df8625fbca00ac8U, 0x3dd18b6fbcf751c0U, 0xbc5e80e33dc936e1U, 0x3d115fff3d164d4cU,
  0xbe29df8fbe6e27c2U, 0xbde55b773cd96554U, 0x3d7b88133e025ee5U, 0x3ead628c3d6e938fU,
  0xbce3908abc9a966bU, 0xbd7b17f83e88879dU, 0xbc4b3347bdff76f8U, 0xbd779c3d3d14347cU,
  0x3d1fbc0d3e325ca7U, 0x3d6afa2d3e27a4a0U, 0xbe5b0ea33d403e4dU, 0xb99f99aa3d1c28d3U,
  0xbd915d5fbc0e163eU, 0x3d74129abc34f866U, 0xbdff6718bdaa5577U, 0x3dc2519c3d88a9d5U,
  0x3d112647bd2c1ebcU, 0x3df3f78c3d1be51bU, 0x3d2736ab3d796059U, 0xbdcbb1c5bd43b1deU,
  0xbdc83d2bbde5ed58U, 0xbd6a99af3ce60b1fU, 0xbc8a554abc36ad98U, 0x3ced9c533ce81037U,
  0xbe7b416e3de691f3U, 0x3da822b33dc095e0U, 0x3e69dc75bd2e0cd3U, 0xbd15ca723d9a95f6U,
  0x3e124d6b3d4936eeU, 0x3e12052cbb17b441U, 0xbe34adcb3e023b93U, 0x3d163500bdb3fa1cU,
  0xbdffdf183deac174U, 0xbd88f952bd9c1387U, 0x3d2dc4dcbe06b5a6U, 0xbe3615df3daf069aU,
  0x3e06233b3e6d8076U, 0x3d2541163d581e16U, 0xbe37e2963cd30685U, 0x3bf7e9cb3c93d7baU,
  0x3d515cd1be2987a3U, 0x3e119eb1bc342047U, 0xbb670103bd722ef1U, 0x3d1bae533d7243bfU,
  0xbe466373be19e3c9U, 0x3e1fa1b43e3465d1U, 0xbdb84cc0beaa49c1U, 0x3ce8d3c63e13a837U,
  0x3ddfa52b3e22accfU, 0x3e214877bda3fc6aU, 0xbec5fe9439a08ed8U, 0xbc173a39bd294c19U,
  0xbdadfa67bd9a1148U, 0xbd18005bbd58e5b0U, 0xbe1c4abc3d8c3eddU, 0xbda9ae3a3b63915fU,
  0x3a7710ebbd1d490fU, 0xbbf07c52bc9b52e5U, 0xbebfd077bdb118f4U, 0x3e101cd0bd8933a3U,
  0xbe80688a3e308bceU, 0x3cd759a43e2ce1dbU, 0x3e671dd2bc5afeb8U, 0x3bc38b903d8a8530U,
  0xbdcb904c3c4c8df0U, 0xbe56e21ebd917bb2U, 0x3c5afa583d105ed5U, 0xbca821f6bc6b1fb2U,
  0xbdf4acdcbd8676c2U, 0xbea22aea3e77bcfeU, 0x3cd64f38bcd1d781U, 0x3ca206ecbbf1841dU,
  0x3c84b9683e10618eU, 0xbe9a719abdbae14bU, 0x3d5cd6c6be4798b2U, 0x3e498e863d2b1a1dU,
  0x3da4826bbe12357aU, 0x3e6946cb3debaa60U, 0x3da02c8c3ce64a27U, 0x3cd9b8943c26867fU,
  0xbd85b1c93d683ab0U, 0x3eca4683be14b258U, 0x3dd90cb6bce5d930U, 0xbe41bc90bc84fea9U,
  0xbd8e02dc3d9e6563U, 0xbe020544be8362b9U, 0xbcaaa18f3bad868cU, 0x3d13ee0f3e3c0e0cU,
  0x3dcec72cbda42ee9U, 0xbe038f3ebdde9baaU, 0x3e8d8d56be591559U, 0xbd04d6963d18b3bcU,
  0xbbbf728c3e03da67U, 0x3dc2f6f3bd8ce728U, 0x3e4b99bbbe409e96U, 0x3de2a3ef3d8e7ad1U,
  0xbe4aaea7bd298153U, 0x3ea5546f3c3a0a33U, 0x3e0d2eef3e4b7864U, 0xbe3150ecbd444377U,
  0xbd7cd566bb967dd1U, 0xbd175f1a3d78aeeeU, 0xbd9ce5a0bd067fc1U, 0xbd1138003db01ab3U,
  0xbe0550dcbd883ab0U, 0x3d965007bce0e776U, 0xbe4b94ee3d41ef39U, 0xbd80e64d3c5ec621U,
  0xbe3b735abdd739ebU, 0xbd45c6cdbb7d8a08U, 0x3c060955bdf297f0U, 0xbd1516f03d853c41U,
  0x3e20719cbd489c39U, 0xbccec28f3e0e7227U, 0x3dc07eb53c1d9c17U, 0xbd4d88913a95097cU,
  0x3d47559c3cc64fd7U, 0xbdada71abd185f2eU, 0xbdf255ebbbc54ceaU, 0xbde77720bd06a125U,
  0xbdfb8998bd425f34U, 0x3db13b80bcf01989U, 0xbe04dfd3bd16d5edU, 0x3d033973bcab5884U,
  0xbec41dab3e0fcc03U, 0x3d78dc8a3dbbf44dU, 0x3dd892dcbe04492fU, 0xbd5c6fe6bd86fdeaU,
  0x3d7cb58a3da30ea1U, 0xbd3a182d3cb2f704U, 0xbb7c572cbd8148f2U, 0xbcaeecdcbbcbf25aU,
  0x3db04be7bd6ba7c9U, 0x3d5622f03c9e4304U, 0xbdcba721bd985c0eU, 0xbe77c043bd7b72edU,
  0xbe1e6feabc372c4dU, 0x3db98ead3d59ae9aU, 0x3d92f4263e22655aU, 0xbd35eca73b483b6bU,
  0xbe10c3c83d247d1aU, 0x3da0c5723daced59U, 0xbdda6187be9ba259U, 0xbd9bb52a3dcaf7a4U,
  0x3deed2233e38717aU, 0x3d1d72f7bd45d6d8U, 0x3dc243483e6a9f70U, 0x3bae611d3d1c23b7U,
  0xbc1a5794bc60fac9U, 0xbe5932cd3de49b2dU, 0x3e503d283e0bd0b4U, 0xbd374d913e2c2f89U,
  0x3e034159bdfecc0bU, 0x3e081bd83d222264U, 0xbe33c5453df217b4U, 0x3ccda0943d69b0fbU,
  0xbe1078c2bc597341U, 0x3c13725ebb8a313dU, 0xbd7c9ef23d79da4cU, 0x3c8a15433e013326U,
  0x3dd3c43b3e4d06ecU, 0xbe1f5568be86a447U, 0xbdb0dc98be8f7cfaU, 0x3e0afad73d637e44U,
  0x3d408a693d310911U, 0xbc8f6a60be86c29dU, 0xbe984510bd9e65afU, 0xbdc9ea71be5f2cf5U,
  0xbe44d2533e393b3dU, 0xbb1084e33de0760dU, 0x3dc1d191bdeb8896U, 0x3e8ddd9dbd2030c2U,
  0x3e6a74d53d9a27fdU, 0x3deaa6da3dee41d8U, 0xbe74a8b93d819abeU, 0xbd80e9e5be0c4a86U,
  0x3e0e6aff3d9a0ff8U, 0xbe971c21bd7757c7U, 0x3d8f6b98bca2f707U, 0x3e0615483c31d085U,
  0x3e7d597cbf1ac480U, 0x3da63495bde2d6caU, 0x3de4f376bc28087bU, 0xbea02760bd12e98dU,
  0xbeaa61dcbe0d0f6fU, 0x3e428d963e9fefeeU, 0x3d46bbf73e0f6b07U, 0xbaffdf713d551abaU,
  0x3d31afe7bd3cd2ddU, 0x3ea49cf33db7426fU, 0xbf16d7703e07b185U, 0xbdf3144ebea1d1dcU,
  0xbe13282f3d8bb572U, 0xbd94aaa2beb5c479U, 0xbd517c813b8db75eU, 0xbdcf2204bca45553U,
  0x3e91fec53e0076a1U, 0xbdb208d3bd045ee5U, 0xbe31a9c93e1c93dbU, 0xbd194b253de94bfeU,
  0xbbf5722a3dfbf477U, 0x3e73bde5be02d9cfU, 0xbd6ff1e23ca63186U, 0xbe2820433d35378fU,
  0xbda0a2da3e8d7862U, 0x3e31e98b3dbf3441U, 0xbe37716abe4370f1U, 0x3e98d6703e344e5eU,
  0x3e437f8ebd97e60dU, 0x3d9b74f7bde2a464U, 0x3e01c8b73acd9ab3U, 0xbcebed52bc08065fU,
  0x3e0b8aeebe89dc30U, 0xbd9b4a733dfd6067U, 0xbeb651343d861bd3U, 0x3ccb3f473d304d79U,
  0x3bb77b77bb89920eU, 0x3d18fa9b3e7161b5U, 0xbe8155323e635980U, 0x3bed34783d9f3ed3U,
  0x3dc24774bda2234bU, 0xbc8b46b33d7f23d2U, 0x3d6141af3d9a959cU, 0xbd49ffaf3dd0a41cU,
  0xbc9484ac3c9c24b0U, 0x3d7a65973e1606c0U, 0x3e222c75bd8622a2U, 0xbe39f4583c5a325cU,
  0xbe4efab6bdd0b27eU, 0xbc9b00a43e5352b0U, 0x3dfcf2bcbdbc8f1aU, 0xbd1df966bb5352d8U,
  0xbd7785133e137782U, 0x3db64efe3da65078U, 0x3e348197be17c68aU, 0x3dd759c63c8909b4U,
  0x3dd74d3dbd90a0c2U, 0xbe47ea703de709a9U, 0x3e744e74bda9abcfU, 0xbdbf66743cc0a179U,
  0x3df1f87b3df87fa3U, 0x3d13b5233e659e2fU, 0xbd82cf3d3e79c6fdU, 0xbe5bcece3df07999U,
  0x3e7ab0b83ccc30e0U, 0xbdb5a4723e95445fU, 0x3e3df4a73de63b82U, 0x3c037a2c3e10b63bU,
  0x3d580d813df86651U, 0x3c80ff8b3e17b1b0U, 0x3d5c8d0e3cc6d8a3U, 0x3e1a10d53d01ea76U,
  0xbdf2b83c3e65655cU, 0x3e8c3e5e3e6252b3U, 0x3d6e25553dbec7ddU, 0x3dd313bb3e26f1a1U,
  0x3e87886abd2fa35cU, 0xbe1cbca13dba845aU, 0x3da9b5cabd3dfb97U, 0xbdb48042bd36a810U,
  0x3dd824cc3dbe8412U, 0xbd0fd49abd7436f6U, 0xbe876275bd1554d7U, 0x3d80d38abe80c7f3U,
  0xbea3aafc3dbe26a4U, 0xbdc55afabe37fd20U, 0xbd32e828bdced2c7U, 0xbd16e0133d789e94U,
  0x3d847d07bd267c46U, 0xbe02886dbf16eabfU, 0xbe876baebd79de68U, 0x3d2f08eabe73d04cU,
  0xbe645c98bd841afcU, 0xbdcd49b6bed10915U, 0xbdd6928c3d95f80aU, 0x3e48bc8e3d8de69eU,
  0x3d8b735ebe19fc2aU, 0xbdff6d08be8c3cf7U, 0xbd16d5f7bc9587bdU, 0xbd1443663b3d0977U,
  0x3d858dc53d8842ffU, 0xbc17f05cbe33546aU, 0x3d5c9bda3d300ed7U, 0x3d6c5635bcb2d551U,
  0xbe8fb8423dd53406U, 0xbc285b49bcb89221U, 0xbe9e478e3cb6619dU, 0xbcc8afdfbd3dd210U,
  0xbccfd50bbf0781b1U, 0xbeb3ac34be902af6U, 0x3cbc1ed3bbb41a46U, 0xbe7d16febb1efe61U,
  0xbdfe91b1bf08c38aU, 0xbda1d448bd79671cU, 0xbe1909103df357e9U, 0xbe1b6d29bdbbbefeU,
  0xbd981a44bd81a0ecU, 0xbb2dfd0f3ea44256U, 0x3dd0dc923d5adf2bU, 0xbce9d01bbd362cfaU,
  0x3e268a41bda6ab4aU, 0xbe805b57bde5b0ecU, 0x3e2718583d1414c4U, 0xbd8094d33d59e5aaU,
  0x3d984b4b3dc53784U, 0x3d9e46fdbcdecd93U, 0x3d91b05f3e1fcb37U, 0xbe8cd1c33ba71aa6U,
  0x3e0961f53dc5a2e3U, 0xbd98255a3e0dbd34U, 0x3e5ec25f3e3ca953U, 0x3c7f6ba83e1e63d0U,
  0x3e3317433dbe74b2U, 0x3e7ad6193e161223U, 0x3d02c70b3e7529a0U, 0x3d9ec3033d43106cU,
  0x3d25429b3dc77cf2U, 0x3e57e8cb3e395f8cU, 0x3e60dd4b3e4e3880U, 0x3e0b6b693d34891bU,
  0x3e3d8844bdf0ae6fU, 0x3cccea653e8e3848U, 0x3cfe221abe0a26cbU, 0xbe400b7cbccaf07eU,
  0x3e60f402be15f266U, 0x3df86a0e3e0683ceU, 0x3db51f7a3e782f43U, 0xbd4279c83dc402a3U,
  0x3e2d77353d0734fcU, 0x3e0d2dadbcd66d8bU, 0x3e02304f3d27b5eaU, 0xbd6709bfbd679b3fU,
  0xbe0f9a27bcdfd0c0U, 0x3c4295563df442f3U, 0xbccdfb67bdbd8306U, 0xbcda699c3e0538e7U,
  0x3e1172f23de3789aU, 0x3e29a8d13e695361U, 0x3cb2cc443e6f8992U, 0x3d8293acbd30736eU,
  0x3b89b36e3d3a6ca7U, 0xbe0d85b9bdfe5b98U, 0xbd508bf63b02718dU, 0x3c7c6abfbdbc5227U,
  0x3b3714be3dfa1aacU, 0xbd8dc1efbe373c36U, 0xbdb989d73d0b05fdU, 0x3d9089ad3d8e8a5cU,
  0xbdef5f88bd7b3717U, 0xbcdf5e48bd1a2a97U, 0xbd082cd0be267200U, 0xbde07801bd277740U,
  0xbe04364dbd345cd7U, 0x3d023036be4b4fbeU, 0x3d90249cbd5a2144U, 0x3d5dc2c8bca1e343U,
  0xbd8d98e33c2c5f3cU, 0xbc78f0d23e095715U, 0x3ca359d2be30d33cU, 0x3ca4f122bd3a567eU,
  0xbd84335f3d4902b4U, 0xbdf73250bd3fe12aU, 0x3d82489fbd941d87U, 0xbd5ca2203d3056c3U,
  0xbddd25cb3cc33fe7U, 0xbcb3cbeebe05537eU, 0x3d31febd3d4f4daeU, 0xbd731ea43dd74c29U,
  0x3db43f53bc3e0dd0U, 0x3db604c03d854faeU, 0x3d968d8e3ad1f1baU, 0xbda4c41fbd118cbdU,
  0xbd9906193db9ac55U, 0xbb4ee642bd4a7329U, 0x3e25360dbe18aa28U, 0xbb8a01f5be082eefU,
  0xbd17e4dcbddfb0f7U, 0xbed95354bdd9d717U, 0x3e65ee8abdccdaffU, 0x3c00e2ff3d2a4960U,
  0x3db987bb3dacca80U, 0xbd7f8edbbd2183c6U, 0x3e2de81c3d8c8789U, 0x3acf2f743e1093baU,
  0x3e115f7e3c8f1b2cU, 0xbe29ebe1bdda0566U, 0xbd5c80fa3d4e4659U, 0xbd4ee3b03d72a2a0U,
  0xbb8b8f6b3d852499U, 0xbd2c6fd93b9acc9eU, 0x3c94b4a23c7632a3U, 0x3b3fcb57bc95cda2U,
  0x3dd3136dbd299e38U, 0x3c1aea5c3c810eacU, 0xbc697e5d3d8db7f7U, 0x3d4fb8e93dcf7c27U,
  0x3c7e5ee13d5ffdb6U, 0xbe3ec160bdc55dabU, 0xbd9922f4bd561f7aU, 0xbd048ea7be0b83a8U,
  0x3dcde39abe951f79U, 0xbde44934be1f34acU, 0xbe410808be3ca01aU, 0x3e8e68533d3085c9U,
  0xbe3b2a283ccc182dU, 0xbc151eddbd626620U, 0xbd6734f6bde20b8dU, 0x3d59ec593bdad974U,
  0x3e8aca1cbd1454caU, 0xbdb7a8debdf1b9a5U, 0xbe509eeb3db03272U, 0xbd2757b13d8aff05U,
  0x3df3d728be9a8735U, 0x3c1ffcaebd932d4fU, 0x3da98230be816e58U, 0x3ca879dbbe293c8dU,
  0xbe64c59fbe219d9bU, 0x3e0558a1be87576bU, 0xbcb29588bd855760U, 0xbdb16c7c3d7f3ec7U,
  0xbcbd4cd13d96d74aU, 0xbd7e5fd2bd1376a3U, 0x3b3aa9573e1c36eaU, 0xbdf6698f3d929086U,
  0xbe38dd483e349ba6U, 0xbe01f4e0be8d4772U, 0x3b1a6cb53d6ac9b1U, 0xbd869a16bd350edaU,
  0x3daced4f3e00f462U, 0x3d83039c3ddae87fU, 0xbcc0437d3de990cbU, 0xbcc15c88bcef3562U,
  0xbe6f14963c989a49U, 0x3dd13a03bd27b7e7U, 0xbdd69dc73e3d8f49U, 0xbd93f4373b5d9795U,
  0xbdf5e8723c45976cU, 0x3e2b5245bc3011c7U, 0xbefd8b56bd84738dU, 0xbdc31078be0b5a83U,
  0xbd51422d3de74806U, 0x3ca723623e1a433aU, 0xbcf29caabdbf6777U, 0xbe5510a43def9fd2U,
  0xbcab2d623e10c047U, 0xbba8015cbd25c4c9U, 0xbe013250bd265b43U, 0xbdb58ef13e04925aU,
  0xbe8b22e6bd202e98U, 0x3df3a3893cc7dd7eU, 0x3e1f8fcc3cb1cafcU, 0x3e8357d93d360794U,
  0x3c85f196be1c5d57U, 0xbcbbbf7fbda18e17U, 0xbce254503bb06264U, 0x3c0ff8ca3e01edabU,
  0xbeada26dbb451415U, 0x3bacaba7bda176b6U, 0xbd8bbe8a3c9e24ccU, 0x3ca7a3103c6d65c4U,
  0xbe061ceebd86c3a9U, 0x3d2df09ebc2a7de2U, 0x3d4eeecc3d616990U, 0x3e03aad03e71c366U,
  0x3df37fc73e5ff63fU, 0xbe2d8226be896fc0U, 0x3daa8b843cd5f385U, 0xbde0842f3e0e50b0U,
  0x3e66f4f7beba164aU, 0xbdd5f186bea101f7U, 0x3e9ba26e3e2c51d4U, 0xbd5b98af3dbd2061U,
  0xbdc8f567bd695ff3U, 0x3e5b0da6be7ef4baU, 0x3da2aa223c2eee6dU, 0xbc7c41ee3d48e29bU,
  0xbe0b68913c57fb37U, 0x3e1baa793d915731U, 0x3d8270323cbc9f6cU, 0x3b8aa88fbdda1475U,
  0xbdde27943d11cd82U, 0xbe6fe078be59c852U, 0x3d4017d7be84386fU, 0x3ba05ca03d835464U,
  0x3caefb21bb7e3a70U, 0x3d22d8c2bc962397U, 0xbc911a68bd810e0bU, 0xbddfe71ebd23aeb7U,
  0xbe1fcd2cbd56616aU, 0xbd42d460bc6cd35aU, 0xbd9896d9bcf0d174U, 0xbd44a54d3e1846bcU,
  0xbcb548323de86b87U, 0xbd8c3a133e076e41U, 0xbe34887cbe0b84fbU, 0xbce500d9bdc27429U,
  0xbc4fbcc43e8864e3U, 0x3e3cf3a23d9c0aa5U, 0x3df5b1f43e0addefU, 0x3cfebfe5bcb66d41U,
  0x3dd8eb3b3e1c7c56U, 0x3e085ae83ce0f3b4U, 0xbe4d4252bca4fe39U, 0x3c865e253d994436U,
  0xbd7d62ff3d99912bU, 0x3e1854dabd1e7f84U, 0x3ea354c83e82e35eU, 0xbba1e8e43d87a091U,
  0x3d2821673e149e83U, 0xbdc167793e5f5b03U, 0x3de0c3ff3d1d6758U, 0x3c4f84fb3e2147f9U,
  0x3e01ac2c3e3dedaaU, 0x3e154e22bd5e7dbbU, 0xbd0a86e73e80e5e8U, 0x3e41a7d23e0a5af9U,
  0xbda4db6e3d8a5541U, 0xbe3330b53e1e258bU, 0x3d34e7bb3d093f38U, 0xbd386b613e20d796U,
  0x3d8e2c2bbdc96ea7U, 0x3e1a4f0b3c3fdb82U, 0xbdd6f4593e160f12U, 0x3e5cc86e3d2cc246U,
  0x3e55d552be68cb74U, 0x3d457e46beed46d6U, 0xbe3eff703e03b74dU, 0xbdab2e6ebe5318b9U,
  0xbdb7df86be5d23f0U, 0xbc1d637abc39503bU, 0xbe0b10aebe1590faU, 0xbe1fdaeb3dc6b038U,
  0xbd3f4e83bcd7de9bU, 0x3d1c49b13e4a3cddU, 0xbe1724e63d91f1feU, 0x3d9e9e003cfb827bU,
  0x3c9f159d3d8c13c2U, 0xbe5652a63ce693dcU, 0x3cda8c6a3cf794f5U, 0x3d5e5dc83d9ceb3aU,
  0xbeb5adc0bd3925faU, 0xbc7d144dbd974aa8U, 0x3e2db7e6bd60809aU, 0x3c876a613e1cd4d4U,
  0x3d9e0d343dbd48ceU, 0x3e5e9e83bf363fa9U, 0x3e27b2a53da8a003U, 0xbc3212b83dffab14U,
  0xbde24fa23e53a5d0U, 0xbe32270c3dd6fe01U, 0xbea07760be1d50b3U, 0xbdc9f48a3c6870a4U,
  0xbe046eb3be4530c8U, 0x3e075376bd1aafadU, 0xbe4a01033c13d113U, 0xbe4763633dae1fb8U,
  0xbe8c9202bdbdef21U, 0xbe590821be1baaf3U, 0xbe15d9203d458ab3U, 0x3d1589be3b7a8fceU,
  0xbc46324dbe31f89eU, 0xbd4cc2b93e1b02beU, 0xbdcd8783bdeb0eb9U, 0xbe717cb53d86a35fU,
  0x3e08cd42be0609d8U, 0x3e34bf233e5da315U, 0x3d6086c2bdb99a8fU, 0xbbdfd27d3e32ebd6U,
  0xbe71047abdfbcf6fU, 0x3e10223dbe0bb412U, 0x3d76b53cbe85142aU, 0xbdb922a43d8613d5U,
  0xbf01c83e3d5bda08U, 0xbd55b633be07f637U, 0xbe01c9c53cc6b886U, 0x3caa5b513e87de83U,
  0xbce26455bdc02ef5U, 0x3d6dca333ddd687bU, 0x3e04e7aabe65bdfaU, 0xbe1769ccbc68a725U,
  0x3dca261fbe0172b4U, 0xbe035dd9be93913eU, 0xbe53a0edbc9bdcb4U, 0xbe8eda06bdb91eedU,
  0xbea8e94dbce0e99eU, 0xbf097cda3e4c75f0U, 0x3d83cab1be60cdd6U, 0xbe5b4b293d94ff26U,
  0x3cc7f002be89381fU, 0x3d834420be4334d3U, 0xbe2f58b3bdd1367dU, 0xbe1a5facbca05711U,
  0xbd4904ecbdcd30e4U, 0x3da175e0bd329f97U, 0x3df413c03e1178a8U, 0x3ea7a190bc609edaU,
  0x3e505208bda9f540U, 0xbe986a343d9f55e1U, 0xbe8503413cfa1614U, 0xbd4446ba3dfd96b0U,
  0x3c37c4c1bd907c64U, 0x3ddcbd7f3e8fda70U, 0x3ca9d39e3d25e0e4U, 0xbd73eaba3dcf6647U,
  0x3e9be8583e23ed9fU, 0x3e9e8548bd8ba3b9U, 0xbddfa2cb3df20d2dU, 0x3e54f5cc3d889187U,
  0x3e1c5252be8e2f7bU, 0x3e2247c03e0fcc52U, 0x3d255e03bd8d4bbcU, 0x3e1904143e2b332cU,
  0x3eb971373e2fc3b8U, 0x3d0f25fd3e1f8365U, 0xbddc25acbe6f0cacU, 0x3deb726a3e5b432dU,
  0x3ec3dc08bd75b2d9U, 0x3e31df893e387fffU, 0x3e2640a1bded9fd5U, 0x3bf853743daa4611U,
  0xbe1440983e234df5U, 0x3d8bcd093df29eb2U, 0xbd1da174be22b6dcU, 0x3e4a10e13e40f70bU,
  0x3e69c999bca0e14eU, 0xbe0f44a33bde2a98U, 0xbd23a6f4be95ad4eU, 0xbd9998db3d03158cU,
  0xbe6ef4103e2abb0cU, 0xbe05c8ed3d140249U, 0xbc876938bcf191ceU, 0x3d8dfc0cbddbf06aU,
  0xbe6d8f1a3dc239b2U, 0x3c8f2346be32fd57U, 0xbdd765fabd707803U, 0xbe85af333cecaa83U,
  0x3dfe1ee4be131ffdU, 0x3d2ab788bec91e78U, 0x3d93e441be9c511aU, 0xbe127eb0bdc9129eU,
  0xbe9fd4f03cc08e71U, 0xbe2733d5bda758feU, 0x3e5e3f493c4c6c7eU, 0x3ddc564cbd33e88aU,
  0x3d119403bd93dfd6U, 0x3c0af5ae3d0d17fcU, 0x3e45b22fbe11fb10U, 0xbdc98a58bca8b8f1U,
  0x3e95e7d73d9b2e37U, 0xbd2cc8b93e2d4bc8U, 0xbdb7af163c092226U, 0x3db191713dc010c9U,
  0x3d84d6403da47357U, 0xbe6f09de3d259ff1U, 0x3cd8e7243d3fe519U, 0x3d0282963d9d4b02U,
  0x3e22cbe73d8c977cU, 0x3de5f3853e96fac1U, 0xbc1c3ceabe0e4487U, 0xbe91b8743e063f8dU,
  0x3cee9ff23d205e15U, 0x3e36a54f3e07226bU, 0x3de386493e327afeU, 0x3e098f59bdeb858aU,
  0xbd1ca817bdfea988U, 0xbd3d75a0be848fccU, 0x3ba6dcd63cc4e507U, 0xbe0c0d62bc59ace3U,
  0x3dce968fbdb3c8aaU, 0xbcf1a663bc3a9776U, 0x3d920ca9bd9a41c5U, 0xbd8430cfbe065c16U,
  0xbe4cfb7d3d54a6edU, 0x3df10aafbe924c61U, 0x3e0473cc3d99f3bfU, 0xbd7ed4413dcbb776U,
  0x3db2972e3c97e1a9U, 0xbd4b79733e263861U, 0x3ec2e1623d8e3236U, 0x3c9b6fc6bbb7ad8aU,
  0xbc7b04613ead9badU, 0xbcc227cd3e9847fcU, 0xbcb737ca3dd898c2U, 0xbb74943e3d7a1bf0U,
  0x3cdf880a3e7d2a1fU, 0xbdc303503e40324bU, 0xbe097019bdf1cb35U, 0xbd51f7cabf151546U,
  0xbf038bf4bd9775e6U, 0xbe21371ebe57ffb4U, 0xbd42e2443e6ab1d6U, 0xbe07e83e3df5e270U,
  0x3dec4d66bd37b1baU, 0xbe5c1004be9ed87dU, 0xbdb1e0a33e13ee6fU, 0x3d2c3dce3c5907f7U,
  0xbd977afc3d8161f7U, 0xbc4b2c48bea6b9f9U, 0xbd0f1c323dad9941U, 0xbce08a103d5a7bf5U,
  0xbce7f9553e14616aU, 0xbdd26c7d3d3aa701U, 0x3d20256cbd809042U, 0xbd43d8b6bce5afc9U,
  0x3c3f92023dba8622U, 0x3d7cf6a83df0ffebU, 0x3c853c673deeb3c2U, 0x3b096ed33d7f59cdU,
  0xbd2ade61bc536553U, 0x3c8dd6bbbd30e2d0U, 0xbdc350bbbe0765b0U, 0xbd0d0313bdb34f01U,
  0xbd62ce1b3cca8c02U, 0xbc2279fabe2f1761U, 0xbe0118bf3d6dc7c2U, 0x3dbbe8773c5d78a0U,
  0xbd783da43dee34c3U, 0xbe4feca0be253fbdU, 0xbd6e1a683e00ddf7U, 0x3dd171483c4c5702U,
  0xbd234c0cbd1ef7d6U, 0xbd974270bcb958fbU, 0x3c853ea1bb80139fU, 0xbe3e135c3d01cfa1U,
  0x3d3b77ea3c9c7cc2U, 0xbe3eaf273daf6dbdU, 0xbdb123063e5f68feU, 0x3dd56cecbd4d8092U,
  0xbcad863c3e123bc6U, 0x3c6438e83dacaf3aU, 0x3d00afccbe7dbe66U, 0xbc9a54213db14751U,
  0x3d3cf0093dd484a5U, 0x3d84bd093dbf3bdaU, 0x3e86ee9d3e531eeaU, 0xbd8810073e45a609U,
  0x3e216965be1729a7U, 0x3d33e3653e373bdcU, 0x3da505af3c5fee5fU, 0xbda692993d03a1e2U,
  0xbd880bf7be406af2U, 0x3e7c440f3dfb66c4U, 0xbaaa7c7f3d4de22bU, 0xbe5ef69fbe2f322cU,
  0xbe8ff177bca4c91dU, 0xbcd1e19ebd397d5bU, 0xbdad93263db589b7U, 0x3ddb7b873da071e1U,
  0xbc878b113d9c645bU, 0xbbc46c5b3e1a0baeU, 0xbd081574bd20c8e8U, 0xbad11cb8bd83794dU,
  0xbd32e828bd033463U, 0xbdb39f7c3e08b6f2U, 0xbd7a26fcba844828U, 0x3e4441ea3d05f6d3U,
  0xbe7caca83cf137afU, 0xbde617c4beb42ae0U, 0xbe1f07263e0fc0fcU, 0x3c2e7ba7be0eca25U,
  0xbd57297ebe9098aaU, 0xbdd706673ed513bcU, 0xbe992907be2f2293U, 0xbe3ae74cbd93ca4eU,
  0xbe1ed7c1be7280c4U, 0xbf07609b3df2e239U, 0xbc3fceed3dc62b06U, 0xbed5c1d2be8ebab6U,
  0xbec08f073cd35cebU, 0xbdcc1ae4bd3a6075U, 0x3cded3d7be886816U, 0xbe6eab87be868cf0U,
  0xbe4c3e2abde181dcU, 0xbd56907fbd8649faU, 0xbea8c0603d64c215U, 0xbe18e58bbe98f1f7U,
  0xbe18a3f2bccbb2f0U, 0xbf8abf453ea0bea6U, 0xbe53093abde298b9U, 0xbe4b616fbe205c90U,
  0xbcfb74e1be562854U, 0xbe110550be648584U, 0xbdc26cc43e004833U, 0xbebef300bed35fafU,
  0xbe84fedebd803ca1U, 0xbf03ef96beb631d4U, 0xbb9f710bbeb936f9U, 0x3a97ca9ebe626c96U,
  0x3e397e4cbf105560U, 0xbe874e81be8e434eU, 0xbd93c25cbbfb94d7U, 0xbe80585d3e8be4d9U,
  0xbe6950e13da5a613U, 0x3ed64a37bed0bc26U, 0x3e00b7363cd5ffb3U, 0xbe078c85bd7d38a8U,
  0xbe0f707a3e0843a7U, 0xbe7faea63e5bb5baU, 0x3d2ce5803d0a4b6cU, 0x3d15a54d3e9f8a4aU,
  0xbed53165bf1e0756U, 0x3f4348283deb99b9U, 0x3e8fde04bec542abU, 0xbe9c3685bdeec696U,
  0xbe783efcbe91e720U, 0xbde232f7bdb6fd61U, 0x3b7670b03dd36a44U, 0x3e65efe33ea7f8b1U,
  0x3f2255a739dcefa7U, 0xbe814f0abe03cb6aU, 0x3bfeef35be3784acU, 0x3e878d82bd3a32ecU,
  0x3eaa8d37bf2b91d3U, 0x3e386961bf19199cU, 0x3ea63f9a3b926ab3U, 0xbd29cd29bd1117f9U,
  0xbd1be275bcd342eaU, 0xbe0321fcbe1f64f9U, 0xbd093d86bdcdf1bcU, 0x3efae258bd72e028U,
  0xbe195a833d72d23eU, 0xbdde3e4bbe1385faU, 0xbdbeef03be37d929U, 0xbe0892ebbe357f6fU,
  0xbb72dc40be03c183U, 0xbebef4b33e8e433bU, 0xbd8e779d3b889a9cU, 0xbeb60f50bdeefe21U,
  0xbe02cdabbc93dd61U, 0xbf080ea4bdbc4e2dU, 0xbe20e5e8be1d8ee6U, 0xbc332eab3dee9599U,
  0xbd805de23ccf0cb5U, 0xbdb94762bca769d3U, 0x3c7170f6be23843eU, 0xbed8761dbe27baa7U,
  0x3e2171a1be0a23e7U, 0x3e22583dbdb3a6a1U, 0xbd433ab3be33227bU, 0xbd79d382bd87b9ecU,
  0xbd46eeb6bd3e74e4U, 0x3de6f567be6ee4daU, 0xbf230684be57b52bU, 0x3d2a8ddcbdaef1feU,
  0x3e0d9153bd9e0f37U, 0xbe6437823e524436U, 0xbee21b79bdb15d46U, 0x3dfafccd3ddbc5bdU,
  0x3e7d56ea3e859180U, 0xbdb8e81cbdb8ee78U, 0x3de96767be028973U, 0xbe56509fbde8fc01U,
  0x3e9a9ae63cd6abc4U, 0x3d3e4708bd9fd836U, 0xbe84357ebe334ea4U, 0x3bb82338baf2ac15U,
  0xbde7fbebbd37f909U, 0x3cba4bf1be5f3422U, 0xbe5e2d85bda922e1U, 0xbe6a797dbe1489a4U,
  0xbe95f9163f183a8aU, 0x3e9855a8bd5f8234U, 0xbd92b82f3d4ab2fdU, 0xbccc529abecf56c7U,
  0x3d594311bdc2ca8aU, 0xbe5ec1e5bcf7ba93U, 0xbe749fb83d8e90a3U, 0x3d50e91ebe7bdea4U,
  0xbe85f220be6574dcU, 0x3da555e4be03c569U, 0x3e0c3eabbdbaf6fbU, 0xbe552a353e17b3f6U,
  0x3ce47eeabe9409b1U, 0x3eb8c173bdda6b14U, 0x3e27b2453e254a82U, 0xbeaf5ccebe4b2e50U,
  0x3e8e3894be22e008U, 0x3e2d34643d575786U, 0xbd4c8a28bd0da13bU, 0xbe5ac3b83da348b0U,
  0xbe213e8fbdfb7181U, 0xbdeda8dd3dd8390eU, 0xbda02ce8bd373f65U, 0x3dc76f62bdb20016U,
  0xbda56b79be719f16U, 0xbe4fa9bb3ea32423U, 0x3ed637e7be0951d4U, 0xbd2795a43e67dc52U,
  0x3d7448bdbe0563b5U, 0x3e85ede6be48ec6dU, 0x3ed85b88bdca2638U, 0xbdbdbd07bdcff968U,
  0xbe3e47b53e16bb7dU, 0x3d83796cbf093637U, 0xbe4405723e976d53U, 0x3e6eef41be4207a0U,
  0x3e8b41aebebda6fbU, 0x3e97bea43e44ff1bU, 0xbeca60c63e2f7b70U, 0x3ed97c1dbd6f62f7U,
  0x3d25d80dbebe54a5U, 0x3d95eabcbf51f7b1U, 0xbe4b726b3daa22e7U, 0xbcfdd5b3bea1f4dcU,
  0x3d9e04543eb6afe2U, 0xbf1e12983dc91b20U, 0xbf0be075bf3d1132U, 0x3d35cdbebcd4f620U,
  0xbd382ba33c98cff3U, 0x3ebe847bbc7492b3U, 0x3e11b78abe5771caU, 0xbe6c2917bec203acU,
  0xbe32de75bd3b80d6U, 0x3c6e4378be50a3f1U, 0xbcf193abbde9dfdeU, 0xbd18f66cbe58a5efU,
  0xbc9b7623be837d8eU, 0x3e1aeda23f4adb1bU, 0xbcdcb2c63dcf1ce7U, 0xbe04cad3be15a313U,
  0xbe87474fbe1bf118U, 0xbeb9550e3ebabc36U, 0xbe7e142d3e80d06fU, 0xbc3f9d56be08df25U,
  0xbdde127abae37d92U, 0xbda025863db0e19aU, 0x3eec7985be592432U, 0xbdcecef1be3ae259U,
  0x3edd551f3f039c7fU, 0xbe10c903be94cf12U, 0xbcce2fbabd359a40U, 0x3d0c6cfabe671e90U,
  0xbd8f44573c6c4c6eU, 0xbce879543db79053U, 0xbe14a990be664ef6U, 0xbe9bc0fdbe1edcb2U,
  0xbe22da1fbf05d32cU, 0x3d6c26df3c942342U, 0xbdafc1a73cbb0371U, 0x3d0620e8bdf564c9U,
  0xbe02b04dbe3f809eU, 0x3e3876a2bd5e6037U, 0x3e8752643e2daca9U, 0xbdce0dcbbd818169U,
  0x3e8c2bd7bebbe1caU, 0xbc41d81c3d9b9d49U, 0xbe05b17a3d91a929U, 0x3d5c8dd03be2200dU,
  0x3e290c71bd47018cU, 0xbe315161be289b61U, 0x3e9253543a3c9668U, 0xbd88311b3cc4a4f8U,
  0x3d136f1fbd04dfadU, 0x3bbdae783e04735aU, 0xbdd35279be6c46caU, 0xbd5ee384bdda6c59U,
  0xbb9546273e19700cU, 0xbe0f708fbea8bb25U, 0xbe4c14edbe331424U, 0x3e569c50be76122aU,
  0x3dca7cf33e2a78a7U, 0xbef408bfbdb9ab02U, 0x3df29316beb3c696U, 0xbe9ca397be874244U,
  0xbd073cefbea95046U, 0x3d94f0c0be684c4dU, 0xbcbc94143e3dd829U, 0xbed56bfbbd6272bfU,
  0xbee98201be5c2fd2U, 0x3cf461df3cc65854U, 0xbda7e961be574318U, 0xbea5fe6fbe0c70d0U,
  0xbee115bebf266cb0U, 0x3d59cf3fbd4df7daU, 0xbd34a360be8940c9U, 0x3e60ae263e51b3a8U,
  0x3c278571bcc3ba99U, 0x3d4c221ebe7b16d0U, 0x3db2fc093e2b2e47U, 0x3e13518bbe288365U,
  0x3eaf0fd93c0a0a92U, 0x3d3878b7bdc17804U, 0xbf2e3b5b3e69f14dU, 0x3e01152cbea6781eU,
  0xbcf5e5eabe676dd7U, 0x3dce16563da06554U, 0xbdd7a3143cff200cU, 0xbc144a02be22e018U,
  0xbe7507bdbf2b7941U, 0x3b8c11d2beb82352U, 0x3e1bcbacbddb53d8U, 0x3e2186893e255505U,
  0xbe6723683def17b3U, 0x3e58da73bc024072U, 0x3d904a9fbe614b1fU, 0xbeb6c7e7bd853639U,
  0xbf389ed03e54efa6U, 0xbe08f4913e80e6e6U, 0x3e54dadabdd0baaaU, 0xbdd00382bd92714aU,
  0xbd2426ce3e5d009eU, 0x3ee06fc1bd2d763cU, 0xbec6e534bf010ff8U, 0xbe93d565be55c710U,
  0xbf824155bf0e567fU, 0xbd9bb991bea1a98bU, 0x3e9258cd3d8ffa47U, 0xbe90c0193e3e5ed4U,
  0xbdfd9cc13eade906U, 0xbd2f8573bde31e40U, 0xbda854aabf5088dbU, 0x3d30c889be77c280U,
  0x3d9aa690be7d364fU, 0xbecc38a63cc56d1eU, 0x3f36fa353cbe58f1U, 0xbf0a988a3dd71fa3U,
  0xbebddfc3bd513485U, 0x3ed054d8be869d52U, 0x3e9e8c013e178da5U, 0xbdafde8abe94781aU,
  0xbf1b1b683e5de6b3U, 0x3e54cd063df630a2U, 0xbdb71e8e3d3cc262U, 0xbc920cd13f114141U,
  0xbf1f47cbbe11fb96U, 0x3d0d64c5bd365689U, 0xbdc202ea3d9c0149U, 0x3f15ce97be293466U,
  0x3dcd94f83d550880U, 0xbe981674be33ee8dU, 0x3e6453e13ea1324cU, 0xbdd0d333be0e88d3U,
  0x3e07d4183e5e4105U, 0x3df265a03d354678U, 0x3d4713ad3e0ac880U, 0xbec1b406be260521U,
  0x3df0f2c83c7ab46cU, 0xbd8c1c2e3d88267cU, 0xbe300b9f3d38439aU, 0xbc474fd43dba8b64U,
  0xbe09cbb8be9a9524U, 0x3da5ef683deb2dc6U, 0xbdc458303dc364e4U, 0xbd99b5b5bd8e2728U,
  0x3c580e4f3d1ad17cU, 0x3dc133c03e07f021U, 0xbdb65d6abeb6ab2dU, 0x3d4284ed3d247680U,
  0x3ce9b7e7beb21d00U, 0x3d5b24413d394090U, 0xbd837830be8050d1U, 0x3d8902e7bdc87008U,
  0xbf022fe7be1dde31U, 0x3c4c2f553d33f905U, 0x3e3031c23deba05bU, 0xbdc2947ebbd674d9U,
  0x3c40286abdcf9c49U, 0xbd28c4b73e4e31ebU, 0x3e13237abd08af99U, 0x3df5ac43bded5830U,
  0x3e4ada0fbeebd296U, 0xbe46dff5bdbf0ba7U, 0x3d85fd93bd035debU, 0xbeeff9483bc31f60U,
  0xbf45d2423c9f61dcU, 0x3e437e9fbde73666U, 0x3d7f00e13cfd3c03U, 0x3e0a2937be73e53cU,
  0xbf7545663de99b54U, 0x3d9c83753db22c19U, 0xbc553ca33dbd07aaU, 0xbdd4cbe3be0e0da0U,
  0xbe462f26bf55abf3U, 0xbf6c950ebca2aa2cU, 0x3d15af2a3d27dcf4U, 0x3e984797be3a9e47U,
  0xbec014dfbf0cd7c4U, 0xbe830f8f3d028b40U, 0xbe8591fcbd839b2dU, 0xbe3efc273ef36ef7U,
  0x3e9cca72be2bcd33U, 0xbd22dd02bd2ecb18U, 0xbc797db7bdf1c6d4U, 0xbee72d46be117468U,
  0xbeb2b3a4bdcbb812U, 0x3e07ef4ebec40a24U, 0xbeca0c12be782302U, 0xbe0cd67ebde1d1cfU,
  0x3b8b050dbe03cd4cU, 0xbecacfe0bd14cb74U, 0xbe3ff643be806f7eU, 0xbd7e6a50bd7d7aa2U,
  0xbeaecb3bbd599bbcU, 0x3e47e12bbe7489beU, 0xbe2c6a8c3d01ec71U, 0xbdcc74273cb838c1U,
  0xbd9fa3a0be78046aU, 0xbe420bb33c25a87bU, 0x3d836dfabc15419dU, 0x3adaefbdbe5f0a5fU,
  0x3e53e70cbe26c3b1U, 0xbee5e2ddbe8119f7U, 0x3e859dce3e921b14U, 0x3cfe71533eb442eaU,
  0x3e6267d6bdc7f9bcU, 0x3ea2c9b8be5c21d6U, 0x3de51fb93e2833cdU, 0x3e952cacbe560d85U,
  0xbe1f318fbde74945U, 0x3db1d6c83ebe0c5bU, 0x3daa42ff3eb540a0U, 0xbe0d30d8bdf06cceU,
  0x3c10a3c5be97c4cbU, 0xbd1075e4be0bbeceU, 0x3e5779e03e4cf023U, 0x3b0d5460be85c18aU,
  0xbf0ff4d0be35dd66U, 0x3d9622a8bccf9bedU, 0x360c1bbf3e72b30dU, 0xbe79e784be028c43U,
  0xbe6444babefdf9f6U, 0xbeb41c77bc8c68b0U, 0x3d6bfaf33e9b3ac9U, 0xbdf9107ebe62509cU,
  0xbe03788ebec7a057U, 0xbe9bff413cf7dcd7U, 0xbc90bf553d9581c1U, 0xbdff83d8bdfd63afU,
  0xbe1bfbedbf13a19eU, 0x3d29a89f3d476146U, 0xbdee6fe6be109570U, 0xbeafc91cbd94ac96U,
  0x3d6ad16bbe7c4743U, 0xbddcccf23d900c8dU, 0xbc536ad63e31a6e3U, 0xbb5d9783bd88f91dU,
  0xbdb4273a3d6fbf1aU, 0x3d48e2bbbd4db3e0U, 0xbe3108f9bb7ac47fU, 0xbbf0f4dabd90c3f0U,
  0x3d9ba24d3d2a7649U, 0xbea072b93bb83f9dU, 0x3d8ff5013e02596dU, 0xbd29b3ab3d522739U,
  0x3d7c859ebc0690b8U, 0x3d89fffc3e0a8c95U, 0x3de83f8a3e8db16cU, 0x3c5edecabc3f5dffU,
  0x3dde1a66bcc664f6U, 0xbd85bc7b3d85d631U, 0x3de7b1dc3d3f02ceU, 0x3ce1dfa13de101d1U,
  0x3da807973c63ed3cU, 0x3d8b34c03dc72c80U, 0xbd1f071a3d958332U, 0xbd7391d0bde14689U,
  0x3e2629b63db7cc30U, 0x3e41537e3cfed03cU, 0x3de356823b8416f3U, 0x3c5db3cbbd838248U,
  0x3bc212e73e06710dU, 0xbc9843283db37041U, 0xbc2417653e22332eU, 0x3e2cf56ebd8b8736U,
  0xbd0ce5953c8077abU, 0x3e539f213db0b23fU, 0xbd14a7da3e8473c5U, 0xbdde59b43dddbe01U,
  0x3e31d33b3e662d52U, 0xbdb47f463e3430a6U, 0x3d5413693e1b3ae5U, 0x3d7f76b6bdc5445eU,
  0x3d10f9873d9dd42dU, 0xbda1240a3e31a1fbU, 0x3d80ae6abd7fea0cU, 0xbdda2a45bd4e0864U,
  0xbd9d7c033c137f13U, 0x3e1e9364bde6c2b6U, 0xba6c9d6fbdce1694U, 0x3df510233dd30d63U,
  0x3dc8dc003e0a41d9U, 0x3d9cec603dd02c7fU, 0x3bd54a58bd9d039aU, 0x3d204a57be3c4fd8U,
  0xbda95743be59f2faU, 0xbd0d700fbd4bad72U, 0xbcf7fc52bc9bd533U, 0x3c06339c3e06f6a4U,
  0x3da1b080bb143b19U, 0xbd1417a23d3387f7U, 0xbd79eb413c8d24edU, 0xbd26ca4c3d196623U,
  0xbb24c6d73d8ee330U, 0x3d80157fbdd9587dU, 0xbd97d249bdb5c11bU, 0xbbf27bc93dca33e1U,
  0xbe222197bd549733U, 0x3cb838583c36d5fcU, 0xbe551e2e3da6fbfbU, 0xbdcf57df3d3726ebU,
  0x3d3efb743e3a710dU, 0x3e06f0023e067413U, 0x3d2c134a3e169d76U, 0x3c7fe586bb138a2fU,
  0xbdb91a88bd4addf2U, 0xbdb1156f3d32e55eU, 0xbcb0d24a3db17d90U, 0xbdc8227e3dbcdb0fU,
  0xbd5098e6bb4e15f5U, 0xbd807fdebd75bf86U, 0x3c260ef1bd7ef0afU, 0x3caafda8bc741918U,
  0x3d906ece3c71cbe9U, 0x3e12e7d23d80c6e8U, 0x3da1d1153aa5123cU, 0xbca207e9be14a84dU,
  0x3deb44193e112337U, 0x3e1396b2bca210d8U, 0xbd8990f23d56e185U, 0x3e1db87b3df9b7a5U,
  0x3d42b9953de2221eU, 0x3c8bbd76bd4c4b79U, 0x3d45d83d3d5fdcf7U, 0xbc6386643d39683aU,
  0xba0dee643d44ae56U, 0x3daa67063e2f020cU, 0xbcd88077bb820fa6U, 0xbdf10a863dd7df58U,
  0x3d7d99773d30e7d5U, 0xbe24d6ed3e06c2f3U, 0x3e2478df3e3ce801U, 0xbd64ab5b3b09f384U,
  0xbc5bde65bd121f9cU, 0xbd5c47e63e862eb1U, 0xbd893b603e1c0d94U, 0xbd81f3bf3d180f26U,
  0x3e4126b73e1b4a79U, 0x3ddb8f1f3dfc2e8cU, 0x3e0af2d43e608420U, 0x3cf60a6c3cfde909U,
  0x3e1925023e4a7626U, 0x3b9966053e6644a8U, 0x3dac74413d35d43eU, 0x3b8757443d8f8fbaU,
  0xbda278403e894114U, 0x3de268813e819458U, 0x3d5a94d63c4601eaU, 0x3d384cdc3dea8a70U,
  0x3de66f4d3e619eeaU, 0x3e69e5d53e29f7e7U, 0xbde7cd863d796e3fU, 0xbd8e2b973e1678a2U,
  0x3d050e13bc96d096U, 0x3d9c4cb53dee0fa4U, 0x3e1494e5be073ab2U, 0x3db45cfdbd1138ffU,
  0xbbb8fe4a3df5537aU, 0xbd8063323dadff4fU, 0x3d0bc842bcc02539U, 0x3d50818a3df0367eU,
  0xbe162d05bd4f2894U, 0x3c0bd7c33d31618fU, 0xbd648474bd13d161U, 0xbd2f1c663a363923U,
  0x3dc60e38bae67d6aU, 0x3dc615423ea0045fU, 0x3dbe7d383d8a6491U, 0x3dbf640f3dc434a6U,
  0x3dfe7c55bdaa9a96U, 0x3dcc0583bd049fd3U, 0xbcbbc8e9bd3e54b8U, 0xbdb394da3e06613eU,
  0x3cf659d53d0875f7U, 0x3c3eab8cbe83cfafU, 0xbcaf042dbd22f94eU, 0x3d7fdb973dd0614aU,
  0xbd696db73e34cc27U, 0xbe4a860b3cee8f11U, 0xbc97b5fe3e11216dU, 0x3d4e026fbcdc2aa1U,
  0x3dd433813e1e896dU, 0xbdbd8fc83d8feb5bU, 0xbe251a06bd33109bU, 0x3e16c8b53db6ad38U,
  0xbe127207bb94f0c2U, 0x3cfa3d37be64d7aaU, 0xbe7c7c81be3671bbU, 0x3dfff3693d7c3c64U,
  0xbc98d145be4737a2U, 0x3e3a5edbbd8fa354U, 0x3d17291f3d4ad163U, 0x3d11473a3d9db386U,
  0xbc0682c1bc29c5d6U, 0x3da18c34bda76a36U, 0x3d8cd0183e413d7bU, 0x3d66f43d3df6e889U,
  0xbe4ca693bc97b8e9U, 0xbc0b2e33bae19314U, 0x3dddec02bde096c7U, 0xbc59a6e63e20fdf5U,
  0x3db1a77f3e0c4c3eU, 0x3cbc03903da4a000U, 0xbe8229a93c8df9deU, 0xbbfbcf2a3bf49fd7U,
  0x3d9f1e82be52896aU, 0x3c496f103d0ee127U, 0x3e1793683e344e70U, 0x3d5466363d1d7795U,
  0xbe09677c3d14961bU, 0x3d8b3fbdbda80a1aU, 0x3d06d98b3d9b9f38U, 0xbe184bb6bbb02bb4U,
  0xbd473d223ddec687U, 0x3d073ef1bbf2830aU, 0x3d9cea303e389e4eU, 0xbdfb45743d118975U,
  0x3cc1a169bd16ed02U, 0xbe1034003b7b633cU, 0xbe3b9ceabe0ea123U, 0xbcf9bd9b3d86b121U,
  0xbe5d0d023d2952b1U, 0x3e30bc483e35fedcU, 0xbc01fa813d1a80b0U, 0xbdcb89e13e0c4dd7U,
  0xbe05072e3d12a3deU, 0x3e2336103d729deaU, 0xbe6aa273bd1e8a72U, 0x3ca097d1bd826161U,
  0x3acec6b63d7fd8d1U, 0xbddb0e6bbde5cdb9U, 0x3ccee37d3cc13778U, 0xbd11bbfb3d42e3eeU,
  0x3c8cd9fc3d044c94U, 0xbdb8d4a0be4065faU, 0xbd2cc09abd88cd6aU, 0xbd52e631bda27698U,
  0x3e07bf783ddfee41U, 0xbe02f2e9be377698U, 0x3dfe9c13be235e04U, 0xbdc932fa3d238a37U,
  0xbe262c3f3dab12e6U, 0xbe059550bdfad27bU, 0xbe36ab56bc3c7d3eU, 0x3cff362b3d2a40ffU,
  0xbdcfcbd93e1316c7U, 0xbe7655e4bd89c4c9U, 0x3d409de8be3b8e8aU, 0xbc1f60723dbd9b00U,
  0x3c9e9783bd15d2bfU, 0x3d3faeaabd9c6e48U, 0x3d1af6783e146ca7U, 0xbcedfcbebdb28592U,
  0xbc8bc02f3d13fdc4U, 0xbd396b68bc6a02e6U, 0x3ebbdaebbe238f88U, 0x3d6146d13c9f30dfU,
  0x3cdf06e3bc29533fU, 0x3dfc4a313d9ec1c3U, 0x3b4edc2e3e0f2a53U, 0xba9434293e2eb669U,
  0xbb8942afbd0a3ba4U, 0xbca7737f3d95be97U, 0xbddb489d3e2a8df5U, 0xbd5d64a73d9f97f8U,
  0xbe0f37d13d0ecdb3U, 0xbd5221353d6cec25U, 0x3e033dc63bff746fU, 0x3dc6c8a3bb8b889bU,
  0xbd37b8333c06e9e1U, 0xbe212f11bc8bac73U, 0x3d388948bd8741dcU, 0xbdcbce6b3d174071U,
  0x3e80b6163dc6ffc9U, 0x3cefba5f3de0460cU, 0x3dccf580bc95032aU, 0xbccd4b76bd8dc273U,
  0x3dd09684bd944d16U, 0xbdeda93c3dbecab2U, 0xbcf72d50bd534e1aU, 0xbe20254a3cdc32f6U,
  0xbdac67cbbe4a10e6U, 0xbe59201e3e2424feU, 0x3dcc93c4bdcc72cbU, 0xbb25af6b3da0b94bU,
  0xbdf55761bd9b5217U, 0x3e6cbaafbd63e1cfU, 0x3d44e7e83e5bb17cU, 0x3db2efa03d93dea8U,
  0xbce56569bd66a4f9U, 0xbdb7c3923d21abb3U, 0xbddb8d793dd05ad0U, 0x3db9476f3ce71c84U,
  0x3e2a6bf6be0a72f6U, 0xbe8a1015be6831f1U, 0x3caada36be5c2fdfU, 0x3d7581203d9a7d09U,
  0xbd7565bf3d81d79bU, 0x3da0ac41bdb38b9fU, 0x3d5e61c53e152b32U, 0xbd7e2327bdc0554cU,
  0xbe783ffd3cf79adeU, 0xbe79e68b3cf95fe6U, 0xbd807397be0e1634U, 0x3d188e413c460355U,
  0xbdfbe241bcf6c062U, 0xbcd32f183e2c2a91U, 0xbee398913da8a56cU, 0x3e0259f7be2139a8U,
  0x3e1bbcbd3d25de5eU, 0xbd514ac2bdfce564U, 0xbd55d932be79052dU, 0xbe033cfe3d4af29bU,
  0x3c82a6be3cfd4571U, 0xbd1b8b72bde8e7f0U, 0xbd4306b3bdce3d0fU, 0x3e54fd973c2de903U,
  0x3e7fe5f53c96ea01U, 0xbac99729be5a34d8U, 0x3b101a34bdc05bb5U, 0xbcf65e483d644277U,
  0x3de750593e814d48U, 0x3d089d04bd209c56U, 0xbea686203e1b53ceU, 0x3e62b8663d9b98abU,
  0x3dde95f23e494490U, 0x3cf03082be388882U, 0xbe31cf2c3db4e5f1U, 0xbe31db393de9b58aU,
  0xbdc29ee23e0bfe8cU, 0x3e0faae83d912336U, 0x3e8d47a33e4b7dc3U, 0x3d1c8a6f3e0c42b9U,
  0x3e01ed513df80b28U, 0x3b2749babdf9e44fU, 0xbcd673b2bcc2235cU, 0xbded6e773d49b247U,
  0xbeb110f6bda2e9fdU, 0xbde2b0ec3df0e2b1U, 0x3dbde00c3dfa3120U, 0xbdde8865bdce1463U,
  0x3dcc7ad73da5bd10U, 0xbda2c6fc3c985bddU, 0x3e01dbbd3e1ab89dU, 0xbe1bc22b3e06047bU,
  0xbe4eae8ebd300625U, 0x3d994b57be5a5364U, 0x3cf1a0c4be4bbe95U, 0xbb4ee4edbe6cf756U,
  0xbf08aefcbd828e92U, 0xbe0b70783d7663efU, 0x3dabd7323df76224U, 0xbd47c8363d4d02f6U,
  0x3c99a094bd763b4bU, 0xbcfd6463be136cc3U, 0xbe9b0a053d65ae4aU, 0x3b896039be55c739U,
  0xbeb385c4bd3d86b3U, 0xbd9ac993bd3c5356U, 0xbcbea0fcbddd5114U, 0xbce1487e3dd6b5e9U,
  0xbd8069ad3cd45f48U, 0x3e22baf93e01dcb1U, 0xbe503ddcbe870fc5U, 0x3d56b940bd9e907aU,
  0xbe3aa2da3d843bd6U, 0xbe28c79ebe20b84fU, 0xbd553137bd925c43U, 0x3e7081433df9b2e5U,
  0xbdd53be83d1ea16bU, 0xbe1cf387be3fef87U, 0x3d170dc9be13ac99U, 0xbd762957bdf01872U,
  0xbe03b4a6be6bbb13U, 0x3d098735be0e1f04U, 0x3e4f450f3dccd6dcU, 0x3c1e5fdf3dd41c52U,
  0x3eaeb33ebe158dcbU, 0xbca886513d39243bU, 0xbd764acdbdaf14a0U, 0xbc3e4bc5ba2fbe96U,
  0xbc4adc9a3b03aaa3U, 0x3dfe99a53e20e6f5U, 0x3c41c2a73c2563e7U, 0xbcdd0bb83df18639U,
  0xbdf2b1963e37bd62U, 0xbe152e0cbd6293d4U, 0xbd9d4f7b3bc6863dU, 0x3e48fa9a3e3030b0U,
  0x3dbdaa01be12abdeU, 0x3d173d443dcb4955U, 0x3dc45f393d5925beU, 0xbedf0f903dc8661cU,
  0x3d606ddcbe07f26cU, 0x3bd479b0bde9d970U, 0xbe822458be00baf3U, 0xbe0b2410bd8ca298U,
  0xbdaa9028bcfb6238U, 0x3e3e2b7abc89ea00U, 0x3c076179bc88181aU, 0x3d98acb83e53b1d8U,
  0xbd2c03ccbd8d99c5U, 0x3cc23307be5f0f99U, 0xbd5f4e9cbc9c35b2U, 0x3c5455ecbd30ada1U,
  0xbe02c9b03cdb5647U, 0xbd07afba3e2b2855U, 0x3db43b2a3d44ad5fU, 0x3e380e0c3e34459cU,
  0xbd85aa1e3d5453c4U, 0x3d5bb2b6bdab2584U, 0xbdfe91273e5b55f3U, 0x3d8ef0113de4a8c9U,
  0x3d886001be1c13f0U, 0xbd57d3ca3de99d02U, 0x3e1501ce3d50ac8bU, 0xbe48aebd3e0b1c77U,
  0x3d9b40cfbe2a6ba2U, 0xbe27d44fbd3cac51U, 0x3db68ffa3d1a6e71U, 0xbd9094ba3e2dfa50U,
  0x3e0869d03d9bdb7eU, 0x3e830c493d79cbf3U, 0x3d7562a83d81a105U, 0xbe39dd0f3e621f04U,
  0xbc90c00e3d99eee4U, 0x3cfb2e053d946d58U, 0xbe2f4ad7bdfdaf1bU, 0x3e2242bfbc959706U,
  0x3e035c4e3d11d9ebU, 0xbd98855cbd4e387dU, 0x3d4d07b8bd47f3f7U, 0x3d72f3b63e2f6b15U,
  0xbd68010e3acac519U, 0xbdc80b00bd9c3cfbU, 0xbc536be63ccb1c32U, 0xbd089ec93da2277aU,
  0x3d4b35983c819779U, 0xbbb3dbd9be1638ecU, 0x3bbfe9acbd389c17U, 0xbda944ba3d9d032bU,
  0x3b9b62303c5d69e5U, 0xbdbd6cb7bdab79efU, 0x3d54b4453e29b683U, 0x3d35aa373d2b52d0U,
  0xbd3c9668bdfbf879U, 0xbdde3f043c7482c0U, 0x3e19d1b13e4fbfb7U, 0xbdc143fb3e595085U,
  0x3dacfdbabd355a9bU, 0xbe06f1893da08b43U, 0xbe2980f2bde0a337U, 0xbd80404abe1dc32bU,
  0xbd3753ac3e5a2d8fU, 0x3dce4b70be169d86U, 0x3d1c4c613dd0cc2fU, 0x3e6e42523dfbb2b0U,
  0x3d91c0453e0b9c38U, 0xbdcbbb07be5fca53U, 0xbe0c3c5bbdcb33ffU, 0xbd18f29f3bc45c13U,
  0xbda1b87a3c21d410U, 0x3dc610bfbcbeae75U, 0x3d3df0f13e1f010bU, 0xbd55fa473e2c4e09U,
  0x3c9a2dd63e21b4d4U, 0x3dfd8549bd3bb6caU, 0xbe88f2433e84700aU, 0x3dab03ebbd3a1dbaU,
  0xbd3b5f1e3e438b92U, 0x3da75c63bda63832U, 0x3e36289c3e8bff42U, 0x3d19f2163e4ff28aU,
  0x3dfd85203e64a6ebU, 0x3e73c8cebe9565caU, 0xbd085e8fbddefb71U, 0x3de9f68a3b1e82d3U,
  0xbc8d7fcd3e9a02c1U, 0x3d59b1a1bcb97367U, 0xbda4485b3e8b3a59U, 0xbcda3ecc3df1f07dU,
  0x3e381eed3e9b1da9U, 0x3da5fdfdbc843f2cU, 0xbd1b38393bce4f7dU, 0x3e1f4d9abd13b03eU,
  0xbc24b9e23d3d4929U, 0xbdf82c9a3d5cd8adU, 0x3c8486e2bd31c2a5U, 0x3c13e2353e4e00c9U,
  0xbe3ad2c5bd93f7fcU, 0xbe81e6d03db761e4U, 0xbd5c0428be04e57aU, 0xbd9fc5b23d40e1bbU,
  0xbdaf30e33db07975U, 0xbc3400dd3d50d658U, 0xbdc7d2dc3c4bdcbfU, 0xbda0a6d53da2528cU,
  0xbdf0f11f3d37e00aU, 0x3e414f73bbc6a2d8U, 0x3d371dec3df73398U, 0xbb401e813d37a168U,
  0x3c8b1b71be4eb077U, 0x3e2251c33d93d61fU, 0x3e23e1ffbdd13c40U, 0x3d2fdb6d3bc68bb8U,
  0xbce9b37d3b92a176U, 0xbe08dc9b3d3f98a1U, 0x3daf7b54bdb010d7U, 0x3e03c2523cb406f4U,
  0x3d469ac03dc362c3U, 0x3ca2ee0e3dbbc286U, 0x3d9ceed93dc12ccfU, 0xbc02b7dc3d649f70U,
  0xbe3174373e3c7c91U, 0xbc8704ea3e06bca5U, 0x3dc4076dbce39affU, 0x3cd5bb68bcd71563U,
  0xbdc8b24dbda4836eU, 0x3d860cc93b8112ceU, 0xbe3584433d6b3aa9U, 0x3c8259b93d8a3205U,
  0x3d70f8bebebaadcbU, 0x3c4aefdbbdf2e6fbU, 0x3d93c8a6bc9733b3U, 0xbda74d10bdc396f9U,
  0xbdf887623dc8bd98U, 0x3ca1d40fbe1dc3e9U, 0xbddab7a93e37c6a1U, 0x3db5225abd4ff57eU,
  0xbe2294263d3e9f59U, 0xbd773dd73ccc0fe2U, 0xbca15cc8bddb2415U, 0x3e3243ffbe36a42aU,
  0x3d3cfd413e186b6eU, 0xbdded0a1bc7ae04cU, 0xbdbf3856bc9a5a86U, 0xbe17a28c3dbbf632U,
  0x3de165e63e11bb58U, 0x3e8152ebbe71839bU, 0xbdc70c63bd473456U, 0x3de8b765bdbe73d6U,
  0x3e2f82103a3e0809U, 0xbe10d5a1bdfd7057U, 0xb9c17f80bde4033eU, 0x3c8f98cc3dc69810U,
  0xbd275cb4bc0fe4e2U, 0x3da44183bc3cdfffU, 0x3e495786bbf39709U, 0x3d82813e3e3ee371U,
  0x3d1d3d043eb2e18dU, 0xbdaefee2bdefaf62U, 0x3b45955cbcc3e833U, 0x3e10dbb63dbb6bd8U,
  0x3df3be8cbe055f1cU, 0xbe2b2ff1bec60d85U, 0x3e5edc0ebdfc27ffU, 0x3de93911ba982469U,
  0x3e695707bd9cadf0U, 0xbe4d4c8bbe03b630U, 0xbd278a833b718510U, 0x3da29c4c3d8f7d05U,
  0x3df3a69c3e6ca77aU, 0xbdec1705be491ab6U, 0x3e14cb17bd3495afU, 0x3c415d423e2a34d4U,
  0x3e4cc2163d5b5c88U, 0xbe0c43f83e3d0735U, 0xbe4cdf2fbe5ab7faU, 0x3d64e0b63db70a85U,
  0x3e088c353e653496U, 0x3e58dfa4bdefec5dU, 0x3e1b06c4bd1f47d3U, 0x3d7ce76d3e329004U,
  0x3ddd49edbca1a66bU, 0x3daa554abcb2ddd3U, 0x3e2fe9373cec8923U, 0xbe0cdddfbac0bbc2U,
  0xbd53a9a83d617eebU, 0x3c94cb7b3cf05472U, 0xbcf0506fbdcb5ab4U, 0x3c20fcc03e64ea1fU,
  0xbd98f9e8bdbdbe39U, 0x3e18e30dbd078e95U, 0x3df36021bd86e912U, 0xbd0004913dce732aU,
  0xbea4eca4bea3e5f1U, 0x3e55ecfd3e305d0cU, 0x3cb61686bba03a6fU, 0xbdcd0da23dc6c5d0U,
  0xbcc88c7d3e3313fcU, 0x3c8435213e8a27dcU, 0x3e8ec7223da9de93U, 0x3e1520543d3815c5U,
  0xbd245326bc978b9fU, 0x3d93733cbd06cdd9U, 0x3d633f673d70ae5fU, 0x3dcc1f3b3d883623U,
  0x3e0c14673dad902aU, 0xbde18271bd6b797fU, 0xbd38741cbe2724fcU, 0xbda7d4653dddc259U,
  0x3d26242f3dd4bcb6U, 0x3d8bc08abd098e17U, 0x3d328b563e2aaf75U, 0xbc4a3cda3d272dbbU,
  0x3e01e9a13da3e603U, 0xbe3c8fa6bca19f22U, 0x3d020662bd841927U, 0xbe04d28dbd26dd2eU,
  0x3d8930f9bd6f1d0aU, 0x3e7d98a1bd370660U, 0x3ce4663bbe554e1dU, 0xbd3f825a3dacaefeU,
  0xbdd4d56cbd3b7e5fU, 0xbe571bb83d033f07U, 0x3ed54647be4027abU, 0x3de895373da107cdU,
  0x3cd45fcfbee05162U, 0x3d00de3bbe96885dU, 0x3e413a23bdaf252bU, 0x3dd8806e3e2544fcU,
  0x3d90cf0b3d020365U, 0x3e32a8883cc8a00fU, 0xbd22e259be15b609U, 0xbe2107253d499092U,
  0xbe169512bbad3237U, 0x3db756f7bcc529adU, 0x3dbc11fbbd86bd52U, 0x3e2abee5bda27eacU,
  0x3e791d40bde742f6U, 0xbc8ab773be544229U, 0x3dbddb613e31030cU, 0xbb8c3ecbba86b32fU,
  0x3c9e20b53b97e5fdU, 0xbe387e6d3dd48f04U, 0x3eb1cc333de06fd5U, 0x3cfe4d5c3dd81ea2U,
  0xbd121f213e4eb048U, 0x3e1830bbbe37ce61U, 0x3e7b27ff3e3d1dbcU, 0x3d7fc6c93cc78947U,
  0xbdc4307cbd3ca7b2U, 0xbcd865173df2858aU, 0x3e1c07b23dc40662U, 0xbde4b2683d181bb5U,
  0x3c249a253dd57aafU, 0x3e0f3f20be8ea64bU, 0x3e1d33b83e071812U, 0xbda34ceb3db99274U,
  0xbbfad5e13e0459c3U, 0xbd7cbbfabe985d98U, 0x3c4972e8bccf3a80U, 0xbdf8c5d2bd1a0001U,
  0x3e0ad5043c8cc808U, 0xbddfa584be56e0b5U, 0x3db48cf83dfb6c7fU, 0xbd345b64bdc16f30U,
  0xbe4626f83e58e3ecU, 0x3dd4f0b33dcb35a3U, 0x3e0edcd53e755893U, 0xbcf92de6bdb2a8bfU,
  0xbdaf1b923e630d6eU, 0xbe44ba2bbe8087d0U, 0x3e79824d3db1acdfU, 0xbe2e433ebcd02ce6U,
  0x3e0d3dacbc5ff803U, 0xbb0415d1bdb325a3U, 0xbe2eeaae3e9576a4U, 0xbe43ae6fbe231e71U,
  0xbd36e3c9bdba82eaU, 0x3d2673423c8b3d3dU, 0xbd082baebc0deac3U, 0xbc8b6fcb3cc82070U,
  0x3d814d0cbe80a642U, 0x3dfa4ab03e3460a7U, 0xbde1585cbdad1968U, 0xbd478cb1be46b7f3U,
  0x3df491473e4fa9eaU, 0xbd582470bdef512eU, 0xbdad7f96bd48d7efU, 0x3c35d6703dcd09a5U,
  0x3d3dd14bbdfc2601U, 0x3e0083273dfd1a5cU, 0x3de5c8efbeefaf09U, 0x3d78c3563d4078bbU,
  0xbd6e33563be2d9f7U, 0x3d46d61cbdb80d38U, 0x3de471173cc6fef9U, 0xbe77b9ec3b62e475U,
  0x3bcb2fef3d40e962U, 0xbc9474213c82cf47U, 0xbe7d190e3bccda52U, 0xbd4d0c0c3cba1eddU,
  0x3d40234f3d4f47a9U, 0x3e313debbda13783U, 0x3be13bfabd0215e4U, 0xbd5465ce3de23bdaU,
  0xbee6a4f8bba3a6caU, 0xbd86938bbda64e8eU, 0x3dace7833d9ee508U, 0xbd17dc41bd4c35e8U,
  0xbe638d13be0c3526U, 0xbc93a6efbf1cbb2cU, 0xbe26a88fbe7266c8U, 0x3d9a6944bc270837U,
  0xbdaf3f3bbe2d90e9U, 0xbd6c2179be949af8U, 0x3c4b775f3c17fd5eU, 0xbda064d6be0d34f7U,
  0xbea48f4dbc15809aU, 0x3dd5d8d63e06709dU, 0x3e78bf82be46eeb4U, 0xbdab805fbd43a893U,
  0xbd91bff53d1cb4ebU, 0xbe5fcc39bd08dd13U, 0x3cfa4da4be3a616cU, 0xbc24d2b03ab8412eU,
  0x3cc4aa473e331a16U, 0xbc65d2b4bdd4ab4bU, 0x3ea96fca3cf78232U, 0x3eaddb043bc37f02U,
  0xbded0dbd3da31b40U, 0xbcba0593bd80c9abU, 0xbded61c43e1a0f1cU, 0xbe37e927be501fd5U,
  0xbe62bd53be2d7590U, 0xbe92f1d53e06b9b4U, 0xbd706c4d3d3cf1aeU, 0xbecc62d93d6736c8U,
  0xbd14da2fbd4afb87U, 0xbe1236783c9ab357U, 0x3e07264d3c43f054U, 0xbe6d71223c05aae7U,
  0x3e2411773e8ea088U, 0x3d484bc2bbfc520fU, 0x3d3478843de9e718U, 0xbd2cfe3f39d2bc41U,
  0x3e3261b03bf6a6a1U, 0x3e50ba043af4215cU, 0xbe1bb1723e36d0c5U, 0x3d2c5b803dc4143dU,
  0x3e811eacbd048bb3U, 0x3df9a9aa3d81e3adU, 0x3c9353593e267c22U, 0x3d19a1303e05e96dU,
  0xbec2cc013d16d0afU, 0x3d97d0c5bca3228fU, 0x3eb0499f3c5f3e91U, 0x3e3c25053e23ad23U,
  0x3de5a4f1bd8250ebU, 0xbd6c790a3d0eb530U, 0xbd874395bc381e36U, 0x3c3bc8fc3d3f3dbbU,
  0xbe3f31d4bd85aa80U, 0xbe479e6abe7606edU, 0xbcf242623b3a790cU, 0xbdd93fc0be941adaU,
  0x3de45dbc3de4692eU, 0xbe66c86ebe372a96U, 0x3e61e7733cbac93aU, 0xbde9a4423c6bb039U,
  0x3e64c6b53d767413U, 0x3e5da126bdcfa34bU, 0x3db251bfbd34dcd6U, 0x3cb4cee53dc62435U,
  0xbdd1c1bbbdb3f35fU, 0xbd3b703ebcecbf1bU, 0x3bbbd3f83ddc542aU, 0x3e121b03bd0330f6U,
  0x3cfec4cf3e5b071eU, 0x3d79a6273cd16216U, 0x3d94ffbc3caec4bfU, 0x3d34845c3dd0a534U,
  0x3dff42383d57c33bU, 0x3d9753f03e6d9946U, 0xbd86526b3ea7e5a2U, 0x3dd9a22ebd054a2aU,
  0x3d942a02be054637U, 0x3de3ed043ccae442U, 0xbdd7636f3de8a7bbU, 0xbe11a2073e2d482aU,
  0x3e1e42a03e29d71cU, 0x3dc0277e3e742e70U, 0x3d6873b63ec45935U, 0xbcb05c9dba715f09U,
  0x3db06aed3ddd040fU, 0x3d6b81863dd75d80U, 0x3c5bb7e63e831befU, 0xbe11c014bd1694a7U,
  0xbe31b355be86a161U, 0x3cd71f4b3e784083U, 0x3df5ec973e866c4cU, 0x3ca12f413df0e4b6U,
  0x3f326ad2be0b5813U, 0x3da74fa03d6742efU, 0x3b925a34bcf9a251U, 0x3dd0dda03d8b6a51U,
  0x3dfddc36bd5fc39dU, 0x3cf8ca47bec105b2U, 0xbdddd4e83dc9d6e3U, 0x3bc928123e0cafcfU,
  0xbe5fb5903e865daeU, 0xbe0dee08be845871U, 0xbef421c23e5ae6a4U, 0x3cfaf6f33cd38520U,
  0xbcb079c6be516648U, 0xbe1da1743d758eb6U, 0x3e164c69bdb5ea5bU, 0x3ddb16b73cc81347U,
  0x3d202c7dbd8cf6e1U, 0x3d043a27bf13389dU, 0x3e25aa4c3d52aa1cU, 0xbe2d64cfbc4933cdU,
  0x3d98799dbd363be6U, 0xbd5ed22d3e16ce14U, 0x3db5bc7b3e30250dU, 0xbe01f4263bca1255U,
  0xbdce4abfbe7476a0U, 0x3c9212c33d82aae4U, 0xbc8109163c3659dcU, 0xbddb1d3e3c70bc6aU,
  0xbd1fe1ef3c65c083U, 0xbd7b5f37be4dbe74U, 0x3bd6eedc3d9f2c1aU, 0x3d5cbb603d092eb0U,
  0x3dd3257d3cab164aU, 0x3e7a23cbbe5580acU, 0x3de4a477bec283feU, 0xbb52997abddca00dU,
  0xbe317a3a3d9ae98aU, 0x3d41b10abcd25ec5U, 0xbdf52b8dbcf90d65U, 0x3dc94904bcaa70a3U,
  0x3d4022463ce007daU, 0x3e349fde3d113399U, 0x3d3a21783df6b092U, 0x3d3e5f233c90cbbeU,
  0x3bf30bbbbcf8d8c2U, 0x3e019ca5bd552c6cU, 0xbc54d24ebd178d65U, 0xbd9d830e3dbc7231U,
  0x3d20f8413d38d168U, 0x3d0f5fe13d32ca84U, 0x3d341902bdfb5b37U, 0xbd4bcecabdc16363U,
  0x3c27f3643d86035bU, 0x3dd0c3ae3ddec7c1U, 0x3b360ab9bcf07dd7U, 0x3c9ae6dcbb39e335U,
  0xbdccbdcd3d8da510U, 0x3cf013fe3dd7a4d0U, 0x3d35adb7bc28583eU, 0x3db3379bbe496c48U,
  0xbe2a2374be6bba7aU, 0xbe580490be1d449aU, 0xbce6d85fbc885a5eU, 0xbde397213cc206e9U,
  0x3cd8c55ebe301e49U, 0xbe478012bea9c7e5U, 0x3d6841c63e1fdefdU, 0xbe49c9313d468526U,
  0xbb9ab5fb3e225156U, 0x3c1f1685bdb7a85aU, 0x3d99dab33d768554U, 0x3e7f20343dde03ffU,
  0x3d46eae43e41fff0U, 0x3e31cd9cbc9c76adU, 0x3d804fefbe6697aaU, 0x3dcd4f29be32e671U,
  0xbe361830bcd19ac7U, 0xbdb69d69bd32b225U, 0xbdf44eb63c6d84efU, 0xbe9d51e13d3ad6b4U,
  0x3e8e0be339abd432U, 0xbe03c7e13e196dc5U, 0xbe9cdbc0be89ecb6U, 0x3bce49a4bdef9078U,
  0xbda4c2713e87eff7U, 0x3e23a5adbe2f66e0U, 0xbe3da931be881a7fU, 0xbe1b58e7bcd79032U,
  0xbdd88c0c3e6ae613U, 0xbe8cd189bd2acccfU, 0xbe39f740bc5a7ba7U, 0x3e31bae93dd4550fU,
  0x3df6df543e1f8d78U, 0xbe5e5b2fbea1efaeU, 0xbde1bfc3bbc5b779U, 0xbe193f07bb8c5a47U,
  0xbe0564d83e523aeaU, 0x3e93974abe61621fU, 0xbe06d5d1bcd80d60U, 0x3d0ac28bbd128a20U,
  0x3d1315b83cdbf5eaU, 0x3c23a58dbead2747U, 0xbe1854cabd99c322U, 0x3e9b32223e067180U,
  0x3e0f20373e6dcea3U, 0xbe626a6ebe817da2U, 0xbd44e5013dcabf7fU, 0x3d74b9babcdf68deU,
  0xbda985acbcddd05bU, 0x3d453b163e20c771U, 0xbbc7b00ebd69dbc6U, 0xbd96c0c73ce2cd17U,
  0xbc8660e53cca43ddU, 0x3d928de03d395c9bU, 0x3dcb9519bccd8233U, 0xbcbe13a23e370dd1U,
  0xbcd3958ebcbc62baU, 0x3dba75d9be1641abU, 0xbdeb03d23d67b8c7U, 0xbd4a8b14bc88358cU,
  0xbc34ea2cbd20f116U, 0x3dd62aa7bddfc6b0U, 0x3bac020a3d23ad60U, 0xbcf89cc4bd74c0aeU,
  0xbda09f203e06f2f0U, 0xbd2bbc12bc10d8c9U, 0x3d0d5a3fbde6373bU, 0x3dd9ff413d2d80f3U,
  0xbd9bd7d83d2a9845U, 0x3c6c945a3dff73f8U, 0x3df2bf14bdc4ee47U, 0xbcf747d6bcf5bbc1U,
  0x3d49f2ba3def61faU, 0x3ce37f71be221b3aU, 0x3e05301e3e623b88U, 0x3d2606573c3b9947U,
  0xbd83ceb33d36a07bU, 0xbd8952c33db83a14U, 0x3d619292bdadcfa3U, 0xbd1f748e3d5e0de7U,
  0xbd379b48bc84aac8U, 0x3df6f3a43c758dd3U, 0x3e1ce7ac3e11ab80U, 0x3d8d6f253d0dc07dU,
  0x3d95e3a2be0074ccU, 0x3d2f2c2d3dffd555U, 0x3c4665ef3da3ea59U, 0x3d69d3e0bb9966f4U,
  0x3e1809d03dd7d2b8U, 0xbc9b3f623e56251aU, 0x3c648e793e678eb3U, 0xbd845818bb4601a1U,
  0x3cfc8365bdf29ab2U, 0xbe3f556cbc1f77e8U, 0xbd4231dbbe0d2a00U, 0x3ba148a4bd0e788dU,
  0x3e016319bd8b3a6cU, 0x3b957aeabd05836dU, 0x3c98d92f3de80466U, 0xbe45e765bb844ce7U,
  0x3d99a7e73e5f1bf5U, 0xbe0d4de03c760690U, 0xbd84f30f3cabdee8U, 0x3e19c5533e26ca2eU,
  0x3ea024a23c51840aU, 0xbcc38736bb6ffbcbU, 0xbcf391fdbe0ede88U, 0x3da30183bd5e23d5U,
  0x3d898758bda78038U, 0xbd8adca8bd866a0fU, 0xbcdd1f1e3da50b04U, 0xbd2ff5383d1b5f4eU,
  0xbdb23e53bc900843U, 0x3da611b6be2b727dU, 0xbd7667fc3d175aa8U, 0x3d0645c53d14ae72U,
  0xbb9a93a43da75b25U, 0xbdce2fb43d053c3dU, 0xbc8e651abaae481dU, 0x3d8fb3943d968271U,
  0x3ce50db83cd010c8U, 0x3d943d373e11087eU, 0x3dff5110bcaaeaf5U, 0xbe5285753c976c38U,
  0xbd09dd8d3d93febeU, 0x3de77a31bcab14a4U, 0xbc3594773e25733eU, 0x3e2112c73d8c5bd1U,
  0x3d2e0d68bdcc94d1U, 0x3c930771bd98a511U, 0x3e1b87d4bd3ab017U, 0x3ca568e33da4df2aU,
  0x3e84c1ae3d559a3dU, 0x3dd421babea5da89U, 0xbe313b253d387a97U, 0xbdc08a64bd609eddU,
  0xbda7b2083d5ebe19U, 0xbd1dc5e73dbb01d6U, 0xbd3b1ba4bcbc2255U, 0x3db1e5a13e10a166U,
  0xbd4b85a03debf62aU, 0xbda356eb3dbc95a8U, 0xbc599ab73e20d9c5U, 0x3e2af2993d5d6532U,
  0x3dd15029bcc35745U, 0x3d2a94a2bd880e2fU, 0xbd9e9c6bbe0d59b6U, 0xbda0e9183daf068dU,
  0x3eb876e43e82e865U, 0x3d952b5c3d982d62U, 0xbd10bcaf3e2a60c2U, 0x3dc0e1e83de3a77cU,
  0x3e8c2ce53daa7258U, 0x3c8d9f8e3ce7a9c8U, 0x3dd003a6bcbe9395U, 0xbd386e69bc47453eU,
  0xbe01202ebd1f5e22U, 0xbe11711e3c98f3a1U, 0x3e254a64bd419e9dU, 0x3d8f88be3db0ae48U,
  0x3d4cf4c53e891202U, 0x3d5328153d3a1402U, 0xbdcb7fc23d2b9895U, 0xbcd140013c904d2fU,
  0xbd30c8bfbdab97feU, 0xbeb66503bd179e69U, 0x3de722043e1de46cU, 0xbbe5bebabd884101U,
  0xbd893710be147603U, 0xbd090b80bb8e46faU, 0xbde5a593be20588aU, 0x3d2ed5be3d83d25aU,
  0x3da8e2983e40eaf1U, 0xbe16401b3c9ee03bU, 0xbe0fecdbbe5d4c24U, 0xbe1d490dbe686268U,
  0xbe0f3066be1528d1U, 0xbd359f783d5feb7dU, 0xbca297d73e39847bU, 0x3d963a63bd82ccc2U,
  0xbdf290c9bc4b3b79U, 0x3e2cf77bbc161562U, 0x3bd17e90be05fe7dU, 0x39afc1ec3b83d70fU,
  0xbd3ef8a6bea9867eU, 0x3c8e8a86bd0bac03U, 0x3dade7b93d639806U, 0xbc0da4373d01aabcU,
  0x3ca8fa253d8a94f4U, 0xbe7f7bc83e4d3c52U, 0x3e1e3ffe3e81c46eU, 0xbc9948683d18f4ccU,
  0x3d42fd6a3e3635f2U, 0x3d6a6e013df4c958U, 0x3d667b1bbd96bd23U, 0x3e25148c3df1572cU,
  0xbd592887be44749eU, 0xbdfc5be2bd8703e8U, 0x3d3157b03d925906U, 0xbd293b50bdf69c66U,
  0x3d88262ebce92521U, 0xbe810f293cdc7f8fU, 0x3e216a213d84ce9dU, 0xbdd227963d97376cU,
  0xbba734a5be3e2001U, 0x3d91b3c5bea2c4c1U, 0x3c3507de3d31c0beU, 0xbcf782b6bcf6643cU,
  0x3e3ba7c93df85dc1U, 0xbd2b0c8bbe3c909fU, 0xbe238c093e55ff1aU, 0xbe0037123cec0777U,
  0x3dd0dba43df516adU, 0x3c65c5b23ddf5977U, 0xbdd4962d3d83a8efU, 0xbd588815bd12b024U,
  0x3d1fce66bc9fcd6cU, 0xbb172e8ebd868ae4U, 0xbd6e64acbae6267fU, 0x3d261ce73bad1ebeU,
  0x3dd3a5463de6c0e7U, 0x3a2d92acbe4f4c09U, 0xbcc3514fbd287bf6U, 0x3acb7452bd058ce1U,
  0xbe105cafbcb1851dU, 0x3e49376ebde6394aU, 0x3d5d80c03d443bfdU, 0xbe061aec3d95fda5U,
  0xbd77f9643d36a82eU, 0x3e8b3c5a3de81e70U, 0x3dc4b4aabde216c0U, 0x3da1e8ba3dd9a2e5U,
  0x3e1fcfa93ed01552U, 0xbdf93bcdbea39fb2U, 0xbceeda20be3d3062U, 0x3d6499443e1f8180U,
  0x3c6040d43e3a9585U, 0x3df7bab2bdf69f3dU, 0xbe5cd484bdab9316U, 0xbdc94d50be63606fU,
  0xbe26553ebdf0d121U, 0x3e4e5daabe42c516U, 0x3e3febe1be314d8aU, 0x3d3c133e3d914c5eU,
  0x3c38dd98bce15299U, 0xbdbc97503e6cb49fU, 0xbdbea74b3da1ae55U, 0x3d5f60203e3ca577U,
  0x3cbf8ee13dc56db2U, 0xbbaf042dbdb44ce5U, 0x3a7eb4f4bcb6352cU, 0xbdcdda343dab4e95U,
  0x3e50404f3d1ee10cU, 0x3d9236cabd5ae0daU, 0xbe4dd2593d8e6896U, 0x3c1643dabda7cacaU,
  0x3dec1c02bd3de456U, 0xbcda56f53d796ee5U, 0xbd9bfc1a3e1f8d3bU, 0xbda226643bdaadd4U,
  0x3d5b00623ded4730U, 0x3e3c797f3dc89b99U, 0xbdb32d583e6b2d70U, 0x3cba69c23e60aec5U,
  0xbdfab8c9be870767U, 0x3e3103123dbb7befU, 0xbe13db323e77fde0U, 0x3db5fdef3dee35bbU,
  0x3d3417413e84c18dU, 0x3d44a4273dbc5b8eU, 0xbde66ecfbdca388bU, 0xbce50fcc3db0a01eU,
  0xbe8eb3743dd952f6U, 0x3a8aa7eb3e0557a9U, 0x3e01e844be1e3db7U, 0x3e61beacbd521359U,
  0xbdafef7ebcb5ed5bU, 0xbe7e830d3cb677e2U, 0x3e0d9c55bd244a60U, 0xbd960025bd4df8eaU,
  0x3de685a83e45eed6U, 0x3d2104e03dd04c9dU, 0xbcd25d63be2af9e4U, 0xbe894c863ccc63dbU,
  0xbe6252693c15a461U, 0x3e09427dbcda9313U, 0xbe91c93bbec6c4b3U, 0x3cc7da893b70c589U,
  0x3ce3d5de3dfd63f0U, 0xbd130216bea623d7U, 0xbce6fb9e3d69f5bfU, 0xbdb83fb43c9ae425U,
  0x3dce785bbe35db94U, 0x3e4a436cbe73f1bfU, 0xbd55c219bddf5a1eU, 0x3da3d825be476931U,
  0x3d84615a3c80a4d4U, 0x3d7436763d826b11U, 0x3ca708b93e0a0008U, 0xbea55ce83c350bcfU,
  0x3e3b4df53d5a8c11U, 0x3e651c533dafafe9U, 0x3d717fd6be3d7e69U, 0xbd1ba848bd089710U,
  0xbe8cf5dcbd173bd5U, 0x3e8bf483bce75279U, 0xbe30aa233df4b7e5U, 0xbe2a5a8d3d70151dU,
  0x3db4a5093e3d76a0U, 0xbd86440d3d9f8958U, 0x3c8e9a2c3dde78a3U, 0x3d8b282d3e7a5b79U,
  0x3c9c5e1e3c809f73U, 0x3e1a85393d689a33U, 0xbcb9aa16bde1ceffU, 0xbe312cf03d07d7ebU,
  0x3e54a966bbd604f7U, 0x3da33cd4bcf59edaU, 0xbca4b52a3e75e7cfU, 0x3d8194ab3e303699U,
  0xbbda3fc4bda4beb7U, 0xbe0025ddbdf96a29U, 0x3e050ed8bc8d95dfU, 0x3d3909a23dcd456cU,
  0xbe437fce3e04c89aU, 0x3cc172b1bde97551U, 0xbeb65b29bd88c936U, 0x3d104c20be81f7fcU,
  0xbeab1862bd916253U, 0x3e0380b2bcf05610U, 0x3dabe8df3d9a16e2U, 0x3dfbc06bbc40b30aU,
  0xbeae392f3be2bbf8U, 0xbcd6be493cdbabfbU, 0x3e06ddb53e38b778U, 0x3d87ca26bd1bb43fU,
  0xbd5ebd93bcb70332U, 0xbd9a34e5be47a1a3U, 0xbc1dab1ebe2f2cecU, 0xbdc7922cbd2a8503U,
  0x3da243ba3e07462eU, 0x3c820931be189a9aU, 0x3e9d6df03d818a8eU, 0xbde42ee4bc99e07dU,
  0xbd647ca7bd516f84U, 0x3ddf3dbcbe2b786aU, 0x3e23d45c3dadb928U, 0xbe3164a63d834967U,
  0x3e192ef43d60135fU, 0x3daec5a63d4b5726U, 0xbe5625db3dffd30bU, 0x3d6035c43a7692f7U,
  0xbd4ad10dbe479f06U, 0x3d45e7f03d918719U, 0x3deb0d4b3e04fbfdU, 0x3e1150613df13210U,
  0x3db1239cbe59ccaaU, 0x3e032628bccdd475U, 0xbe5bd330bde834c0U, 0xbb11da933e378d74U,
  0xbd5c913c3dabd81bU, 0x3dd10dc2bd133da2U, 0xba1abc953e084cf9U, 0xbc8cd2043d7dcfd2U,
  0x3e4d61633e405b37U, 0x3c1f4a89bd945aeeU, 0xb9bc2dac3df62a44U, 0x3d8e27d73de31e97U,
  0x3e53968e3e89b687U, 0x3dc5879cbe44b6a9U, 0x3d36858ebe25b909U, 0x3d8f60233da3e662U,
  0xbdef82893e72200dU, 0x3e9292c2bba4ef58U, 0xbd4fca943ca288e4U, 0x3dc1a6a53c83f83fU,
  0x3ddc366b3e1ccff9U, 0xbe1b161cbe451e18U, 0x3dc5031e3e30c900U, 0x3ed9e9543d740c23U,
  0xbc4b2c323dfbdfd5U, 0xbe1f10dbbe3bcc85U, 0xbdf3d0523d490e52U, 0xbb5f3048bd35e631U,
  0x3d977a2c3d9b9507U, 0xbae7d6f23cc34b7cU, 0x3bd0b69fbc14304bU, 0x3e20f7e43dbaa5a1U,
  0xbb36adf73d6cff6aU, 0xbc8cf4fbbc24fc6aU, 0xbde861833d5a7cf6U, 0x3dda00163d9ce521U,
  0x3d7963d63b920f55U, 0x3dd03aae3d318ec6U, 0x3dc48aa53dc759abU, 0xbe0e8be5bd0a729bU,
  0x3e2faefb3d23735cU, 0x3e9ee0a7be77ab10U, 0x3e96c0543ab3f677U, 0xbd4354d13d27b97bU,
  0x3d6f2646bd9a32aaU, 0x3e0c63443d0d4141U, 0x3d6edb1dbd3b6c7eU, 0x3e00285bbd1ab35dU,
  0x3e112c5bbe30e125U, 0x3e5cf9553e0745a0U, 0x3e07f2f93db64225U, 0xbd9eb46c3d03aa69U,
  0x3da577e63e507316U, 0x3da80b833e80034dU, 0x3dcfe6ac3cb794edU, 0x3ea19ec33d93684dU,
  0x3e133cd33e0dc605U, 0x3d0c54963db22f43U, 0x3d1dcce03e0e85ffU, 0x39f15bf03dbad2b2U,
  0x3e162e7b3e4467c9U, 0x3e4a941ebd3ddc8eU, 0x3c9f826b3dff0060U, 0xbdd322413d1fbe73U,
  0x3d0089083e62c821U, 0x3e2a8c993c6286f2U, 0x3d0e9c253dffca74U, 0x3d90e6dcbd44bebdU,
  0xbce0e5623dcd7966U, 0xbe87db11be9575c4U, 0x3d781fb3be12c80fU, 0x3d7f37853d3aaf5aU,
  0x3dd1cc9cbdb9cd95U, 0xbdf827e8be8ff8b3U, 0xbecef3943d406045U, 0xbde494c83b8654b6U,
  0xbdd9d0403e5465ccU, 0x3d0a3e2cbe339333U, 0x3d5223793cf486deU, 0x3dd66c9d39ffd266U,
  0xbd06be693defae8bU, 0x3dc2ee51beaeab34U, 0xbe230f783ddc7096U, 0xbc07df893b8cfa76U,
  0x3da6f16cbdd749f1U, 0xbe3ea399bea69fbaU, 0x3dd72a783d352a14U, 0x3ea07d673d9467c4U,
  0x3da41a1ebd22451bU, 0xbda40f92be2bead3U, 0xbe0785ee3ddcd1dfU, 0x3d35ec483e03cfdeU,
  0x3e1735253e2b1404U, 0x3da06e38bd99f0d2U, 0x3dddee323dce28e8U, 0xbc8e5ac03ab70949U,
  0x3d4d0fe93d80cc96U, 0xba1146aabdb61b4dU, 0xbe0421bdbe868583U, 0xb986ace2bcfcc24dU,
  0x3d8e6d233e293040U, 0x3d7bc395bbc74885U, 0xbdfcd3f43c88f5bbU, 0xbde287dcbc4b6daaU,
  0x3ccaf87a3e703958U, 0x3d363cc4be2844feU, 0xbd97472fbc38b755U, 0x3d9d22633e19fdfcU,
  0x3d487a11bdaaf3b8U, 0xbb8c9573bdbc103eU, 0x3d0d3a55be0b57ceU, 0xbd902bf6bcc5dbdeU,
  0x3e3b97ec3d8a1017U, 0x3c26b440be188af6U, 0xbdf25a14bde6bc24U, 0xbd4ce1b5bd89fcccU,
  0x3db557b6bd446797U, 0xbc8335b3bd81d592U, 0x3df94f8bbd14615fU, 0x3dc9220bbd2aaeeeU,
  0xbcf8e9a2bd233f50U, 0x3dd011643d3feca1U, 0xbd6ca259bc6dc027U, 0x3d9764603dea214bU,
