/**
  ******************************************************************************
  * @file    threeline_data_params.c
  * @author  AST Embedded Analytics Research Platform
  * @date    Sun Mar  3 00:00:07 2024
  * @brief   AI Tool Automatic Code Generator for Embedded NN computing
  ******************************************************************************
  * Copyright (c) 2024 STMicroelectronics.
  * All rights reserved.
  *
  * This software is licensed under terms that can be found in the LICENSE file
  * in the root directory of this software component.
  * If no LICENSE file comes with this software, it is provided AS-IS.
  ******************************************************************************
  */

#include "threeline_data_params.h"


/**  Activations Section  ****************************************************/
ai_handle g_threeline_activations_table[1 + 2] = {
  AI_HANDLE_PTR(AI_MAGIC_MARKER),
  AI_HANDLE_PTR(NULL),
  AI_HANDLE_PTR(AI_MAGIC_MARKER),
};




/**  Weights Section  ********************************************************/
AI_ALIGNED(32)
const ai_u64 s_threeline_weights_array_u64[28490] = {
  0x3c6bb19fbe5130c4U, 0xbe6db028bb811c05U, 0x3b71bb943c17c056U, 0xbdfd7660bd0345deU,
  0xbe297270be903da2U, 0x3d47bdc2bdef0c8cU, 0xbe24c782bd9a7663U, 0x3d038f3ebb972ab8U,
  0xbdff5782be069c89U, 0x3dde1dbb3e161904U, 0xbce7293d3e1b9c7fU, 0x3d3b29253e911f47U,
  0xbe4c80413d3e66d6U, 0x3e255811bd2ed4c0U, 0x3daf4d1fbd2a366aU, 0x3dace4f93ee57fd4U,
  0x3e5af723bd3c596cU, 0x3dec51e23cd362dbU, 0xbd9532aabde08661U, 0x3dafe941bce9fe31U,
  0x3e7b593d3e6750efU, 0xbe8901193d590f4eU, 0x3e4317d43d2f1977U, 0x3e09a2f9bdd01d44U,
  0xbe0678d1bdd224e7U, 0xbdcf22fdbd862dc5U, 0xbe6589ee3d13c664U, 0xbe4e5ee0be88274fU,
  0x3e4ea2723dd349b4U, 0xbe9ba1a23d7a4961U, 0xbe0e072d3e402695U, 0xbe20b49dbdc89ae8U,
  0xbbd93eebbb074a66U, 0xbe3944d93c1ef6b2U, 0x3d9c11463e891323U, 0x3deb818abe177d9dU,
  0xbdec6df0be59cac6U, 0xbd0ea41f3c286395U, 0x3c29b0c43de4f3a4U, 0xbdc7e30abe1ae09eU,
  0xbe1382553e1bacfdU, 0x3a0093403e37bb4bU, 0x3daeb5303e8a98f5U, 0x3c0426f83de438cfU,
  0x3dbd08cfbdf38157U, 0xbbcf5efa3df6309dU, 0x3ce4ac76bdb66ffbU, 0x3c97c0d03da16f06U,
  0xbdaae73b3e9b8312U, 0xbd97c1a93ebc5882U, 0x3ec488403df539dfU, 0xbe40313a3d8feb4dU,
  0x3d59f5e3bd873c63U, 0x3d7fcbc0be205f87U, 0xbcf98b683d1ad4edU, 0xbd9739263e073899U,
  0x3e291bbb3e672cceU, 0xbe9b95553d63d608U, 0xbe31cff9babf1e18U, 0xbb8cd95c3d887bf7U,
  0xbdc0ce3b3e521446U, 0x3c9f7283bd10dd94U, 0x3e4226233cc4863bU, 0xbce359d5bdd41e58U,
  0xbc6f574bbd6d6ba1U, 0xbdd0489bbda7da0cU, 0xbe3f5cef3ea4852cU, 0xbc0c496e3d9534bfU,
  0x3e167e26bdf832aaU, 0x3e97705ebd0cc8b3U, 0x3e591b91bbaf1abdU, 0xbe91ad51bc0eb15dU,
  0x3e3a9ca83e68d4c5U, 0x3dff6bac3dbcfb98U, 0xbdfe4ea4bdce4571U, 0x3cd15fa3bdfc66f0U,
  0x3e2e94803ecc3edaU, 0xbe5310cd3d40e815U, 0x3de1e0aa3d58e35bU, 0xbe526c53be24e087U,
  0xbe9dfecabc8619a5U, 0x3d9e4f7e3da1d3c0U, 0x3e542053bdc8bfffU, 0x3dbb1189bdf64f91U,
  0xbd3f1f5abd3a2e91U, 0x3ec31f153d0c3395U, 0x3d5055ad3dc103b0U, 0x3dde6e85bccfc156U,
  0xbe4880793e2b48d4U, 0x3e8137b1bda719b8U, 0x3c2cc6ddbdc2ec21U, 0x3e4d4950bd8890e3U,
  0xbcd80d873c8f6912U, 0x3b4ccbb03d2191f8U, 0x3d5b739dbdf142b7U, 0xbee2d6573dc63e5fU,
  0xbe33d1b83d187862U, 0xbd2886c63dcbddabU, 0x3e7837533d6ba9f8U, 0x3d9293fd3e652e26U,
  0xbe392ba6bdf8b798U, 0xbdeb56a9bdd0b207U, 0x3dc3e3eebd93ce8bU, 0xbced72563cbeaa24U,
  0xbeaa05abbcbf1c2eU, 0x3d583ce73e2ecd7fU, 0xbd0b9b3b3ea83636U, 0x3e10e1b1bec803b0U,
  0x3d5ea6de3e2d308eU, 0xbe77d0c73d32e845U, 0xbd80282b3de36515U, 0x3d41276b3e95ac1eU,
  0xbdce42d3bcdfc004U, 0x3d5533bd3d36af81U, 0x3daa03f9bd7fc6b5U, 0x3db76db1bcd527a3U,
  0xbdfc73b0bd1a0a2fU, 0xbe2929323d7a3108U, 0x3e56f14e3e8327a3U, 0xbe292c143e0cd6d6U,
  0xbd51f48a3c4ca926U, 0xbd50b6833d94341eU, 0x3e1bc88f3e73236dU, 0x3da99bd2bdf9033bU,
  0xbe8e62dfbe072901U, 0x3d872cb73cf6a0bbU, 0x3d387ee7bebbf5a0U, 0x3db437e93d08789cU,
  0xbd8258eb3dd9b081U, 0xbdc3ed823d905814U, 0x3e588531be1981c5U, 0xbe8a38dd3e406a0cU,
  0x3d7e49ae3d94c479U, 0xbe395c8fbec1be84U, 0x3e5336c5bd3121eeU, 0x3d2c3c16be2abbc3U,
  0x3e3f316a3dd8923cU, 0x3caa2ee03de83763U, 0xbda697b93ca5fd4aU, 0xbb4351a7be19ccc7U,
  0xbd142b62be726282U, 0xbc42c52dbdaa0317U, 0x3cee97273e43c7a0U, 0xbc8dd5e03de0a1d5U,
  0x3d53874b3d3c9c9dU, 0xbd99ab53bd10bcf9U, 0xbdd33734bd081cbeU, 0xbe519441bcb11bcbU,
  0xbe48d6f93d87b3e8U, 0xbe57d47bbe1d6e3dU, 0xbe189f53bdbecf93U, 0x3e28d4e63db326a4U,
  0xbd560f343d746c5cU, 0x3da0081d3db409e3U, 0xbe15249c3c1cb2caU, 0xbe5d0db13e90c13dU,
  0x3e2e87dcbe332899U, 0xbe58fa37be5abf85U, 0x3c66c933be463173U, 0x3da3c4a2be192a79U,
  0x3c166f01bde08f3fU, 0x3d537cb73cba629bU, 0xbdffb357be27dff9U, 0x3d358c173b6ad119U,
  0xbe24bb8c3d921abaU, 0xbe136d19be7194e1U, 0x3d48b5f73e7cc27cU, 0x3c2f0863bdd79ea4U,
  0xbe4d2386bd8bd1b1U, 0x3d26f386bd00e482U, 0x3e3713aebda7c5daU, 0xbe11b0cc3d43565fU,
  0xbe571987be0e3c46U, 0xbd330a8abec867aaU, 0x3dda931e3e1369bdU, 0x3dc1a2ec3d0470a7U,
  0x3d788b5ebe571634U, 0xbc2b36c9be0e1afdU, 0x3d3934bfbe4ea964U, 0xbe2b0c6ebd4a34d3U,
  0x3d710da13d809f4bU, 0x3ced695a3e4b6ecbU, 0x3d077772bd72c6f1U, 0x3dd0f93f3d02b1b2U,
  0x3de574863e74e699U, 0x3dc1703e3e900cc8U, 0xbc7876673e244eebU, 0x3e54bfd43dc51f56U,
  0xbb8008573cd146d9U, 0xbc89300f3d379a3cU, 0xbd509158be95b8d6U, 0x3e500b6ebd18142bU,
  0x3dac9a583e7b3024U, 0xbe24d22e3df5975cU, 0xbd2266d4bea01dcbU, 0x3d0044c4be513376U,
  0xbc5f6e053d865c9dU, 0x3d615f63beaa1befU, 0x3c9172c03e13e517U, 0x3c591997bca4f99dU,
  0xbe3c9c5a3e870493U, 0x3d41032c3e376e88U, 0xbda76e6f3ecb2516U, 0x3e51cb12bccaddc5U,
  0x3e113846be431578U, 0x3eab5ea8be00ad27U, 0x3cd203a2be91d161U, 0xbd25c5293d196b84U,
  0x3c7c7842be13ca3fU, 0xbc8265f73b5776bcU, 0xbd77c69a3d559063U, 0x3dcc7db93ed56ff5U,
  0xbd05b9183e50b245U, 0x38b03e19bdf8b0aaU, 0xbe8232e53e554876U, 0xbe4e15cfbd0b04a4U,
  0xbb926a20bd4c7c6dU, 0xbc903e67bbeb6bebU, 0xbc8049dbbd928c36U, 0xbd6a986ebd9ba1bbU,
  0xbc92846fbcd0a058U, 0xbdc22696be0c0d88U, 0xbc31f3c1bbc43f15U, 0x3c6df1b23c217a42U,
  0x3c4bdb82bca4da3eU, 0xbbaef7e53dfc412aU, 0x3e591eea3de1d722U, 0xbe81c87f3e678701U,
  0x3d19654a3df2959aU, 0xbd87f627bdf981a0U, 0xbd0ce5463e2e0188U, 0x3b11cea0bd92f67cU,
  0x3dd9f3a13bda5547U, 0x3e19aedb3e586668U, 0xbd3eb3913db75f25U, 0xbd2df7123e1a0d0bU,
  0xbd054adebe119f36U, 0xbdbdb535be83f064U, 0x3d0baacfbdc05420U, 0x3d0df6953d34678eU,
  0xbe1ee9eb3e875ca8U, 0xbd12a27abd2c8e68U, 0xbdcbcf413dd8132cU, 0x3db79e70be15116eU,
  0xbdbefb7b3da35719U, 0xbd30cdd43ecf6284U, 0x3e0432d6bca7fcc4U, 0x3e408e763e53ad9cU,
  0x3d331a0a3e12880cU, 0xbc631dfe3e0f368fU, 0x3e5fc2cabd92485aU, 0x3e1782423d40ee2bU,
  0x3d45e2c23dfd0c0bU, 0x3dd2a7d3bda0b44dU, 0x3d8ff1b33d98d980U, 0xbcf8553cbe61e4ffU,
  0x3db810853d894be8U, 0x3de69da4bcffdca2U, 0x3e29974f3ba44a5dU, 0x3d370f4bbd9d633fU,
  0x3e93b6023d1006f1U, 0x3df0da3dbde428c8U, 0x3e0b8c023d3552c2U, 0x3d9ae845bc94b062U,
  0x3ddbe8703d620890U, 0xbc80e364bebf3ed5U, 0x3e0a7ba23c7abd4fU, 0xbe8e837ebe074da8U,
  0x3d1216743e218d2dU, 0x3cbcda483e1f80f2U, 0xbe32d5543d936d6eU, 0xbd7525e5bd725508U,
  0xbe12aa043e258c35U, 0xbaeb8765bca2b47dU, 0x3d87a313bbc5a260U, 0x3d4522273d257fb8U,
  0x3da421923ecdcd8dU, 0x3cb02ca93c6f85b1U, 0xbbf16a943d62aefdU, 0xbc60b914be0ea576U,
  0xbd10af86bd5af9ddU, 0xbe4bfb9d3c1c365fU, 0x3e21308d3c9eb344U, 0xbd829d59bc8a2bdeU,
  0x3e7e16b2bec16447U, 0xbdca6f3a3ddf64faU, 0x3d8251c13d236420U, 0xbd7824fd3da6d4c4U,
  0x3e4195b23d898c27U, 0x3dbfaf783dee11abU, 0x3e05082fbd604306U, 0xbe1ccaccbc01bf09U,
  0x3ddee7313e05a4aeU, 0xbe2f68d8bdacbec5U, 0x3c55e24f3d92ac79U, 0xbb2f6f19bc75532dU,
  0xbda363703db173cdU, 0x3c70b1373e40a459U, 0xbd804feabd8ccd18U, 0x3e28774cbc9ff514U,
  0xbe4092aa3dd3cee0U, 0xbc94d5183e046896U, 0x3e32569bbdd8fa00U, 0x3e27d1953e401627U,
  0xbe40ea0c3e86262cU, 0x3e7f24b5b8df0018U, 0x3c03432cbd74d342U, 0xbd12fe5cbc860ac8U,
  0xbe1fd0153e308547U, 0xbd573cc13d9bc02fU, 0x3db724393dc1de74U, 0x3e069e063d3d146aU,
  0xbdddac40bc96452aU, 0x3ab7d4763df6ea34U, 0xbe15658fbc831abfU, 0x3c0d03ef3e93861bU,
  0xbc8fd961bd412c73U, 0x3d6406d8be1d7935U, 0xbde6600f3d6bfa75U, 0xbb2bb0403d3337e5U,
  0x3e0f6ccc3e488a70U, 0xbda3fb893df58524U, 0xbe141b183d970aafU, 0xbc8b31c13d4cbf5cU,
  0xbdfb02623d34fa32U, 0x3eb013b2bd65a066U, 0xbc5821cf395f1ff1U, 0xbb5034ce3e5406eaU,
  0x3d72cac73d7e6381U, 0x3e982de7bca28de9U, 0xbd24ee663c495212U, 0xbbe0de67bd8ecf01U,
  0xbdca4844bce2a8f9U, 0xbda6b5c43dae505fU, 0xbccec6d13e36ad55U, 0x3e40e8153e65d538U,
  0x3e4a5169bc8a5389U, 0x3c42398cbda14540U, 0x3e3db27c3c269c84U, 0xbce2fd53bed0ce02U,
  0x3ddb18853db5e55eU, 0x3cd651d1bea92793U, 0xbcb2b4643da6a66aU, 0x3dd495913cc7e65bU,
  0x3e89b9b6bdc4e3b3U, 0xbf07b4ecbe4a038fU, 0xbe179fa6bca806aeU, 0xbc9e59b7bd513bfeU,
  0xbe0a72113e09124bU, 0xbdb5f98ebcf73796U, 0xbd0b0ef33ca0e3d3U, 0xbdfc74d8bec41e0cU,
  0xbe8f5282be63018eU, 0xbca73f95be9ef81eU, 0xbd9c4bf33e1e0ce9U, 0x3e078a02be4f4e55U,
  0xbec92ecebed2ff69U, 0x3de6f1c6bdf5dde0U, 0xbef9d5473e898c59U, 0xbe5f868e3ddfcfdaU,
  0x3ec7965d3db1a2e3U, 0x3c9c49e3bc776dfaU, 0x3d1a442e3d8be68fU, 0x3e6db6a1be4aebaeU,
  0x3e30e7e5bebc8743U, 0x3d9dab463d2f5014U, 0xbdbf8d50beeb0c2fU, 0xbe827397bda4d7e8U,
  0x3d548d6dbb52e1b0U, 0xbe062ad7bdaa5677U, 0x3d36e4043e466426U, 0xbdadced63d87fc84U,
  0x3da3abde3da17266U, 0x3ddd7945be87e434U, 0xbdf534cabe5646b4U, 0x3d91dfecbe97e5f5U,
  0x3e229831bd18da74U, 0xbecc337cbdc8e4a5U, 0xba1b040cbd36feb4U, 0x3e10c37fbdaaaf4fU,
  0x3ae32dafbbafcdf9U, 0xbce910c5bde67ae5U, 0x3c4395213df076adU, 0x3c95d0b4bdc153b9U,
  0xbd9d86573e109c85U, 0xbd9178d53e0a9918U, 0xbe1df977bd49bd8aU, 0x3d60b3ff3d566202U,
  0xbd9d41ad3da25c93U, 0x3d7e8236be6a9e1fU, 0x3e0df8733d16999eU, 0x3db7cef6be342c24U,
  0x3e97e5db3dc177bfU, 0x3e512acebd12249dU, 0xbdef05a33e0a20c0U, 0xbbbf1bb53c20d41cU,
  0x3e1f14d43e88c641U, 0xbd268d05bdc6d519U, 0x3db4163f3d97f319U, 0x3d5e7ecbbda2fa7bU,
  0xbd0c88fdbdb4c257U, 0xbd2de42d3a953f1bU, 0x3e1576453a8a31ceU, 0x3ce2a982be6be9a7U,
  0xbe637711be9b8d9fU, 0x3e0e9f41bd40399eU, 0x3e8b54cdbec1d326U, 0x3aef94333ea3ef9bU,
  0xbeb15974be126ba3U, 0xbebdceabbe20a7d9U, 0x3bf296b53c5b642dU, 0xbd780602bcf311c0U,
  0xbea270e0bd7275d2U, 0xbdc7b08dbc1e3c17U, 0xbce52bc5be533456U, 0x3cb205bdbef1d9cbU,
  0xbea421d9bd63471fU, 0xbb8255953de52393U, 0x3eaa80c33ce078b7U, 0xbd0cafb33ea179dcU,
  0x3da1faf83e0ca292U, 0xbdd7a0a23d81442dU, 0x3e1b33d73e02e54dU, 0xbe7893b53c93f9dcU,
  0x3e94b6983da9f1c4U, 0x3dec8b6e3db511c6U, 0x3db925f73db1295cU, 0x3e1824233dbc5ce7U,
  0xbdbddc51bd334c37U, 0x3d481db4bdf13a75U, 0x3e8a440b3e25b754U, 0x3dc4b641bcbce27aU,
  0x3dd6de013dbbcd62U, 0xbea97947bc7803f1U, 0xbdb9835c3e5a66c1U, 0xbcacd4b33d870c75U,
  0x3e1812babd29e58cU, 0x3dc28a72be512758U, 0xbd96cdfb3e93365fU, 0x3ce6b4583e30be84U,
  0x3ec2d0333c934bfaU, 0x3cd068273d6fa2b9U, 0x3d48e39ebe91c740U, 0xbe20cf7d3dc8f5e1U,
  0xbe463ef43d1b9270U, 0xbd4e3ce6bd918a0dU, 0xbb80e6a9be0195f4U, 0x3d9bd9bd3c6a889eU,
  0x3dd168b43e8a0a86U, 0xbdbbfb253d7b6e9eU, 0xbe244a2a3e42a962U, 0xbeec12023df556c4U,
  0xbd91ae30bd823fd0U, 0x3d170d3abcc2b1adU, 0x3d4d4836be4dc3b4U, 0xbd2473403d994c1fU,
  0x3e3507b13d6b2dabU, 0xbd147d1ebe29f9d8U, 0xbde85336be29d7a5U, 0xbd2a7853bd5cca27U,
  0x3da9c0b63e88edbeU, 0x3da3b66cbe0369b7U, 0xbd7135cbbe598cd7U, 0xbb033632bdf65795U,
  0xbe5be064be834d05U, 0xbe032da7be6b14c8U, 0x3d53e4a9bc54cbc2U, 0x3b868105bdd5845aU,
  0x3cb12802be498247U, 0x3dcdc9e43c205af2U, 0xbe057432bdc74454U, 0xbe27b4203b87830fU,
  0xbda52d3d3d18390fU, 0x3eb508d93c343ea3U, 0x3e6427f13d784378U, 0xbd04747d3dbd19ccU,
  0xbe6150603da7d3ceU, 0x3df2f0bb3df9ab76U, 0x3db70a343d080f5cU, 0xbd8fd8febded5475U,
  0x3d9003d43d7d8a25U, 0x3d42ae863d86e44aU, 0x3dde215abdc046c5U, 0x3df2da4b3dff6002U,
  0xbeaaf1453c7f4ee1U, 0x3e26b778be0b9bc2U, 0xbd75789e3d9c1575U, 0xbe49b1773d81cb95U,
  0x3e0fa34f3d240617U, 0x3e719a2e3e0229b8U, 0x3d97f074bbf98fe7U, 0xbc0dc9dcbdc0a73cU,
  0xbd2850693e1ff835U, 0x3de982d3bdec2426U, 0x3d8291da3dac1e4aU, 0xbc3b2c7c3d88bfa7U,
  0x3e8d9d253dcf7469U, 0xbd69e35d3c5a8d9bU, 0x3db75c3ebe7aebf6U, 0x3ca96ef1bd99f02aU,
  0xbdfe50873de7bfbeU, 0x3bd54765be0a7870U, 0x3d5497bc3ec4d7e2U, 0xbe43dabebb6da85aU,
  0x3db724ce3dbe117dU, 0xbd8a9018bcedad91U, 0xbe140ccbba3d37aaU, 0xbec57ce03b6edaebU,
  0x3d607bd13df7293fU, 0xbed21b65bec3bf70U, 0xbd8c8748bd896971U, 0xbca07e40be56b376U,
  0xbe139345bbd9618dU, 0xbd0e1eed3da101a3U, 0x3dad6c123da537e0U, 0xbdf96fb33e197d33U,
  0xbea584213d28f1c9U, 0xbd87ee003e7953c5U, 0x3d4fcc7fbe508da7U, 0x3ca8bbbdbd451e6fU,
  0x3cf4ecc93cf7901eU, 0x3ca7bfb3bd65e8aaU, 0xbda113733db2ac1cU, 0x3ee21b1d3cacaf16U,
  0x3de0b4683d089f5aU, 0xbe037ba43e326b12U, 0xbc8cf7733dc5029fU, 0x3dc5536f3d15d854U,
  0xbd0453bfbdc5383fU, 0xbe28806b3da304d0U, 0xbd9b29babe155cd3U, 0x3e85fab53ddeacaaU,
  0xbe2f0cb2bdc5870fU, 0xbdf70619beb11143U, 0x3da06a8ebde18240U, 0x3d286f5abb3683a8U,
  0xbcabc0adbd21fcbaU, 0x3d835fb0bd7b9881U, 0xbd96b9593d4aa035U, 0xbe8460bfbe5139d4U,
  0xbdf5520abc81d52bU, 0xbe4bc0c53dfc5000U, 0x3ca94e67be6355aaU, 0xbc6af89e3df0a16bU,
  0x3b67acc6bd11eebcU, 0x3dcf3383be1e2d9eU, 0x3df01bf63d328023U, 0x3e1cab833d72df49U,
  0xbb544e073d3ec9fdU, 0x3ce60ef1bd2e1a45U, 0xbe1306d3bd8fa433U, 0x3cd09dedbd1d7fa6U,
  0x3e3da0463e338531U, 0x3e1a0b72bc9a7e7fU, 0x3d9de33cbdc26176U, 0xbd0048c6bedb1d1fU,
  0xbd919a793e901f7dU, 0x3db34880be7aa1adU, 0x3e74b72f3d058cf2U, 0xbe138e8e3bd6fd6dU,
  0xbe1d06b4bd2b99afU, 0xbe6bdec7be1d91d9U, 0x3c935f703e6d28faU, 0xbdef5eff3d0cc60cU,
  0x3d9664b93bb09dd7U, 0xbcc2ea193e46bca7U, 0xbe8a4f983e105e25U, 0xbdde879fbe5af722U,
  0x3d96e789be421ba9U, 0xbdae14dc3d9a8affU, 0x3d99d2e8bd487da9U, 0x3d5385aebdf6403fU,
  0xbeedf427bde6fa57U, 0x3d03ea0c3e46f6c8U, 0x3d939b13be1e680bU, 0xbe31d205be10ca0cU,
  0x3d267c6bbdd874f0U, 0xbd57a6bd3e837187U, 0x3e004271bd9973feU, 0x3e588cfb3e3690eeU,
  0xbdf443bfbe4c6374U, 0xbb831755b993b9b0U, 0x3e122b993daea9a6U, 0xbd6e8d68bdae4661U,
  0xbd835e1abd40dd58U, 0x3e5714c13e270ee4U, 0xbdbb21c23d9b9543U, 0x3de42b093d4c2a0fU,
  0xbdd4065dbd0c30afU, 0xbd9cbc223bbd7acaU, 0x3e3157e73c41d8cfU, 0xbc5797753e10a74cU,
  0xbe66cbdcbe426cb9U, 0x3e6418633d276ae0U, 0x3cd480be3e65c886U, 0xbe9c3273bc95fb77U,
  0x3e01dacd3d0fde3aU, 0xbe6896ec3e349fdaU, 0x3d9724e93dc6cfe7U, 0xbde211b43ccef77bU,
  0x3ced12013e3e7e35U, 0x3e36c0a9bc9d3eecU, 0xbd3bd2073de2b019U, 0xbdc6cc4bbcf1a2adU,
  0xbcd92a3f3d245184U, 0x3d000a0c3e1e2925U, 0x3e600c54bc1ab850U, 0xbc83f7dbbda96953U,
  0x3e39c095bd93c7c8U, 0x3d054c47be78c2d5U, 0x3d70c0743ddadd84U, 0x3d532664be748b12U,
  0x3db0f4ccbd32eb54U, 0x3e4a8574bd924637U, 0xbe0fc31f3e011d80U, 0x3c32be41bd9eb7c4U,
  0xbda52863bd67a9e2U, 0xbcaa2bbf3bb25ae8U, 0x3e2f1d62be378759U, 0xbdf300edbd88b3efU,
  0x3dbd4446be08f5c9U, 0xbd39aa04bd0905ecU, 0xbd8fc3393d80ba84U, 0xbe1a79cfbe925b33U,
  0xbecaebf33e5904c2U, 0xbe2aafde3cd77b72U, 0xbe6023723dac6ed2U, 0xbb07c734be782cbbU,
  0xbc85ad673e412b1eU, 0xbecb47ec3da16b94U, 0x3cef3e3fbdd4d648U, 0xbc9a8d9f3ded2716U,
  0x3e6cc031bc856313U, 0xbd67f509bde8d4c7U, 0xbda291a93e1a99c6U, 0xbe87d8b9bdeb788fU,
  0x3e54ef453e97bdb2U, 0xbd9a06e1be70f6f9U, 0xbd91bc393da4c193U, 0x3e28d5993c04cacfU,
  0xbc2fc5ce3e21efc8U, 0xbd0241e6bd5b13f4U, 0x3e40d5593e1e4e2aU, 0x3e22600fbd384fdeU,
  0xbcda90de3e6777d9U, 0x3e9ff14c3d57c96eU, 0xbe977952bc323a12U, 0xbeb02779bed2cdafU,
  0xbd981623be10507fU, 0xbf0996173d06bdc6U, 0xbce768f9be7cb285U, 0xbdde2796be59fd82U,
  0x3e18bac4be422afcU, 0xbd112ff63d8d6190U, 0xbf4fe0a23d8a79e0U, 0x3e6d1d14bedd4a36U,
  0x3d1926733d2fbaf8U, 0xbea8ec6abe33be30U, 0x3e5df53dbe1eb0d0U, 0x3d77910fbe14eaccU,
  0xbddddc62be0a519cU, 0x3bcf85aabd768a89U, 0x3d81f11abb6010d8U, 0x3e194055bcd5ce8dU,
  0xbdec94133da89118U, 0x3e02a84a3e21657eU, 0xbdc7ef60bde08529U, 0xbb64dc9a3d8e30acU,
  0x3e0c919fbdf57aa0U, 0x3e0e7f3dbe5ddd8aU, 0x3da95d643e7a8558U, 0x3cecf247bdae03a5U,
  0x3e8416213dadfbc2U, 0x3e199e5e3e2ce76cU, 0xbdf79d4b3cd3c9d7U, 0xbcd9c4963ba0b9a3U,
  0x3dbcea3d3e1991e8U, 0x3de3b403be117236U, 0x3e0a5d023c6b5fc0U, 0xbdaf9e72be067e12U,
  0x3d767054bcb88a62U, 0xbdc967ee3c5eaa7fU, 0x3c9e7bcbbe0ef9c5U, 0xbe5f0f34bd99fa5aU,
  0xbc2aa1e53d0711a9U, 0xbe3975ffbe21c349U, 0xbbfaa8ee3d80eb5aU, 0x3e0e89ac3d98864bU,
  0x3d80e9bd3d87ba52U, 0xbddb6e31bd0f1e11U, 0x3dfe97d13daf3365U, 0xbd19e28d3dba5a1bU,
  0x3cdf9168bd594aa7U, 0xbdf288d83e8d77d4U, 0x3ce6f8703de8998fU, 0x3defa309bdab2582U,
  0xbb813892be6698d3U, 0x3dd11031bd1ad3d7U, 0x3c3ae2ce3db21bf3U, 0xbe6b2a47bc1430adU,
  0xbe1467d8bd4f3f40U, 0xbe21c132bd9fe0e9U, 0xbe2338493e7e733aU, 0x3cbd9340be1463a7U,
  0xbe15293dbdb7c256U, 0x3d93da7d3da6eb22U, 0x3d82acbc3d6ca2f2U, 0xbd85c967bd3b28e8U,
  0x3e119539bd9c1f3cU, 0xbe0ae3bfbdb3ce8bU, 0xbd6969e93e3e9eabU, 0xbe0e22dbbe4c02bbU,
  0x3cd4abc63d38f949U, 0x3e18168e3c7163f4U, 0x3d2e84febe2cded6U, 0xbcef46e4bdacf590U,
  0xbecbf2b43e2cedfcU, 0xbcccccf83d6c22e2U, 0xbc76eb8f3e2c947aU, 0xbc21610e3c6f97b4U,
  0xbb8097403d2c4598U, 0xbd4c52d93dde0360U, 0x3e387ea7bdd40974U, 0x3bc198343e42d651U,
  0xbda0dd55bdcf7d7eU, 0xbe14df083df08047U, 0xbc9564be3dda7adcU, 0xbd33ccf5bcc14dabU,
  0x3d0595983da16430U, 0xbe071e6bbdf2e4a5U, 0x3dbbdce23ea0fbedU, 0x3e7f2d7cbd290968U,
  0x3c01c113bd9a9509U, 0x3e1edc003c9f8f35U, 0xbcafbcdd3d245476U, 0x3e381bad3e15893eU,
  0xbde9d250bdf19c0dU, 0x3d69c1b53def999dU, 0xbd8782dcbddfd876U, 0x3dd78931be72544eU,
  0xbe11ba8dbacd81fcU, 0x3db9909e3e3b1f82U, 0x3d2f5121be085807U, 0x3e2096ebbcc65ff0U,
  0x3dabf9683c1cd2aeU, 0xbda4127cbcab2199U, 0xbe0fb2103e5a47b6U, 0xbda36de73d1297b2U,
  0xbd519e1fbd184fc2U, 0xbe98fb11bb0d3a2dU, 0x3e177321be7035c6U, 0xbc4bf27d3e7eb9e7U,
  0xbe1a551c3d11d312U, 0x3d47221bbde4024eU, 0x3e12b2e4be0b3982U, 0xbf25fb65bd6b5264U,
  0x3befab583c0053edU, 0xbe927ca43e8a4ddcU, 0xbd9d83423e2c2c22U, 0x3b94eb033c28bdecU,
  0x3dab4f0e3d81fa55U, 0x3e4aa7d93cc45dfdU, 0xbca5c3343dd61873U, 0xbe7fc3ed3cd0e6ecU,
  0xbc83e6a13e4758b0U, 0xbda8f2a7bdf6887cU, 0xbe36765fbdbbcf06U, 0xbdccf01f3deed5f0U,
  0x3ddc8badbd2e994bU, 0xbe0118b43e358066U, 0x3b9edec43e42c464U, 0xbf06902a3e8b735aU,
  0x3d0bf7f8be542f21U, 0xbee9c6f6be9674bfU, 0x3dd011dcbe09e7f1U, 0x3e0da5d1be87084eU,
  0x3d8d5a523d89aeb2U, 0xbe4a3675be620148U, 0xbd8b4cb23d71709bU, 0xbef45646bd671af5U,
  0xbc15cc5cbe67e732U, 0xbdf268593e39bbd1U, 0xbeaa5c533e736cf1U, 0x3df8336b3db2f83bU,
  0x3b79d8c3bd67b1e1U, 0x3d5241c33ce490b0U, 0x3e6563803e53e416U, 0x3d49d1703db89142U,
  0xbd3af8eabe20b53cU, 0x3e92d1ec3d6fa2edU, 0x3ab6486dbe85024fU, 0x3d97d0cfbea1e72eU,
  0x3dd762ac3c8b994cU, 0x3db72de73e72e0c3U, 0xbdf89920bdf2cb09U, 0xbe038d4f3e6f1ed0U,
  0x3debb3453cfe2335U, 0xba9a6b983e781459U, 0xbb45462dbda6271dU, 0xbdb8ab4e3e1079a4U,
  0xbda66ccabe056c8cU, 0x3e0dc3ebbcb042a5U, 0xbc6ab810bdadd639U, 0x3e22b5c2b74a3a66U,
  0xbe2596efbdaa24d7U, 0x3d46f538bd29f1faU, 0xbd3cf122bb85d481U, 0x3e7b86ec3de56fa1U,
  0x3d8d034e3e271875U, 0xbe0937623e20c5dcU, 0xbec4816d3e4e020bU, 0x3e026a6abe9ca92aU,
  0x3eee0131bbba38e2U, 0xbd30f517bdf4550aU, 0xbdb25b73be7e1294U, 0x3df469d6be1fea4cU,
  0x3d78caf5bdbb274bU, 0x3d82e59f3e12d4f9U, 0xbe1702193e199885U, 0xbd2b067d3c59f922U,
  0xbe74ff043dea56d7U, 0xbe4bbb823d793671U, 0xbc60a8763dfa251fU, 0x3d8955823d525ee7U,
  0xbd569714bd61359eU, 0x3d076a8f3d071230U, 0xbd2e36543b426098U, 0xbd81749b3da45228U,
  0x3e6a275fbb8127b3U, 0x3dff7fa5bebaad1aU, 0xbc6fdb493e5d3d5fU, 0x3e183bf43d8de4e7U,
  0x3df095fcbda98768U, 0x3e1b5abb3bff758eU, 0x3d6627743e0d6a82U, 0x3e3324f1be32aedbU,
  0x3e14d846bdc5e083U, 0xbd0c245e3e28f18fU, 0x3e80ba54bce25b18U, 0x3d1682bb3d55e45eU,
  0xbd5fda0a3d89ec71U, 0x3ba4e86bbd4e589cU, 0xbc866a66be050de6U, 0xbd5a4f40be71e014U,
  0xbca7737d3d727167U, 0x3e355519bdd2592cU, 0x3e262a0a3d578ec2U, 0x3de0ec6f3cdf466cU,
  0x3dc7727b3dba6536U, 0xbd984174bdd0e0c8U, 0xbd28d4403dbf1c06U, 0xbdd43277bd7417ebU,
  0xbc94d54fbd5e8fd0U, 0x3e731df23d0d5b5dU, 0x3dc693c0bd9346bdU, 0x3df2781b3cf80777U,
  0x3db357fe3d516419U, 0x3de7a6e3bd576a34U, 0x39c1af713c55a871U, 0x3d363cecbcc754bfU,
  0xbcb634583df2f493U, 0x3c9b63d83d532a8dU, 0xbd4634663d9872a9U, 0xba2172fc3d93b36aU,
  0xbcfa47873dc37017U, 0xbd9ab3c8be68f76aU, 0xbd1bb6dc3d25dd2fU, 0xbe2a1343be32b223U,
  0xbc40d0b1bb077553U, 0xbc2e9971bdbcd8a7U, 0x3e3c6a1ebd14adcbU, 0x3cd5e3163bbb4954U,
  0x3dde40f4bec008d0U, 0xbdf884d7be398e5bU, 0x3e0918afbe0d2dfbU, 0x3d7c8847be41b506U,
  0xbd8099d8be8a1d94U, 0x3d210b833db5482aU, 0x3c5286b93dd88471U, 0xbca64932bd056fbfU,
  0xbd06cd38be912aabU, 0xbead1412bb139253U, 0xbcbad8f83c837339U, 0x3eac269abcb55e3fU,
  0x3df36adebdec198eU, 0x3d76a28abdbd057aU, 0xbea69c0b3d6e8f83U, 0x3e1697c93cc98763U,
  0x3d8fd6e2bd7d2183U, 0xbeacd10e3e3dda8dU, 0x3d58af13bea24b23U, 0x3d88c8453d902e74U,
  0xbe4e0b193c63ab9fU, 0x3ce8f4f8bc9cb9ffU, 0x3b9454c2bd6d7db2U, 0xbda2852ebe8acc6aU,
  0xbe8a7b7a3d63cd5dU, 0x3d6cd7adbcb544d8U, 0xbe1d98833e863746U, 0x3e41e33fbd1cbe5dU,
  0x3a0df53cbd045e3bU, 0xbd13b5823e5c6138U, 0xbd7ba0bd3d72c3a0U, 0x3dfe2e1d3e5aed5fU,
  0xbd8b6a893db923e8U, 0x3d552d233d5ab0f2U, 0x3e03908bbeaa5b05U, 0x3e02d56f3d828344U,
  0x3c4fb9b13d859caeU, 0xbd6857e0bd683628U, 0x3dbf9805be02462fU, 0xbd2ee2eebdd37791U,
  0x3d0eae1f3e32f6e9U, 0x3dced3eb3e020dfdU, 0xbdcaa3373db16c8bU, 0x3e2de05bbe4ae8eeU,
  0xbe20606cbc0c9343U, 0xbd963493bd38b20eU, 0x3dfe9d28bd38ec86U, 0x3db4ec363e41bbc9U,
  0xbd92719ebe4024c3U, 0xbc35b4edbe80e868U, 0x3c778f83bc8bb5eeU, 0xbe1cd6bf3d985f70U,
  0x3e1c64c9be0c3a6bU, 0xbddb42aebe3a8371U, 0xbe5b97c7bc5a1ef2U, 0xbdecaf953ba4e484U,
  0xbd006739bdd5f261U, 0xbd47676fbd79ade3U, 0x3d7466d8be4274d9U, 0xbc52a95cbcd8d0faU,
  0x3e157a13bdf5c55cU, 0xbd8401ffbd975740U, 0x3ce0eec83cd3054fU, 0xbddeef66bc8e4438U,
  0xbd7acf2b3dbdc756U, 0x3cec8ebfbc99dfceU, 0x3d7c14b1bda5da1aU, 0x3dd028ca3eb1baebU,
  0x3d0c74e9bb638d55U, 0x3c524c79bca5c0faU, 0xbdb61b153ce22ee3U, 0x3d20f8b3bda01eddU,
  0x3e2331073c39d811U, 0x3de288573d6341bfU, 0xbcfd00183ac8e906U, 0x3de445fcbd2e7addU,
  0x3d1b2fe43e239776U, 0x3de4bd77be8af232U, 0x3dbd0d53bd9008c9U, 0x3e1e305b3cf4b7dcU,
  0x3d01085f3d961606U, 0x3e85bdeb3e0e0c6aU, 0xbe2fa67fbe612236U, 0xbe21a9f73d0e542eU,
  0x3c8ed9fa3cf6cca0U, 0xbea1b1cf3ca46d7cU, 0x3e13b738bd02826eU, 0xbd5f25103e5dd400U,
  0xbe802b953e52d532U, 0x3c9061403e6f36b3U, 0x3e7b9f6d3e18d4f7U, 0xbdf399e03d8ccc26U,
  0xbdf605653d55c776U, 0x3e5a964dbeb7b82eU, 0x3edeb1e7be1b8c97U, 0x3e8f7b333ddf1fb3U,
  0xbe2776c83d2f6ff2U, 0x3d7635513e29f8f4U, 0x3e133f833dec0886U, 0xbc4aa204be7fd074U,
  0xbda97828bdf2a3ecU, 0xbcac361abd22dc53U, 0xbdc990b63dd3e68cU, 0x3dbad1913e7f92bfU,
  0xbe74c818bd7897a2U, 0x3cfaad32bd95fd0dU, 0x3c8e93bcbf2d7167U, 0x3c9276dfbdf46c04U,
  0xbe904386bdc9f848U, 0x3c97494e3c4f0ac9U, 0xbdfc9983bd9004c6U, 0x3ceac494be6c7c5aU,
  0xbe9040c2bec05febU, 0x3bca9f8cbdc25a28U, 0xbd689d7e3e0dcf41U, 0x3e0c26d43eb2b674U,
  0xbd4729bfbee49134U, 0x3dbb4e603e195a24U, 0x3e2e19213de6130dU, 0xbdb765803cf75490U,
  0xbda11889bd973168U, 0xbdecbb0abca5af72U, 0xbd873b36be8a9007U, 0x3e1b7a9ebd1525c6U,
  0x3e924cf0bde3b06dU, 0x3dcf92a93e1ec917U, 0xbef97146be816344U, 0xbe75758bbf0d29dcU,
  0x3d310f9cbccad807U, 0xbe0b920cbd21d589U, 0x3d229401bd20cf40U, 0x3e68e10bbd69332aU,
  0xbe4e7498bc923082U, 0x3e64f60b3dfcbffeU, 0xbdb2230a3dc2176eU, 0xbdd463ebbcb26875U,
  0xbe87f6e13cfccbfdU, 0xbe459e3fbde28649U, 0x3dcb4a2c3d33038aU, 0x3d9cb5563ca67fe1U,
  0x3e389c7d3c15ece7U, 0x3e1625d6bdbc75a2U, 0xbecca5703db81dd9U, 0xbdfd50fe3e0e0f7bU,
  0xbd74d5e0bece60c6U, 0x3cc4453fbefd954aU, 0x3d5ea0563c73dea1U, 0xbc1a53a23dca5607U,
  0x3def94b8bd24e3c9U, 0x3bf027a2bcfd47e7U, 0xbd0fee8abbfe69b0U, 0xbd95954cbe41431aU,
  0xbc85ed7bbddc4dbbU, 0xbf178ae6be11fbe5U, 0xbd9e346a3cdb5a27U, 0x3c9ffc76be5a1fc2U,
  0xbe2d9cdfbe14a02fU, 0x3e1e6115bd2637cfU, 0x3d2b6a4fbe183541U, 0x3e4234f3be2a2c90U,
  0x3e12a366be3506adU, 0xbcb56d35bdb8c9b3U, 0xbd268c8d3d50d460U, 0x3e1157123dcd805aU,
  0x3e8d88a83d15c2f3U, 0x3e1f3c2f3e36a721U, 0x3e7dfd8ebd36341fU, 0x3d165122be5fe28cU,
  0x3bedac003ca2fda6U, 0x3e4edd0b3c55df7dU, 0x3ed70bee3e0b137dU, 0xbd6581f6bd892bb0U,
  0x3df8a7243e0246baU, 0xbdf082a83dd76b00U, 0x3dcefef23dd7aa6aU, 0x3caa2e9f3d54b3c6U,
  0x3e68f00e3e58681eU, 0xbbac79dd3dc3944dU, 0xbd4be5103c0cb389U, 0xbe6da2e3bc9263cbU,
  0x3dfdac413d6038b1U, 0xbe0fa7643dbc7353U, 0xbceb8363bda70575U, 0x3c2216e13b60abe1U,
  0xbe39363a3bd93e0dU, 0xbe9548d8bd3fc1b9U, 0x3d438256be6f5080U, 0xbe969bc5bd24b2ceU,
  0x3f0651e0bd9b1152U, 0x3e7feac0be8ca97aU, 0xbdc9a9b13e67bb13U, 0x3cadb1d3bc8dd0a0U,
  0xbd84eaa8be0e3dd3U, 0xbe9387cc3c953f91U, 0x3ea93ed7be718111U, 0x3d99f6433e3a8edaU,
  0xbd8345a2bdab8524U, 0x3e1398923f07db27U, 0x3c9d4b0e3da6ca53U, 0x3dd7c70dbd3302a3U,
  0xbe9c6c3dbe04f2a1U, 0xbccacaecbc7be349U, 0x3d9296213d0f8a90U, 0xbd9c9ac73e8459c3U,
  0xbe2f337ebe2f8732U, 0xbf02abf2bd1457bfU, 0x3c8053283cecbb69U, 0x3cd10a8fbb618ebbU,
  0x3e0b2ffa3ea4b22bU, 0x3dff6a853d0364b3U, 0x3e359c46bebf4ce0U, 0xbbb2aaa7be5139c1U,
  0x3da703563e9abdf2U, 0x3c6f82243e8503a3U, 0xbe366bf7bdebb2d7U, 0x3cf59bea3d717889U,
  0xbe9c59b03d4aba9aU, 0xbd18ad3c3e389107U, 0xbdd64f8b3d4bdc28U, 0xbe14bca63e54ec28U,
  0xbea5431f3dc46613U, 0xbc5f0bce3e5aae4eU, 0x3e2b919aba0dcbecU, 0xbbb6c5833d4ccfe4U,
  0x3dddd17e3dc725d6U, 0xbd9d2d3f3d7b5ce7U, 0x3e63127fbe5732b2U, 0xbde257e13d59185bU,
  0xbec87c023c4c0873U, 0x3e1cc2243c5fea57U, 0xbd8398ac3eb58acdU, 0x3d3a4f11be271382U,
  0xbec758823c258242U, 0x3dcd55b23e325c78U, 0x3d8ac1e63da83e2aU, 0xbe615b6d3e3bd486U,
  0xbed30d83bc3b9900U, 0x3df22b4c3e435d7bU, 0x3db4c921bdc12e6fU, 0x3df934a33dc5f3fdU,
  0xbedc9c933b3381a1U, 0x3e3b0f913c1ecdd8U, 0xbd835b5e3dd9019dU, 0xbe6354fb3e4495f0U,
  0x3e4fd4cb3e35d7dcU, 0xbe2b3063be1d5b59U, 0x3e3c619b3e02521bU, 0x3e4592c23d3d1a99U,
  0xbcbe3c2d3af1b70eU, 0x3d8547753cba13f3U, 0xbdb599743b11c407U, 0xbe0a7cd13ceb2fcfU,
  0x3d8a83533e328564U, 0xbe7f6b82be7a3494U, 0x3c55245b3cb23f2dU, 0xbd71887bbd9718c8U,
  0xbee2987bbdc8c982U, 0x3cde7648bd82bf4aU, 0x3d9e0a20be126cadU, 0xbde009673ca7c556U,
  0x3e88cd4a3bb1e7efU, 0xbe85263dbcb845bdU, 0xbd0611653de6abd2U, 0xbd6e97e6bc9a28e0U,
  0xbc0982c8bd07af04U, 0x3e5cdd2fbc047344U, 0xbcaf7e003de648f3U, 0x3e9e2b9fbd9d58a9U,
  0xbe4eec77bdc46943U, 0x3e21eb183e136691U, 0x3d1311dfbdc845a6U, 0xba543c513dc55ee9U,
  0x3e31f94c3db17cf0U, 0xbc30b3d73da9a1f5U, 0xbd9018bdbd84c812U, 0x3eb63fa0be2dbca1U,
  0xbd858c38bce77c1aU, 0x3ddd6f993e3a29bbU, 0xbd102f9a3d8b22bcU, 0xbcfcc7993c99cc11U,
  0x3e1f263f3c4820c8U, 0xbd27c70c3d3f3997U, 0xbde511dd3dac794dU, 0x3d63c3313d3b8611U,
  0x3e00602cbe243943U, 0x3b76b7d23ea25ee2U, 0x3cbca0253dcebacbU, 0x3bd5bd9a3da1de6fU,
  0xbe3552d2be209b37U, 0x3def9c5cbd0ecc9eU, 0x3dc52cca3e62d6a0U, 0xbd763c70be25808fU,
  0x3e200e08bc8f8bc3U, 0xbe74d10d3d18747bU, 0xbe4780bd3d80291aU, 0xbd8652993d3ed03fU,
  0xbf067aee3cf1d4ecU, 0xbe2634aa3dab9eddU, 0xbd833c92bc47a40eU, 0xbef1b0b13ddb8a33U,
  0xbd00ce82bdb13eaeU, 0xbe8241a1be845582U, 0xbb9d1bbe3bd336e9U, 0x3e05f754be4b6f31U,
  0xbe2daf73be68c703U, 0x3d131338bdd88d89U, 0xbe5d831c3dfc3330U, 0x3e6fb963be7a9d38U,
  0xbe0ff9acbe156cb0U, 0xbdd054e03d460963U, 0xbdfa6f89bcb9e7c5U, 0x3cb0c2903cb9ea38U,
  0xbde4ff703dc92d4dU, 0x3e8da1703e45da88U, 0x3df55944be34e1f2U, 0xbd4767e03e059b6eU,
  0x3d74a20a3f011314U, 0xbe60f89bbc7257ecU, 0x3dce14e13d59e7edU, 0x3af29c81be538508U,
  0xbe1a006cbe5a0832U, 0xbddceac33d782d98U, 0xbe27fd613e8c4659U, 0x3d5edc43be1dda07U,
  0x3bd57060bdb99463U, 0xbd5d3f60bbcf73c3U, 0xbda486b73dbdaedaU, 0x3d93fe9d3ead7b88U,
  0x3dabc9f13e3630b9U, 0xbe172e393cc363beU, 0xbd0a2e74bd8f1f8cU, 0xbe57cb113e120470U,
  0xbd630ca93c9f06ceU, 0x3d9b7a503e2c1068U, 0x3e4899a3bdacbcb5U, 0x3d5ae0213c757f90U,
  0xbe8604573ded6da6U, 0x3e63466ebd2f01e4U, 0xbdcceafd3dbc78eeU, 0xbe29189dbd189720U,
  0x3db698733e7c216bU, 0xbdc5118d3e7da96bU, 0xbe1ed7083c3f5c3eU, 0x3d4fc80d3e0c7fe7U,
  0xbe4a59bbbe00a89bU, 0xbe51ee2ebaffc5e9U, 0x3d115f42bd831244U, 0xbd2c3ac33c52da1dU,
  0xbc1e4057bd49e72fU, 0xbdb91032bca57410U, 0x3c8cc36fbdfb6a5eU, 0x3afd32a9bdc34a68U,
  0xbe79d57abcb8b7b4U, 0x3cfeced1bd2c59cbU, 0xbe10b5323e29ae94U, 0xbdeeb3383dd19abaU,
  0x3d7a6890bd6e9dfdU, 0xbdefd6433e684dc4U, 0xbc0db5f5bd129508U, 0x3d2fbb39bc439abbU,
  0x3cd2c45abddcd266U, 0xbcda4d26be1b90e7U, 0x3d994d6fbd1b7abbU, 0x3dad3b7a3b1ce8fcU,
  0x3e72f32abb80a0e4U, 0xbd477a2e3c08e377U, 0xbe95bc6a3e3192a0U, 0xbe2e2c03bdc2eeb0U,
  0x3da8d2b3bd60aba9U, 0xbc7d27c63cb2fff3U, 0x3bdfcd61be4f09d5U, 0x3cbc1e9f3d93c33dU,
  0xbcd8eecf3d6b1bf6U, 0xbdc20bcfbe9019edU, 0xbc6084b2be760c11U, 0x3d2f6859be1455dfU,
  0x3dbee0953e011a06U, 0x3d3309533d80fff7U, 0xbd40ec363c7e949eU, 0x3dd55a07be552894U,
  0xbb7065d83d4afd21U, 0xbe5fa5693e1fec53U, 0xbd1b407cbd1d8fd5U, 0x3de6c7e13e0485e8U,
  0x3da30eedbe608aaeU, 0x3de42bac3d7c200fU, 0x3dee534a3ac6912aU, 0xbe01e2773e143dd2U,
  0x3e3f405f3d53f400U, 0xbd765d993e1fb889U, 0xbe45864b3c609fd9U, 0x3d722a4cbc647e2aU,
  0x3d4d2a50bdba5a47U, 0x3dccefda3ddd00adU, 0x3e534ea1bddfd58fU, 0x3d8c34783e4e465cU,
  0x3dba508ebc93f9acU, 0xbd9abd6a3e54b4cfU, 0x3e61cc11bd79e167U, 0x3d7c91253ca55f04U,
  0x3cdfcead3dd3038eU, 0xbdd298273dbcad19U, 0xbda9a399be0ca56fU, 0xbe03ba633d67c94cU,
  0xbcc8cfb1be44d133U, 0x3daa944ebe64ff7aU, 0x3dcf88a0bcddd486U, 0x3deca3843d5f63d1U,
  0xbe05de5fbdaf1ef6U, 0xbac7ca09be848666U, 0xba173add3db48e81U, 0x3e14c70dbd3e6992U,
  0x3cd860fabdc9f9cdU, 0xbdc35602bd2692b6U, 0x3cfaf812bd456377U, 0xbcb913323d6c5cd1U,
  0xbdd97ba4bd56e250U, 0xbc8c3cb9bd9fbf0bU, 0xbdf70a9cbdf0c413U, 0xbd84f3f2bcaa758dU,
  0x3d7046873e62d62eU, 0x3d911971be0a0801U, 0x3e5950cd3d15ff69U, 0x3e3852acbde25393U,
  0xbd6afbd93da293f7U, 0x3dcb81653ef537b4U, 0xbd684f463d2c11b1U, 0x3dc5f5c3bce0b139U,
  0x3e8c03933cc7b1f5U, 0x3e6d7560bdd955a8U, 0x3e1ad3c1be8faad4U, 0x3e46d94dbe00348aU,
  0xbdb523e83d825b46U, 0x3ecebac33e1d201cU, 0xbce9e6be3dd3445dU, 0x3da5df4ebe3139a0U,
  0x3dafe944bdf164b4U, 0x3e2d43413db04e81U, 0x3db1e956bd450160U, 0x3d1dfada3ebcb653U,
  0x3da541a3bdcbf411U, 0x3d77a109bd96dc2aU, 0xbe5fcce63e87224eU, 0x3defd4ecbe043b2fU,
  0xbd94163bbe0b02e0U, 0xbbbe4474be170f9bU, 0xbd1708d63c41390cU, 0x3dd1cc21bd403f5dU,
  0x3d21e53dbe44ed21U, 0x3e09d2643e2c0846U, 0x3ccd03bebd4f67d1U, 0xbd01895d3e76297aU,
  0x3ea4cab5bd7242b6U, 0x3e6c1b99bdbd58b1U, 0xbea4bd0b3e00f102U, 0xbe137bd0be4e42b3U,
  0xbe0555aebcfe9ef5U, 0xbbae050f3deb885aU, 0xbc00a641bd78c19aU, 0x3d512b663df0ffd8U,
  0xbe1751eb3d9ac69dU, 0xbd819a3fbda2665dU, 0x3d731e5ebddfbd43U, 0x3e98a515bd8628cdU,
  0x3ea10851be189d50U, 0xbd6fa64f3d9b008dU, 0x3db295803ccfca4bU, 0x3ded8fd73d96ee5eU,
  0x3b456991bd2efdd3U, 0x3d53be0bbd894420U, 0x3d55cbad3c0d66a9U, 0x3e22decbbbba021fU,
  0x3d1b7d543dbddb9bU, 0x3e64cb183d2fb0dcU, 0xbe61a3b6bde58f5cU, 0x3cf64b25bcff8b86U,
  0x3d80818b3dc17519U, 0x3e78cd54bdc0841aU, 0xbd699554bdfaead2U, 0xbd975fbb3da1df5eU,
  0x3d6719723deabbdeU, 0xbdbcc2f4bd532c35U, 0x3d8337ec3bf22911U, 0x3dd26b443e89963eU,
  0xbd9d43a43e3d4989U, 0x3d27a5d1bdba9a84U, 0xbd9a6c78bca2dd1cU, 0x3e2863ffbcec083bU,
  0xbdeb3b9f3deee003U, 0x3cfbc9a93d8e43a3U, 0xbe7371fc3e0180f6U, 0x3e7f5bcb3d46418bU,
  0x3c4e0c713e129a46U, 0x3da664ab3c374c78U, 0x3da26696bde045f2U, 0x3dee43d6bd6d9ae9U,
  0xbd597608be51f87aU, 0x3ddb5a4e3c651145U, 0xbc3832363e466723U, 0xbe50ebabbc09fbabU,
  0xbd3c11643dfb12e8U, 0xbdec24bf3db4f661U, 0x3d7d0a353ea46b41U, 0x3d23daf13d179e78U,
  0xbce4dd97bc02f275U, 0x3e5fe6aabde3f62fU, 0xbddc5adbbe833a9aU, 0xbe70522ebd05145aU,
  0x3c9262bf3d14b7ceU, 0xbd0b5c9fbe3d994eU, 0xbd1d621b3e4aebc1U, 0x3d6754febe030072U,
  0xbdb082003dff3989U, 0x3e8252273cfc78c9U, 0xbe4b3b2c3e54a8feU, 0xbe37c00dbc96677bU,
  0xbd9ec397be075479U, 0x3dbb56a0bdcf75afU, 0x3d7fc846bdd11c7aU, 0xbd88a09a3d23fcaeU,
  0x3e2fcf50be7aa823U, 0x3e45d4e0bdc14072U, 0x3b92d0fbbe4ad298U, 0xbe0657efbe5de388U,
  0x3d849fc43e158a3dU, 0x3dec8cad3b2492cdU, 0xbc44f71cbd44f745U, 0x3d0f24ecbd91a3f5U,
  0xbd18a58c3b5c80e3U, 0x3cbd3e50bdfabe8dU, 0xbe0e74ad3bf0d18bU, 0x3d7d7393bead0bbfU,
  0x3e4560223ea005f7U, 0xbac94e383b3d53e5U, 0xbe335ae4bc20e5f7U, 0xbca7d9053c31f2d3U,
  0xbccd9befbe6d7202U, 0xbd82acffbe2cf8eaU, 0xbd703588be29c8b8U, 0xbc4f83533ba7293aU,
  0x3dfcd5efbe8df310U, 0xbbcfa9e7bd523d99U, 0xbbb2316e3e039fbaU, 0x3da02f293c9d1cf6U,
  0xbe41f1f5bda1ffb9U, 0xbcca8cd1bda40c74U, 0x3d6a69f4be22527cU, 0x3e494cc2be05d639U,
  0x3e0b861dbc0f4732U, 0x3ddff381bd818152U, 0xbcbd37ea3c81770bU, 0x3e26cc0dbd17b97cU,
  0xbe06ddc8be22a132U, 0xbd665ac03cbdafe9U, 0x3cee69a53c50cb81U, 0x3df5486dbd2d0cc8U,
  0x3e6a50543b6bbc6bU, 0x3e105cf3bb835f1aU, 0xbc7fcff3bda76ee5U, 0x3d8736ce3de06876U,
  0xbc76124bbd853709U, 0x3e6ea9c5be1491fcU, 0x3dd2f8893d1e5040U, 0x3deb2bcfbe26d666U,
  0x3d49f37cbe166e87U, 0x3e7b2e193d99d0fdU, 0xbd594834be04b8faU, 0xbcf870cf3d963dd8U,
  0x3dd74b86bd3bb39fU, 0xbd27b4b93ddc0d05U, 0x3c9044353dac6479U, 0xbe5d7c073e3ad8d4U,
  0x3de2fa593db92d2aU, 0xbd277f5d3e32c360U, 0xbcff47883e3f73fdU, 0xbc427f0abdca0aa7U,
  0x3c7ab66f3a7eac21U, 0xbdf2c547ba376ee7U, 0x3e397ea4be5bc7a8U, 0xbd0aa335bd67ae3eU,
  0xbdfe0c51be6055acU, 0x3e44f8bdbe12bea5U, 0xbd5c95babcc92d69U, 0xbd4251753ec60863U,
  0x3da8bc45be18f885U, 0x3dd014cdbb688ce8U, 0xbe1c8556bdd53361U, 0xbc1a32d4bd534805U,
  0xbe0bc9993e3b2df7U, 0x3ca6973ebd8f2decU, 0xbe5a73d7bdad2c0bU, 0x3d2d8ffcbd7386d2U,
  0xbe2bcf70bd8d7acaU, 0x3d285cd53bdb7d0bU, 0xbdb14c2d3c09cdbcU, 0x3e05044a3dd792efU,
  0xbd080e4a3c162e07U, 0xbda1ad50be280c22U, 0xbe06fecc3b08882eU, 0x3e52385e3dabcb69U,
  0x3d624288bdcef500U, 0xbe3f7e7abd0cd865U, 0x3ddfebe9bd2f7124U, 0xbb57e6b73e2de02dU,
  0xbe052930be9632cbU, 0x3d4c932ebdbefa01U, 0xbd3007a9be2e3adeU, 0x3d95e5373d0e42daU,
  0xbc32575a3d266009U, 0x3d92d0fc3e333a3bU, 0x3dca45b3bde2e23fU, 0x3c922da63d823b48U,
  0xbe8c04bcbcaa0e56U, 0x3c3267873dd117cbU, 0x3c81edd5be25192fU, 0x3d6bc5a8bb4e02a5U,
  0xbdd40fb63aa7868aU, 0x3cb2ac6dbd9b3a39U, 0x3cf7e1ae3e33d52fU, 0xbd9049963d08a178U,
  0x3d50547fbe21163bU, 0xbdf398f1bd7432b9U, 0xbcfdd61cbd96c4e2U, 0x3dfb1c9d3e3f4100U,
  0x3db161c33c7e4f41U, 0x3e3df0153db7cac0U, 0x3e2ea9093d2ec346U, 0xbcd0addd3db4e5f5U,
  0xbe03c0d73e56c927U, 0x3d8b51d739fa559eU, 0xbc86a923bdd42461U, 0x3da52281bddd34baU,
  0xbce00891bda7489eU, 0x3e068f6cbe24b80fU, 0x3d4588c73e820b31U, 0xbc88196cbc9ba212U,
  0xbdd78a9f3d1c0b3eU, 0x3d3021a93e19e932U, 0xbe0c37f03dbaa2d2U, 0x3d2dfd8e3db1bbc0U,
  0x3bed26513d8e6091U, 0x3b83ac92bd349569U, 0xbc996614bd7a8ef7U, 0x3d277e53bd123b5eU,
  0xbc276feb3d5a1e58U, 0xbb9e8f293de3d0dcU, 0xbe27abdebdf3c256U, 0x3d6e6a92be2c7322U,
  0x3d634c173ddf7d36U, 0xbc13d4d7bd4b5e08U, 0x3d2ff4893e2dbf90U, 0xbdb55bcd38c2cde2U,
  0xbdabb745bd794cd9U, 0x3e011029bd86af4dU, 0xbc3b30cabd8ebea3U, 0x3ddaadc93ca03768U,
  0xbd1838c8bdb4d1a3U, 0xbcf857febe1d2ff2U, 0x3e4372803d130d1eU, 0xbe5e3693baffff3cU,
  0x3dc832c9bca7369aU, 0x3d27f5b03d97de80U, 0xbdba27983c4acecfU, 0xbdaa6a4abd8c9f93U,
  0xbd727a333d92c270U, 0xbe1df23c3d55fc11U, 0xbd541cbcbdc4b61eU, 0x3d8adf283ca21447U,
  0x3cb8abd9be93381cU, 0xbd3e8aa0be8d4b0fU, 0xbb6bf53a3cb5f5e8U, 0x3d819f78bd945c0bU,
  0x3cd9059f3d0d5b09U, 0x3cdaa9663c671371U, 0x3dd3fcf3bd9fad34U, 0xbe26986dbc97a0cbU,
  0xbd9d04ddbcf145d9U, 0x3c23ac5b3e1706baU, 0x3c844019bd9656d8U, 0x3d2a5ce03d164f7dU,
  0x3d946c413c8a07fbU, 0xbd2e457e3d101b95U, 0x3d154b9c3e163211U, 0xbdbe8c9f3d85d181U,
  0x3d48b0963d4758f3U, 0x3d124fa13d3144cbU, 0x3db23d72bc0ee717U, 0x3d82acd43d0b96c8U,
  0xbd7f16a9bd8de9aaU, 0x3d9096263dcf47bfU, 0x3d05d0f03d5a892bU, 0x3cb4fe8d3eae70e9U,
  0xbdbfab273b922942U, 0xbde8b1aa3d3990faU, 0xbd0f6ea7bd045ba5U, 0x3d9fabdd3d9c2701U,
  0xbdd90ed3bcf1fae8U, 0xbe0d03ae3c20c916U, 0x3c9899d9be6df0e4U, 0xbe9d78f6bd81d19cU,
  0xbdce1301bd65a4ebU, 0x3e2ac208bdf8f01fU, 0x3e87a3ed3dfdbeddU, 0x3d08e1923d04a296U,
  0xbd9f337bbc6c4ffdU, 0xbd95e0343dfcac56U, 0xbd05d0473dddcdf5U, 0x3e714f923d0b45c6U,
  0x3ba9672fbd787f5dU, 0xbd7fd7ac3d8c2b61U, 0xbd3ee79cbdc63f1fU, 0xbdefca133e7871b6U,
  0x3d90258d3bf4aa3bU, 0xbec70142bdaabc66U, 0x3e12b71d3d4f5005U, 0xbdf864dc3e02548eU,
  0x3c1abfb7bdaa825dU, 0xbc4d7efe3e09a3c7U, 0xbe6dc7b43e69d6b0U, 0xbea418cd3df09737U,
  0xbd6e7b44bd0900d3U, 0x3c373a0d3d9959e8U, 0xbe0f2c5fbcba6301U, 0xbdc75f4cbe076d2dU,
  0xbc73aa36bdd3307aU, 0xbda2f0af3cb5f146U, 0xbeac341dbdd71b4fU, 0x3e811dddbe4a21a8U,
  0xbb63e525bc89ea96U, 0xbedeae9fbd528da4U, 0x3e2b5e163c485497U, 0xbd85096ebcf6851fU,
  0x3c9a50aebe946a54U, 0x3dc26c9f3cc92d27U, 0xbd19e2a7bca3c8c3U, 0xbd8aaab73eb361ddU,
  0x3e5315af3e19aa24U, 0x3caebad33e0697acU, 0x3bd6afb3be997ffcU, 0x3d46f3103e915e19U,
  0xbdc145fdbc8633acU, 0xbcdf41073cffa494U, 0x3cad560ebe04f840U, 0xbc98b1a23c07abe1U,
  0x3e7b50323e3b1879U, 0x3e09ef4c3e71c69fU, 0x3ce3d340bd786911U, 0xbe572c2b3c9000f7U,
  0x3ea7c9ed3dbec0c4U, 0xbe4e1216be344a40U, 0x3dc304ebbe063e92U, 0x3e80939b3d25dbc0U,
  0xbe55282a3b3ac382U, 0x3e029e543cf2bee7U, 0xbc71cf0cb9936f23U, 0x3dbf0f543eb45a73U,
  0xbd35d6b53d41a7d6U, 0xbdf91535be5c4819U, 0x3e234eff3dcb6862U, 0x3d84f0b23d06cabeU,
  0x3b5fea95bdf65da5U, 0xbd8cb4583926f2bfU, 0x3cbfd5ffbdba7fb5U, 0x3df389c0bddbf65eU,
  0xbe51afaa3d9c196fU, 0x3dabdc18be7b7244U, 0xbe543d11be2b799cU, 0x3e8609e53e170de4U,
  0xbe61bb223d69892eU, 0xbe1b9b2f3e14717fU, 0xbe2da6713e1bb0c1U, 0x3c0c84a53df94d53U,
  0xbd6ef53abde8942eU, 0x3d02b6cb3cbe0b82U, 0xba82bdb5bdfd828dU, 0xbd1117d23df0705bU,
  0x3c6e96243d08201dU, 0xbe1ec80cbdb4121eU, 0xbe509f23be0be59cU, 0xbd67a0dabd2539d4U,
  0xbdf622913da7e5cbU, 0x3cfd71d03caf401cU, 0xbe1239e23d242857U, 0x3ea060b5be05c371U,
  0x3cd724293e088184U, 0xbe0563f2bd78dee8U, 0x3ce0c34f3d12a4d6U, 0xbdfbd286bcb8f9b8U,
  0x3d5ffd66bc88e44aU, 0x3e7705d3be25d22aU, 0xbd9cf4e6be04c96aU, 0x3ca498b9be715208U,
  0x3e5f644f3e6df306U, 0xbd4676a63c517ceaU, 0xbd11319c3df8e71fU, 0x3c74c9c5bdcb056eU,
  0xbd83ce413c9e52bfU, 0x3da0eed1bdfcc413U, 0xbe77485cbcc34ab7U, 0xbdd88862bca747fdU,
  0x3ca50b4c3d8221f2U, 0x3da48947bd868e3fU, 0x3e6890eabd992834U, 0xbddda687bd9073d3U,
  0xbd06853f3e08c88fU, 0xbe31d5653d869570U, 0xbde5b048bdc23ad0U, 0xbd307b60be59b1c9U,
  0xbe4adfff3d84461bU, 0xbe12c5d93e12c8efU, 0x3e3adafd3e356b2bU, 0xbe224d64bdb2fc59U,
  0x3e60f11bbe63866bU, 0x3dddb2333e2832bcU, 0x3d6f38bdbee5ce93U, 0x3da02195bd7839e3U,
  0x3dd5001d3dbf292bU, 0x3c39c5053e032956U, 0xbdf7d693bcfbc707U, 0xbf2b8fdebcc0a16dU,
  0xbe036ab43dc6c843U, 0x3e0ca9f7be2512a2U, 0x3d4576aabd26ac7cU, 0xbd686681bbf96e74U,
  0xbdb87c28be947267U, 0x3e84de0bbdd2c617U, 0xbc5ef45e3e28f5c7U, 0xbe42740c3d6c707bU,
  0xbe2e70773d869321U, 0x3cec8218be7c212dU, 0x3e69c98dbc43b9ffU, 0x3d6eafaf3d927b48U,
  0x3ca247e2be54c5cbU, 0x3da20ba6bec3adc5U, 0x3d968f43bc4fda50U, 0xbd78895e3d5b4d24U,
  0xbd4ff1eb3e6c74e8U, 0x3d6898053c9358c2U, 0x3d490a36be4f9c2cU, 0x3e18b5dfbd0a9587U,
  0xbda731f03e749f32U, 0xbc44df933e79145eU, 0x3ebae9c53d482c34U, 0x3e4fba58be78f46fU,
  0x3b717597be853e7bU, 0xbdb3df493cb9297bU, 0xbdcd68bdbd27de77U, 0x3e282bf73d4f6a58U,
  0xbd7b07ed3e7a8229U, 0x3e2875143ec5d6f6U, 0xbd7413c9bd0cd429U, 0x3d3dc1283e46bc10U,
  0xbddbbfb7bdc42658U, 0x3e46df153d249ddbU, 0xbd0a20eebd9be833U, 0xbddc9f37bd28d91aU,
  0x3db1a873bc26e19cU, 0xbe10e48ebdf14c4eU, 0xbcfa4634bdcfaccaU, 0x3d8bef76bc1e3d31U,
  0xbbde42c53d876384U, 0x3da0bd85bd96488dU, 0xbe0c13303de59013U, 0xbbf82ebe3e598b6dU,
  0x3e64d03e3e2ad2d0U, 0x3c4f41e6bda41fa4U, 0xbe0ccc983be81a4cU, 0x3e0d57dd3e7281f9U,
  0xbce53e643c8115bdU, 0x3c9f7dee3e098295U, 0xbd9786d43dc34fa1U, 0xbd615661bcf59c9fU,
  0x3cc5ebe4bc9574a2U, 0x3b05496cbe54c258U, 0x3bd57a1b3d022b49U, 0xbc89f79bbc1c5beaU,
  0xbe3bee8bbe4205beU, 0xbd260b64be1ec688U, 0xbc7477173d209340U, 0xbbe629763e1dc6eeU,
  0x3e0750013e5aabecU, 0x3abf33993ddc0345U, 0x3d778ece3cb49354U, 0x3dcffd8e3d0885b9U,
  0x3bf46d483dd09fa9U, 0x3e0a640ebe28edb8U, 0xbe68c5963dbb4a29U, 0x3d1e63e9be8c2c16U,
  0x3d9c86073d59c76cU, 0x3e039f5f3ae15298U, 0xbdf40c53bdbcf752U, 0xbcbc0020bdfb60a4U,
  0x3dc09fdfbd2b7a98U, 0xbe921df0bcb1c0b4U, 0xbd8c63803e7105e1U, 0x3e07db80bd3e1dfdU,
  0xbd850544bda06326U, 0xbc89d294bd80256aU, 0xbd2ed4fc3d35c26eU, 0xbecbd8553dd7bad2U,
  0x3ccdd015be652e28U, 0xbcc15437bdd46fa7U, 0xbbbd4dacbe04f90dU, 0xbc66406bbd6db2b8U,
  0x3e3b2b243e1f44c2U, 0xbba077eb3dc5490dU, 0xbcad970fbc759732U, 0xbe027aee3dfa5920U,
  0x3e87f4e53e41d1b7U, 0x3dfed4cf3bad5f7aU, 0x3e0fb2183e1fefd6U, 0x3dca96efbe0f379cU,
  0x3e4bf1ae3e03eecbU, 0x3e6056f63d9f5592U, 0xbde097f13e5b5f3aU, 0x3bc7924a3e0566f5U,
  0x3d77c4403e93333dU, 0x3c0a7c51be45fd25U, 0x3e18236e3e3a2123U, 0x3d345bf4bda1ca18U,
  0xbe12e3efbdd6764eU, 0x3d46387abda1ea38U, 0x3d05ac483e263d0eU, 0x3d31856bbd771befU,
  0x3c81c2653c78f331U, 0xbd2ad791bdf8dde0U, 0xbdf7b39abd249eddU, 0x3e0d732c3c8de7c8U,
  0x3dafc82fbee16fe3U, 0xbc80e794bef859f3U, 0x3da0fd9e3d8a3061U, 0xbdbc8533bcd9757bU,
  0x3e27aadd3dc9675dU, 0x3d3d1ac8bd689225U, 0xbf1a76f93e49aae4U, 0xbe08333abd8bcbbdU,
  0xbd89a63bbea9412fU, 0x3c0f3a38bb4b53faU, 0x3e3aa164bd40a080U, 0xbe5866c93e11f4beU,
  0x3e598f7bbebddc10U, 0x3d6f86ef3e4f1305U, 0xbe08f573bc34b30dU, 0xbe6b1f49bdbbb1feU,
  0x3e8a68ba3e20d317U, 0x3e5857ba3e96f2c7U, 0x3e825914be10e7f3U, 0xbe1493e13e54e369U,
  0xbdc24ea23d2a22a6U, 0x3e2d65e73d328e59U, 0x3e48fd73be0475baU, 0xba7d58c13d8dc4a9U,
  0xbea7c4cdbd5413f0U, 0x3e9d06e53e1847c8U, 0xbdc69a4e3e3fcd54U, 0x3d0f094d3da50bbfU,
  0x3e1cafbb3dfad613U, 0xbe79297ebbb1855fU, 0x3d80516a3dbb41e2U, 0x3e3bd0f23e039892U,
  0xbcabe8ce3d7beadaU, 0x3e2a4423bd633c2eU, 0x3ca2bbd3bd8f3a53U, 0x3e4725e8bc5f4307U,
  0xbd11237d3e0ca050U, 0xbdf03e96bcee1e8bU, 0x3d9a02c53dc7451dU, 0x3df33ce63e303a55U,
  0x3d14b8be3c8a0ebdU, 0x3d222b3a3da5446bU, 0xbd417c1cbd58c967U, 0x3d92e195bdb543f9U,
  0xbd17fa73bb26caa2U, 0x3d91ba74be119a4eU, 0x3db393eb3d175659U, 0x3e1ac0013df87f87U,
  0x3d7d9a8e3d7f791eU, 0xbe0c099e3d7787fdU, 0x3e175eda3d1bae3cU, 0xbe91261cbc5535fbU,
  0xbe2712f13cfa0ae4U, 0x3d09ad633d41362bU, 0x3d22dcdcbdbcec8eU, 0xbd6dd65abdf446d5U,
  0x3deef0283e1c2c3bU, 0x3ccd7ec23db898fbU, 0x3dd421d5bc149e3cU, 0x3b2326fa3e0ffce4U,
  0x3d9cbf293e8271fcU, 0x3df14454bdf7ecd1U, 0x3e56f81ebd8e6b83U, 0xbc7a7819bda9b9eeU,
  0x3e209272bd0c7a51U, 0x3e4097a6ba37619cU, 0xbde046183db4b65aU, 0x3e09c607be361e6fU,
  0x3cb7da233dfd9dd4U, 0x3def57c7be86ca00U, 0xbc00e8773d891d9cU, 0xbb72d6893df047f8U,
  0x3c41912b3e4e6db2U, 0x3d890842bde8ed0aU, 0xbc8d288fbe499a67U, 0xbd3ea430be822dfdU,
  0x3cfbfd8f3e2f9ae5U, 0x3d84c56dbe646b66U, 0x3e41b5993d4baaafU, 0x3d4ff02abd4804f1U,
  0xbe34ec86bdc2af19U, 0x3c9f6fef3e353698U, 0x3d4abb22bbebd934U, 0x3db289213edcef41U,
  0x3cd88207bde11ad0U, 0x3e5fdc493d9c3edeU, 0x3e37e0d8bd414934U, 0x3d10dbf03df88073U,
  0x3e0244e03f04ab30U, 0x3d7b983cbe279b7aU, 0x3e4070f93c5701caU, 0x3d863e6dbe00a8e3U,
  0x3c7cf300be7e9d12U, 0x3e233fadbdbea7b6U, 0xbe4dd494bea87a12U, 0xbc8bf200be09495bU,
  0x3df74556be4127b4U, 0xbeb5af18bea8684bU, 0x3beea1abbc6026dfU, 0x3e02b1d6bd282879U,
  0x3d59e1373e7255b6U, 0x3d5ee03dbbef9fe2U, 0x3e1aa7cf3e879101U, 0xbe0cbc31bd0f9244U,
  0xbc3e19be3e3fc4bdU, 0x3d0026a33d95a797U, 0x3e2a04fabe81a12cU, 0xbe8c1b30bc3704d8U,
  0x3d188bfc3dd8ed57U, 0x3ca9dba9bc216dbdU, 0x3db92e72beb0fd45U, 0x3d9607d6be825635U,
  0x3c19c80fbedad1d1U, 0x3e0a3cb2be171058U, 0x3c1ca69c3debaad9U, 0x3e5f4c583d961822U,
  0xbd4b75f1bda1fc68U, 0x3e31f183bdbaecfaU, 0x3e02e3113e87fdf2U, 0x3d8e700a3dd934c7U,
  0x3cc4f8c5bbabb6beU, 0x3e53c2e73de3c00fU, 0x3e7db40ebd818e81U, 0x3dd544043d10269cU,
  0x3d07e788bc9658e2U, 0x3e489b50bd563ed0U, 0x3e7f69933e3c5e33U, 0xbe03738bbe19ec83U,
  0xbda868733e951ecfU, 0x3e2f46dd3e23162dU, 0xbe8e0f333ce6a127U, 0xbe76f281bf3eb644U,
  0xbd613e43bde16de1U, 0x3e8788bc3dcb27b0U, 0xbd3d6f50be41b3dbU, 0xbdf7741e3da61c58U,
  0xbd7817f6bf2bef0cU, 0x3d1755b1bef5ef54U, 0x3cf8c7c93d2d55cfU, 0xbcce1facbcc9a807U,
  0xbded05d73e43a596U, 0x3e2e9d2abe727ee9U, 0x3e99a5e4be0d73bfU, 0x3dc2520dbecc2230U,
  0x3d2a41d3bca4d7c2U, 0xbd8d74103e41ac0eU, 0xbd2c08ee3dfd4ee7U, 0x3e3db07fbe1ff755U,
  0x3e04b63dbee5e096U, 0x3de3f0ab3e8c4c11U, 0xbe935817bd0c930aU, 0xbe87b9343e8b0eabU,
  0xbd4b2798be9c145fU, 0xbec94dc43e3b150bU, 0x3da68af13d37f789U, 0xbda26b8dbe6ff011U,
  0x3e0d7119be359d0cU, 0x3e0f706b3dc3fda4U, 0xbe5083c6bee8a038U, 0x3dfa83a63c2d1952U,
  0x3de397dc3cfdb81fU, 0xbe15d7833dccad68U, 0xbe9fe51dbbf84a00U, 0x3d689e3b3e069d23U,
  0xbea300febbb3c452U, 0xbe25899f3e395313U, 0xbe17b795bd7552b8U, 0xbddfd9533c2386e1U,
  0xbe24df5abdf2dc59U, 0x3db90e3f3bbc48eaU, 0xbe2d4f493e27976aU, 0x3dc098fe3e7b076eU,
  0xbe0cf05d3bb63e56U, 0x3e1c22f83d1bf1ebU, 0x3e3c2ba0be3cffa2U, 0x3e6745c83e6287f8U,
  0xbdfa6f643dbe3af9U, 0x3c0202883e081fdbU, 0x3d7ebdb8bcb09ea2U, 0x3df13d1bbdb08f34U,
  0x3e3414843e1e0b8eU, 0x3b4dc9dcbdba61a6U, 0x3e447b9b3dd44da5U, 0x3ce60507bd02754dU,
  0x3b957dfebe34d26fU, 0xbd17821cbea9a555U, 0xbba677ccbde67637U, 0x3e63f6c73d847bd8U,
  0x3eaef0c23ec60656U, 0xbe39411a3dcf6cfdU, 0xbe4243983e2b6c74U, 0xbdc5074239638589U,
  0xbdb14b773d697dadU, 0xbebb9eaebd180733U, 0x3d216bb63e3c1357U, 0xbe44862bbdb99b3dU,
  0xbd56ca4fbed255d8U, 0xbca60ddb3d98ec8eU, 0xbdd8e536bd1a10cfU, 0x3da41016bca91532U,
  0x3e2bab9b3d082abeU, 0xbd81aefe3dc8dba7U, 0xba8391833eab3b2fU, 0x3d57334b3e05a828U,
  0x3e099736bda783dbU, 0x3d4c39523e3332cbU, 0xbe2be438bea9e44dU, 0xbd9e5e7d3e6877c1U,
  0x3e0b3248bd8fe85fU, 0xbea822403e74a3a3U, 0x3d18bd19bd14dcb8U, 0x3e2f543cbd95c568U,
  0x3b3992debe5d7061U, 0x3d079941bdf2a1bdU, 0xbd2673893d029072U, 0xbdc1b1813e4ae0cdU,
  0xbde6b90d3f32228cU, 0xbca6a2453cb17c48U, 0xbc4f25c6bde739faU, 0x3da7efbf3e70828fU,
  0xbc5f6c4c3d49e82fU, 0x3d6c1e39be19a7d2U, 0xbbde03273e2f2307U, 0xbe6c61c5bc37adf7U,
  0xbe64061ebdd44fc8U, 0x3d6533b5be3dfe0eU, 0x3d091fe33da0b002U, 0x3df447683df82c4bU,
  0x3d36ebccbe300f51U, 0xbdf25c443d9bc718U, 0x3e8bcfc53eb522acU, 0x3bae29cebcf894d5U,
  0x3e6b34afbd16b677U, 0xbe0b67b03b89b2aeU, 0x3d8314fb3cf4db6aU, 0xbd0a3d22be86dcb9U,
  0x3d41cd95bd739ab7U, 0xbe4ad7f2bdc5c32aU, 0x3b923699bd5a65d4U, 0x3e10100e3e0eccf8U,
  0xbe869922bf469137U, 0x3e80029d3e0013e4U, 0x3df7a18bbd957c56U, 0x3ce183223e0b8685U,
  0xbe869c47bf19bff6U, 0x3dac8d0c3dc306dfU, 0xbd0226efbe914bc6U, 0xbdd5a88dbdaa11ecU,
  0x3db56e86bc78594eU, 0xbde23ef0bda0a118U, 0x3e6312e43e12b550U, 0xbdc8f74cbe8e873aU,
  0x3d5560f83e911ac9U, 0x3a585dbbbc3134e1U, 0xbe2a2daebdfbfce3U, 0xbce593a53d2f5162U,
  0xbdd8bc813e10b643U, 0xbe14fd493e6bece5U, 0x3c0c23973e48218fU, 0xbcdc1abfbe2f10fbU,
  0xbd6e29243e14057eU, 0xbd3f38183d7da37fU, 0xbc860000be3940e1U, 0xbe33b4da3e01fa44U,
  0xbd659cb33e5ae310U, 0x3e6925bd3dcb002dU, 0x3cef9af63e3148a6U, 0x3d2360413c714c8aU,
  0x3db9eb83be96d9aeU, 0xbd6f70f0bdba0a00U, 0xbcfa7d2f3e7c3984U, 0xbdaf61503d84f782U,
  0xbe696fd1beb06f0dU, 0x3ea5af96bf65d39fU, 0x3e6b1419bb808413U, 0x3e66df32bb21b6e9U,
  0x3c1e87a1be042facU, 0xbd1604a1bdab2353U, 0xbe33f5573e94cbceU, 0xbca761313d5038b8U,
  0xbd9e5bebbe2ccf59U, 0xbd71a095be1d705cU, 0x3bd34e34bd0f5930U, 0x3e756efa3d1f15c8U,
  0xbda12e21bd80861cU, 0x3cb21c443c6ef3aaU, 0xbe490846be55fe91U, 0x3cef2509be5052cdU,
  0x3d83e940be141034U, 0xbcda4d28bdc99f43U, 0xbe114e143d41dfc3U, 0xbd7eb3cbbe91d0cbU,
  0x3c03ad27be225736U, 0x3c869832be828099U, 0xbe7da296bcbd18f6U, 0xbd9beae838f5d330U,
  0x3e773bf33c0e858dU, 0xbed686263b161351U, 0x3bd3da233d81ba6cU, 0x3d76ed4ebefbc07aU,
  0x3c88d1dfbe90dfbfU, 0x3de0c4593d976e4aU, 0xbe32938bbd87be59U, 0xbe4ea3bfbe00f341U,
  0x3d1057003e4ce44dU, 0xbc999cc03d421170U, 0xbd5f258ebeec54f1U, 0x3c195a96bdb743e3U,
  0x3d1bebb23ea94591U, 0x3de65f13be3ff3e6U, 0xbd89d4d4be66328cU, 0xbde0d391bee67730U,
  0x3da590ebbe389b7aU, 0xbe317683bb94b7bcU, 0x3d5bd88f3e28ccd8U, 0x3ddf42683dd4a96eU,
  0x3e48a031bdb9d81dU, 0xbd6810603e18838dU, 0xbd8928593d9d0ac9U, 0x3df293f3be13a25dU,
  0xbdd78f86bdb95bb4U, 0xbdc3d7c1be0acb22U, 0xbdd90c07bea94498U, 0x3e0757dc3c53a2b7U,
  0xbe03c090bc4d07e4U, 0xbdd43cf93cc2d393U, 0xbd11e764be04f520U, 0x3d8ec8b7bdebf6bbU,
  0x3db7c7e4bb99c2d6U, 0x3ccc4677bccd286bU, 0x3d914ad93d7ce47eU, 0xbd195402bd875092U,
  0x3df27318be0a15beU, 0x3dea4df3bd1a3e29U, 0x3c7659c43e3272eaU, 0xbd920e70bddebb37U,
  0xbd086aafbe317e92U, 0xbe488fd4be01040cU, 0xbe110e293d0b6dcfU, 0x3c6fe84b3c9b9fb2U,
  0xbd477b7a3e2482d7U, 0xbcbed451bd982421U, 0xbe6b342ebe1e0c48U, 0xbd4dce633d7ed11fU,
  0xbcf7b058be8142ceU, 0xbd9a8bcabe056f6cU, 0x3c5e2ab33e256ff0U, 0xbd52cffbbd8e7b0fU,
  0xbcd0b167be182588U, 0x3d73861a3cb601ceU, 0xbd1ed8c73de70258U, 0xbe2af5babd8e9504U,
  0x3e38b16ebeb19c08U, 0x3e4b94193ca710b5U, 0x3de61fd1bd711fdfU, 0x3e99745fbda0351eU,
  0xbddc1ce73da7418dU, 0x3dd5adebbe4fced0U, 0xbdc5096a3d314840U, 0xbd008497bdf60b4eU,
  0x3bd23d3c3d530252U, 0xbe49999f3d1c4e8bU, 0x3d8bf397bdb2355dU, 0x3dd65dabbd2640a5U,
  0xbd61db43bd80cea6U, 0x3d4eaf473c9e6a86U, 0x3d9712cc3daefc51U, 0x3e1672bbbe0e9605U,
  0xbea6345c3c4bbe79U, 0xbd15c1053e48fcedU, 0xbb01fcd8bc9714f4U, 0xbe7a58c2bc31ffceU,
  0x3ce0ef47bdd7e4dcU, 0xbbe7a8e3bddfb713U, 0x3c583eebbdaefec5U, 0xbd268ed2be2f7836U,
  0x3e44facc3e2a35b9U, 0x3ecdd09b3e4365c2U, 0xbdc069a4bd1f4657U, 0x3c1b8a8f3dcaaadcU,
  0x3e07ee733ea0bcebU, 0x3e0b2b22bd64f5fcU, 0x3e1105d33c4c1b69U, 0x3cce0108bcc79c31U,
  0xbdac07f0bd9f448eU, 0xbcdd20483dd0d579U, 0x3b7c2ceebc4b66ffU, 0xbde8604abf077daaU,
  0xbd35e9f53d03e5ddU, 0xbdecb7efbe0a59c1U, 0xbc9105cabd8c46beU, 0xbbd5430f3d451cd2U,
  0xbedd04abbe045e1cU, 0xbe5850073c160423U, 0x3b19e33f3e716589U, 0x3dba5ef03e8bff14U,
  0x3e0111e9beccec38U, 0xbe31c2063e2a520cU, 0xbe314e2abd54ccd0U, 0x3d02bcfcbddcb1ceU,
  0x3bf526aebd77e7d6U, 0xbe3bb98ebd41e7dfU, 0xbe19b564be4b14a0U, 0x3c78425ebe6cc72dU,
  0x3d640ebbbc5889fbU, 0x3cb99428be8de382U, 0xbe8352713dcfd26cU, 0xbdac11dd3e31419aU,
  0xbe5c2e0cbe793185U, 0xbd04c79cbe1d7064U, 0xbdeb5498bcc98bf5U, 0x3e51e960be01384aU,
  0xbe1e11eabe478cd1U, 0x3e78809ebdbaea48U, 0x3e4662d8be6b4dccU, 0xbe5611f9be1c2b4aU,
  0x3d6526b7bd11defbU, 0x3e4920e7be3330b3U, 0x3ea2c4cf3e242043U, 0x3d75a33dbe45be1cU,
  0x3d530533bc1c3d5aU, 0xbbeedd17be3677ebU, 0xbec901f83d2a13daU, 0x3e9a9744bd71f832U,
  0x3e179d51bcb4db33U, 0xbeaa4ecb3db86c25U, 0x3d957c203e716a6dU, 0x3df9a7533e839dc7U,
  0xbd0241cdbee9acb6U, 0x3d194b893ea0f80dU, 0xbea72f543e8a675bU, 0xbeeb37d43e4b060aU,
  0xbe64854b3c83753eU, 0x3df789013dacc471U, 0x3ca5aaefbdcc33a3U, 0x3d297f28be020b9cU,
  0xbd3dcf433e4cb9c2U, 0x3e708c94be002127U, 0x3e58809cbd22bde9U, 0x3d6c3b75bceff993U,
  0x3e15418b3e50a127U, 0xbd6771d33e7d7947U, 0xbd5c947d3e451a03U, 0x3d9bcb66bd0b8789U,
  0x3ca95274bc0e04b8U, 0x3e670e113e1d1debU, 0x3d1be0e1be909dcfU, 0xbd8717123e3172e2U,
  0x3da324d13d9b7b35U, 0x3c664fabbe3c3bfcU, 0x3e2cf730bcb36d7dU, 0xbe95b5d7be5b46aeU,
  0x3e0888df3c9b3a26U, 0x3c87fb973e46a311U, 0xbde57bad3d84acd2U, 0x3d4a81d93c194b24U,
  0x3e039a443dc4351fU, 0xbe60ca473ebbbecdU, 0x3e1a469fbe09960aU, 0xbe4372d73e15d5e0U,
  0xbc9c4a463d8fd22eU, 0xbd564453bd9a0f59U, 0x3e37a519be54c3a6U, 0x3e25024fbd627681U,
  0xbec290babdd80815U, 0x3e18595abe3f2eadU, 0x3e05bd613e90defcU, 0x3d97aa19bf1473bfU,
  0x3e70e02ebd396efaU, 0x3d3c8d913d5b25f9U, 0xbe5aa5d33e8d81bdU, 0x3d94d0953ecbfe7cU,
  0xbab00d9dbd019c03U, 0xbec6333c3e09e705U, 0x3de6d6913dd829a3U, 0xbe156cb33e5a13dbU,
  0x3ddfa828beaed392U, 0x3c89afa73c2d1c92U, 0x3cc4b9bbbc907d9eU, 0xbb99ffd9bf05300fU,
  0x3ce7c4fa3dda7a9aU, 0x3e1f99883e5c870bU, 0xbc049ccc3de75c1fU, 0x3e1f3043be24db84U,
  0x3db649493cb4bc2fU, 0x3ea081c2bd472d0dU, 0xbba1f0b33d508368U, 0x3d3f205b3d83f989U,
  0x3d998dbfbe4ca6caU, 0xbe9de5a33c1c44a1U, 0xbe70a5c8bd5cb429U, 0x3dcd9d9e3da39aebU,
  0xbee8238dbd42371eU, 0x3d1e1387be144116U, 0xbf18c5d2bca90e30U, 0x3dc58da5bb9fbe0dU,
  0xbebed000bd8bd1faU, 0x3daef5c33da960acU, 0x3d66a6953d5708d7U, 0xbd95014f3ddb58c5U,
  0xbec77cea3e07b59bU, 0xbe932dce3db8761bU, 0x3d1c20453d020edaU, 0x3d810e203d6c840aU,
  0x3da13850bd74d2b0U, 0xbebd36e0bdbf6ca7U, 0x3dde62fdbddb4efcU, 0xbf00bc7d3d815febU,
  0xbeb7208dbe476836U, 0xbd954536bd9c8c53U, 0x3d4b607c3e7786d2U, 0xbdbcbd2d3cc5137eU,
  0xbe07eacbbe29e282U, 0x3d8f283cbd8954acU, 0xbc53d5e3bd7233c5U, 0xbde94104bd11f8a3U,
  0xbd926a2fbe193b91U, 0xbd23cbf03bcfafa8U, 0xbd78007c3cf7eb78U, 0x3d83207e3cf07465U,
  0x3dcd9b6dbe557369U, 0x3d334d243da66cbdU, 0x3c4dc350bdceef24U, 0xbe84390a3e83b050U,
  0xbac0d8133de8e095U, 0xbe78d6c53b6214a2U, 0x3e5afdab3e2053b2U, 0x3d9166e5be608d74U,
  0x3df29e14bba20fefU, 0xbd4486643baeddd9U, 0x3d4626683ec065a8U, 0xbf22d8d93d9420deU,
  0x3c3df321bdc5613fU, 0x3d6ec8893d15cfd3U, 0xbdd5118bbd57f4b9U, 0x3e2ccfb33e09b6a8U,
  0xbc5103debdb08f02U, 0xbd97beb13d951697U, 0xbd9471fd3c4e8351U, 0x3b9ee7353d274e30U,
  0xbdf929ce3d012c14U, 0xbddf2ffa3d1511b0U, 0xbe7eaf963d6fa080U, 0x3cbb1c1cbd12a76aU,
  0xbc03edcfbccbdd9dU, 0x3e318a923e303896U, 0xbcb3d1063da32056U, 0xbdc28404bd840211U,
  0x3e203096be2d7631U, 0x3df59aafbd6d49c6U, 0x3dd64d98bd5d59f1U, 0xbc878c6d3e7808bdU,
  0xbd982e873cc5dbd3U, 0x3da494f2bdbab22aU, 0xbc1301c73df8f681U, 0x3e2432303db18a83U,
  0x3dc0248f3de142e9U, 0xbd6d8a683e263c5bU, 0x3be2a57b3e8b4cf8U, 0x3d4c77a73e124897U,
  0xbe1c43d93d65666cU, 0xbe02f5093db288d4U, 0x3d2f3a963dcf8f31U, 0x3dee61e43e10a51dU,
  0xbd9b4880be47abceU, 0x3d2bb4b2bd6288d7U, 0xbd5617e1be80016dU, 0xbc5efa8bbcd6607cU,
  0x3c1723c43dd925bcU, 0xbe4488a33e1730dfU, 0xbe462ea3bc0dba98U, 0x3d7bbe2b3e1c54a5U,
  0xbe634f29bab0d719U, 0xbd946419bb65c302U, 0x3e0992933e463692U, 0x3c2d08f1bc181ad7U,
  0xbe245babbe02434eU, 0xbde6adf93dccb019U, 0xbdca33633d249806U, 0x3e5534a4bc951cc1U,
  0x3d38d6c2bb9b479aU, 0x3d8d2b203df27e11U, 0xbd3b5a7d3d1b83e9U, 0xbd9d039ebbe660a3U,
  0xbe01e83bbe36d261U, 0xbe15bb303d3ff7d0U, 0x3c922c02bb7c5129U, 0x3ce2dc853d850343U,
  0xbbe8ff47bdec8048U, 0xbd91e041bcb93047U, 0xbe34c044bea54432U, 0xbc4078643b11d5efU,
  0xbcde62993dc5141dU, 0x3d630ad73dd7ba33U, 0xbd6930c8bdb46be8U, 0xbe1c9af0bc869fb8U,
  0xbd31c7a6bc6b513dU, 0xbdd5e51bbdbd4cb3U, 0x3e2cba2ebd5e97d7U, 0xbcd3fe0d3dccf055U,
  0xbd1304ed3e13f40fU, 0x3d4129dcbd0d240eU, 0xbdb7b3183ccead7bU, 0xbdfb65ecbb269a6eU,
  0xbe036bbbbd98b777U, 0x3e4d67ec3d447271U, 0x3d8ae9eebdca8991U, 0x38cc38f83d370426U,
  0xbd512c35bcaa94a1U, 0x3db119ebbe07a79aU, 0x3e06131dbddb6288U, 0x3e5f17503c343b88U,
  0x3e16ed543e122f63U, 0x3b03b5bf3eae7c2cU, 0x3d00bcff3c2ac43aU, 0xbd3c0b3c3e2adbebU,
  0xbe064090bcf0a1dcU, 0xbe8c1b60bd8de8e1U, 0xbcf339a13d9abc9fU, 0xbe2cd875bdf01b2aU,
  0xbe47699ebda2220fU, 0xbd90c191bde45380U, 0xbdbbc2d0bde02dd8U, 0x3d029e98bd00613fU,
  0x3db17bd6bd80582cU, 0xbd016756bf0c24deU, 0xbc77d9323e251d6fU, 0xbdc6e1163d99f2aeU,
  0x3d9a22e03ea9d411U, 0x3d567d773db7d2ebU, 0xbdb89b193d7786f3U, 0x3d10a7d0bdf2c9e0U,
  0x3e4327923dd9643eU, 0xbec77daebdf70300U, 0x3e51f0cb3dc8d637U, 0xbdd558ba3d2dd3a9U,
  0xbd722e37bdfb325dU, 0x3c82471f3dcb22dbU, 0x3e00ddbf3c4cf598U, 0xbd7db70ebe201c5aU,
  0x3d9294703c0c0d92U, 0xbeb3111ebd7ddf17U, 0x3da3736d3d19558dU, 0x3dd8e2ddbe0bf1b0U,
  0x3d4e5765be8eec5fU, 0xbd66170fbe06734fU, 0xbdc189ce3d2817d5U, 0x3dc4ad0c3dc51335U,
  0xbd8e209d3ddbc9afU, 0xbd095a76bd95c8ffU, 0xbbbdc82cbcf78400U, 0xbd3cc9abbdd82730U,
  0xbd1fb5cb3e115f18U, 0x3e3977853cb0564dU, 0x3c188ab2bd368df2U, 0x3e1f2f623c7a9c78U,
  0x3d04777ebce4482dU, 0xbe868d8ebbbb4013U, 0x3e129162bd134380U, 0x3e81d0f5bcb7cd6eU,
  0x3deb17993d05b167U, 0xbe106df7bd4d48f6U, 0xbe2e311e3df510afU, 0x3cc84ce7be164b50U,
  0xbe01d1993d005384U, 0x3b902ed9bd99b254U, 0xbdda7d99bd6852f3U, 0x3dd754ec3cad0939U,
  0x3da8d205bc625c95U, 0xbd4a438d3d6bcbe9U, 0xbe244fb03d4bdfb6U, 0x3bfbffe0bd7129a4U,
  0xbd8086f8ba1e74bfU, 0xbe373a7f3ea07389U, 0xbdbfe889bdf70208U, 0x3d08268c3dbd56d4U,
  0xbe5012133d803c4bU, 0xbc935916be3fafdeU, 0xbd6cb0eabe6a7518U, 0x3e2765cebcb60e71U,
  0x3dcd815a3e27747dU, 0x3d275891bcaa01a4U, 0x3ccf82bd3e016c84U, 0x3e7a586fbd9dacabU,
  0x3c5928ebbdc8c537U, 0x3e5c7bdfbd69afd5U, 0x3e5159603bb5d1f4U, 0x3e1d88813e926d64U,
  0xba64c20f3cb76af2U, 0x3ccd4fbfbd31f73cU, 0x3ddd73cbbd0f12f2U, 0xbddd57d93c02e494U,
  0xbe3c81af3d5b75acU, 0xbd2245733c4cdcd4U, 0x3cd60c20be066d4eU, 0x3dc889fabd70c549U,
  0x3db6ecffbe0bc96eU, 0x3c6cee123cf2e3ceU, 0x3cb192cabd74b801U, 0x3d9cbe78bd125133U,
  0xbdd46b38bdd1a27bU, 0xbcd1c5cd3db3ac5cU, 0xbced8bbbbc92065aU, 0x3d94c3d0bc4a0d34U,
  0x3e27a8c13ddb79d8U, 0xbcc2ae0a3e87a688U, 0xbe6bda60bd02d90bU, 0x3cdc368f3e50d32fU,
  0x3dd28d513dff3705U, 0xbda386e0be2e14c6U, 0xbdc3093cbc5a402cU, 0xbdc237283c705250U,
  0xbda9335bbd6c2c32U, 0xbcd4529a3e38c0abU, 0xbe2cceaa3d7a8174U, 0xbd8b3fbc3d110bb7U,
  0xbdc9f16ebd722b09U, 0x3e522b803e49e231U, 0xbd215a7bbe3b7121U, 0x3e6e070c3e410494U,
  0xbdad164e3dc17c2dU, 0x3db601173d1ac50fU, 0x3d94b718bd98fb86U, 0xbd630d463c878fdcU,
  0x3d902e1c3e32bc8dU, 0xbe615002bd9d3d25U, 0x3e1e64b23cdf28b5U, 0x3e9fc61abd539fe3U,
  0x3e2eae953ddb65b8U, 0xbd8d591dbeb4b895U, 0x3d97de243d361d4eU, 0xbe4444b7bd86df39U,
  0x3e010ccc3e57fbacU, 0x3e1c6cc3be0445f6U, 0xbd2df29d3c9681a1U, 0xbe62d3763e24e44aU,
  0x3da97f433c9abe51U, 0xbc8c4d05be4b29a9U, 0x3e364d773e90bcd9U, 0xbe1b38c7bcb5e984U,
  0xbe4d8746bdd4a3a1U, 0xbd6181023ce6b1a8U, 0xbe501de6bd2f5839U, 0xbd94ac1a3c0a2720U,
  0xbe85dc7d3e0eb1f7U, 0xbc58b6b73de9ea29U, 0x3db1860a3d4f4cc0U, 0xbd096b773c843e43U,
  0x3ded3cdbbe8a9854U, 0x3dd5e0bebb35f11fU, 0x3cdfff8c3c9ef984U, 0xbe6c9c6e3de16a3cU,
  0xbdbbfc493da26108U, 0xbf20985fbd9bc16fU, 0xbd1d22c53cf5ce02U, 0xbd869f473e16da62U,
  0x3def63dcbd2c0ee4U, 0x3e5909f83b9110d9U, 0xbdeb0687bd50a3dbU, 0x3d849788bdcc2f4fU,
  0x3de5f075bd8af2ecU, 0x3e60da88bdf0ba69U, 0xbe23ae0dbe480cc6U, 0xbc49fde83d0292b4U,
  0xbe6f4acf3e26a77aU, 0xbe0c7c843dfd6795U, 0xbea7a20fbc7da3fdU, 0x3d50058cbdc1bf7dU,
  0x3c23a33cbd30a6f2U, 0xbcf66d48bde5f32bU, 0xbe82f0683e0fa275U, 0xbe2f023abd568ab7U,
  0xbde37d24bdb94f3dU, 0x3e294f1fbe2d6338U, 0x3e5a6e40be28c612U, 0x3deabb14bd9c93b5U,
  0xbc81fa1d3d3ac380U, 0xbda31794bd888b25U, 0xbe94982abdae1dc6U, 0xbc7cc5e0bd4b7ffcU,
  0xbe88532e3d87cd70U, 0x3ddd74ffbe65e254U, 0xbe0da4973c44ad67U, 0xbe814bab3dd78089U,
  0x3d0a2e5dbe197f30U, 0xbe3efee4be92b01fU, 0x3bfcfca13df42ceaU, 0x3decd6babe23f339U,
  0xbdfd4dc23e1be38eU, 0xbe45b05abe984ab0U, 0xbe9ff9643df8cffaU, 0x3e787c89bdd5468fU,
  0xbdccd695bd411ef2U, 0x3d44d6a53e1ab3b5U, 0x3e9bf60d3cef8083U, 0xbe100f443e8290b5U,
  0xbda1b128bd2b8a54U, 0x3d5cea33bde9032fU, 0xbe86509abe301c4cU, 0x3e646196be592b3dU,
  0x3e346f6ebe079411U, 0xbdbba492bdd2bdffU, 0xbcd90c253df674e8U, 0x3e0b585cbcf8391fU,
  0xbe35f4c3bb24f4b6U, 0x3e383aca3cee88e8U, 0xbe12c013be21fc5bU, 0x3e9b377a3d6ca40fU,
  0x3de8f52abba16d31U, 0x3d1c2625bbb8d2caU, 0x3e72da5fbd6cc513U, 0xbd52a7a43e47320aU,
  0xbd280400be1f1501U, 0x3d899017be5fcde1U, 0xbcb4d8a23d5d8d89U, 0x3d71ea0fbbdfc72dU,
  0xbd74fb75bdfe2c0fU, 0x3e6628563d352e6cU, 0xbc07238cbe008f87U, 0xbd16c2e03d7a48d7U,
  0x3c7569293dd70aa6U, 0x3dbbdf87bdf95328U, 0xba99fe503e68f456U, 0xbdd5492abdacb019U,
  0x3e90e3e4bd964508U, 0x3dedc4ddbca8cf7fU, 0xbe2d4ea5bdb238e2U, 0x3cdefbd73ca1e3cdU,
  0xbcd29be83d6d63bbU, 0xbe17d7153e2b168cU, 0xbdec038b3d32b81dU, 0x3d595c833d30781aU,
  0x3d02363fbda56948U, 0xbc88820b3d1635acU, 0xbe3e5f203d61c248U, 0x3d00e33a3df65203U,
  0xbe1966a93bc57834U, 0x3cc9fb8cbe12ec6dU, 0x3e4f8e0b3e1cbcbcU, 0x3b8ddeaebdf154a0U,
  0xbc80bdb43d6b07ecU, 0xbe86e5363c3fa048U, 0xbd4890273dee8c64U, 0x3eb10ae33e21aa02U,
  0xbda83834bdf047a3U, 0xbc311cc03d1b14ecU, 0x3e4f359f3e0bde1fU, 0x3c8828ac3dffba5aU,
  0x3e843fed3e84ed0cU, 0xbe3aee6d3dcce481U, 0xbc1c50e0be5c229eU, 0x3e447cbcbe2cb1acU,
  0xbcfef8bf3df99b0eU, 0x3dacf6563d7c9bfdU, 0x3dbd91edbe2dffa2U, 0x3e9ff43b3e102785U,
  0xbd938a253cca9cd6U, 0xbd0a1f343d8095eeU, 0x3cddfcfcbda69c32U, 0xbceedc153dcf1f1bU,
  0xbe24c8ba3e254889U, 0x3da665263e17b2e4U, 0x3d7dba8bbd4f4b5dU, 0xbdb57e3a3dccd2c4U,
  0xbd65423dbd1e88e6U, 0xbd7261103e05fb0eU, 0x3d48e224bdd05ef2U, 0x3bb30a34bd59fd99U,
  0xbda78631be09b171U, 0xbd38da2b3e95b62bU, 0x3b33ca8d3d7c3f8aU, 0x3d915131bc848510U,
  0x3e2a4ebe3e5ca3deU, 0xbce1b6953cbace8dU, 0xbdbbb60abd28f475U, 0x3c8780a2bdf4c588U,
  0x3da1085f3d826faaU, 0x3d6198cebceab604U, 0x3d9aa3dd3cd6d982U, 0x3dc78f383cabb1a4U,
  0xbdb51b1dbe7cc2d5U, 0xbc5be8583d8ba08bU, 0x3d65bcb73d853e84U, 0xbe7f05433eb3d9aeU,
  0x3dcd83bf3e23613fU, 0xbea5c131be567fcaU, 0x3e942e4d3da985caU, 0x3dd53aa93d884483U,
  0x3c444856bda9aaf2U, 0xbd02ca4a3ccc440dU, 0x3d8a4492be100b3eU, 0x3d1ae197be2eecbeU,
  0x3da62869be8777d7U, 0x3ea31ee1be3b9a4dU, 0xbde16d54be1c6cbfU, 0x3aae2b8a3e14d173U,
  0xbc8ba1fabdb481d9U, 0x3d350f0e3d2afdc3U, 0x3e17d652bd54d773U, 0x3cb81aad3e2870f5U,
  0x3e6980283e1f94cbU, 0xbe1193513dab6eafU, 0xbd88e5023dbcd19cU, 0x3c711ba2bd671c88U,
  0x3d8f9a963e10344cU, 0xbdd2041ebc0ffc2dU, 0x3de99124bd2945fcU, 0xbdd98b3a3e1d0f33U,
  0x378dc9213dd8359cU, 0x3e1683c13e68577cU, 0x3dc13afc3ca4abe7U, 0x3dab94143e14bd73U,
  0xbd0374b33e04e3c7U, 0xbd54692c3e3f104dU, 0x3dc317af3df96384U, 0xbd6d57633ddd090aU,
  0xbe5942923e0ed98bU, 0xbde05eed3db1c996U, 0x3e0079d3bc7b5017U, 0x3e2c2ebcbc0a1fa7U,
  0xbe18a712bddbf885U, 0x3d109abb3dee0c00U, 0xbc98dc303d73bff7U, 0x3ca2fc41bd5f1e1eU,
  0xbc6a378b3cc474dbU, 0xbe86fe8e3e2354d8U, 0xbe039c59bd435c9cU, 0x3e8280953dec1b41U,
  0x3dc025063da33246U, 0xbbac630b3e333d7cU, 0x3d6dbcf3be0ef8a1U, 0x3d97a9333d7d6e0cU,
  0xbe7369763de76bd1U, 0x3e1a8666bbb4653cU, 0xbb178d10be41e377U, 0x3d05b7d13db08856U,
  0x3deabb673e13d9f1U, 0x3c01122ebd486101U, 0x3e0b07bfbe32b73cU, 0x3e4cf8c8bcbfd311U,
  0xbe21d7dd3df02217U, 0x3d792cf3bd76f2bcU, 0x3d2e87afbd9088d1U, 0x3b3a6292bc852888U,
  0x3d8b1bff3dbb1f78U, 0x3e0c56f03c14da9dU, 0xbd3195f23df03b46U, 0x3e4fa203be8980bdU,
  0x3c05b2433e917b7bU, 0x3d7784ddbddd1102U, 0x3c9799d8bd657ab3U, 0x3ddb1f703c594dccU,
  0xbdb4c87dbd9e7ad2U, 0xbc955d82bdbfcf0eU, 0xbc6b2c71be0fa87aU, 0xbe235ef63d102410U,
  0x3e4776e4bd618888U, 0xbca2e843be51fca2U, 0xbd27aebe3e67f565U, 0x3e1a71e7be29523cU,
  0xbba3eecd3e22ed78U, 0xbe5457a03e4a1f8eU, 0xbcb043863d7b07acU, 0x3ddf46e23e4d4465U,
  0x3d6867b6bde0de2dU, 0xbcdd1e36bca432d0U, 0x3e0285d2bd7f7f38U, 0x3e5c75aebb8e7c50U,
  0xbd2dda6bbd7d53b3U, 0x3dc7cd01bdecde25U, 0x3d8effa93d80f041U, 0x3e31f287bc8f62b1U,
  0x3c9ea773bd9ffbe3U, 0x3d3ea4343db34e17U, 0xbb08ab703df3497aU, 0x3e052d553e8c0bd4U,
  0x3d2371f33d981e2dU, 0x3e02533e3a277461U, 0x3dc8a9b4bd888a91U, 0xbea6333cbdd4e73eU,
  0xbdb42c29bd987523U, 0x3dd47799be2a87c2U, 0x3e8c5bf4bdf22935U, 0xbc4027cc3aad45e6U,
  0xbd14c963bddacb94U, 0xbd822bc13e34ef06U, 0xbe35b095bd993899U, 0xbe289a743e66d546U,
  0xbde41777be8f752fU, 0x3ca5574e3ce9eb97U, 0x3dcc08f4bd168782U, 0x3e0dd5c7be1f4b79U,
  0x3df066a5bd1fe503U, 0x3d5fb86b3d83b2beU, 0x3d899f783ce1a3c8U, 0x3db2f74fbe2d1e24U,
  0xbbd0121dbe5aad0fU, 0x3cf3954cbe4b5219U, 0x3e9931af3d48fb69U, 0x3d2d9a143e04ab6eU,
  0x3d1cd0c3bdf6262fU, 0xbba2c3813d4abd54U, 0xbd861ed73cc26547U, 0x3d9735dc3e2787a6U,
  0xbe829a70bea1428bU, 0xbdf4f573bda15b11U, 0xbd80624dbe4c2d58U, 0x3c948393bd84a95fU,
  0xbcf750783d21006eU, 0x3ca0cea73dd46469U, 0xbd2fdda53e1b59cfU, 0xbb5966503d82a8bbU,
  0x3dac7cf83def9af5U, 0x3d078de6bd2ccffbU, 0xbd2c4ee73da98240U, 0x3dbef2fa3d1fec95U,
  0xbd91ad34bcbdddbbU, 0x3dc2d484bd9bfcf9U, 0xba931eab3e3d5143U, 0xbe25e9b23edce1f8U,
  0xbe1b8534bd5c2b7eU, 0x3e0d18493e2deb47U, 0x3da54c28bd6740cdU, 0x3e8a5afdbbaf4c6aU,
  0x3b6f40603de04f95U, 0x3d8712ee3ea92de5U, 0x3e2a46c5bd2dd4adU, 0xbd9ec1a93e2f6cbcU,
  0xbe262c52bd61c37fU, 0x3e24125d3de8b332U, 0x3d8000fdbe06e8cbU, 0x3e0fca593e81d7e5U,
  0xbd9138a9be0ed222U, 0xbd5ab2cc3e51436dU, 0x3d875740bdfe875fU, 0x3da22674be3ea36cU,
  0x3d81b708be007d69U, 0x3e11a229bd501e24U, 0xbe939a8c3d7f9f22U, 0x3e851c603eaa3f5aU,
  0xbb805678be842879U, 0xbe819f78bd4b9f6cU, 0x3dc60a9bbdfea23bU, 0xbcbb86423bc9f71fU,
  0x3ceff230bddd7906U, 0x3d9d18d33d7d3dc6U, 0xbce60bc1bdbe5163U, 0x3eed3744be434999U,
  0x3e0e1121be197f78U, 0x3d9d047bbdd4dd96U, 0xbcff6bfa3e766bd9U, 0x3dbda9353ddc4c80U,
  0x3d68b461bd50e3c5U, 0x3d188ec13ded7213U, 0xbd67ee573e39122aU, 0xbdeec2de3e25c043U,
  0xbd5daf51be21fda2U, 0xbdf186b9bea52469U, 0x3e9575c13d58b28cU, 0xbda166443ded9949U,
  0x3e1340b8be2886f9U, 0x3dd206c13d951b0fU, 0x3e14f08fbe3987a7U, 0x3e5cd48ebc4443daU,
  0x3d9c9155be96ca05U, 0xbe616767be7f636bU, 0xbbdf98273c16ee2fU, 0xbe1b022a3e16c3dfU,
  0x3de1c7ff3e06bab2U, 0x3dd81c1dbb85e196U, 0xbdf635e53d31a61eU, 0x3dae984f3bbf0b22U,
  0x3d7fa6e93d02d98eU, 0xbda99b1b3d862a4cU, 0xb9b86887bcfd0355U, 0xbba345713e416cd1U,
  0x3e19e10fbd387942U, 0xbe5c74893df7152fU, 0x3d79e964bd34ef06U, 0x3e379a1fbe54313fU,
  0x3d8c796abdecb390U, 0x3d26a03a3d88f3dcU, 0x3de637a53cd05825U, 0x3d8e0f473e0e791bU,
  0xbd6d2bbcbba40e59U, 0xbd9401453d9aba44U, 0x3e2073f9bd46a176U, 0x3d20d4063e0c0a43U,
  0xbd623e23be68fee3U, 0xbe637e77be13b82eU, 0x3e01dfe8be10006cU, 0x3e02022fbd831a2eU,
  0xbce0728fbed46a5aU, 0x3e3d12f63dc398c6U, 0xbeb702bf3e2927c6U, 0xbdc94ebd3e2f56faU,
  0x3da58973be87a4baU, 0xbf1e13c7becbbcfcU, 0x3d25de00390dd57cU, 0x3d2c31f9bcdb4e5dU,
  0x3d68ac6bbe5f6f0bU, 0x3e286fce3deabe33U, 0x3dd4a0593e03dc97U, 0x3e2cd5cc3def170bU,
  0xbe3610c6bdfddd36U, 0xbc97760fbd8bf6abU, 0x3e346d2c3dd86b0fU, 0x3d647f1bbe782402U,
  0x3d2d7b5dbe648bc5U, 0x3d9658e33e2ebebaU, 0xbe2186a33e1d127dU, 0xbe24f4093e48a25cU,
  0xbdfa28debd8cf416U, 0x3da4c6c3bdc9d669U, 0xb9f0dce2bbe8aef0U, 0x3d9e52abbe1f8bafU,
  0x3dfe25f93d53fe59U, 0x3e2d3ddbbe5418a9U, 0x3e31f215be3326b7U, 0x3e4955a8bd837ac4U,
  0x3d3caea4be6016ffU, 0x3d8d7cd3bdc2d057U, 0xbebfcc8bbd2f3887U, 0x3dbfc53ebcf3b385U,
  0x3e4ff390be09ac3cU, 0x3dbeb9a4bd890095U, 0x3c8604ae3dd44f8aU, 0x3d883b82bd3ab0a4U,
  0x3dab6629be58c5ccU, 0xbb99c3d6be18cdebU, 0x3d72a05fbca67cffU, 0x3e56f2913d81d384U,
  0xbdcfb8463ce4293bU, 0x3dd4f7a9bdc32f30U, 0x3d9e75f53e4f667aU, 0x3df58b30bdef86d2U,
  0xbd081fd5bd223de2U, 0x3e88ec06be2e4eceU, 0xbe7923dbbdab55d9U, 0x3e76516a3c06fc92U,
  0xbdeae6753bddd56fU, 0xbd2517acbe24efa4U, 0xbc5c4229bc879a78U, 0xbd2aea603da9ecb9U,
  0xbd3a701d3c3a1f8aU, 0xbd08ca6fbeca55b3U, 0x3df8d93d3e0bf3feU, 0x3c8d7c473d4b88dcU,
  0x3d1430b6bcc73730U, 0x3b8556a03d8caf74U, 0xbe07e7a4be36d0f9U, 0x3e2b98d93dba95f8U,
  0xbd80e949bbbbc2d5U, 0x3e7110013da9c0baU, 0x3e85f5143e9d42ddU, 0xbd6c60173d9afbcbU,
  0xbd16edec3cf092bfU, 0xbd0426dd3e1297deU, 0xbe827e2d3e03e1fcU, 0xbd634506be1861b0U,
  0x3db5d1eb3d79e549U, 0x3e2f4adc3d591eb8U, 0xbdf9dfbdbde34ed4U, 0x3df6d48d3e40fc7dU,
  0xbd8ca1e03e32f808U, 0xb9c5aca13d20a887U, 0xbe6acc0c3e80ebe6U, 0xbe5dfc16bcc898acU,
  0xb97935bcbe4c2358U, 0xbcd85b8abc893dc2U, 0xbc032b873e32c193U, 0x3e00d0ccbdd5e144U,
  0x3d55c5903e13d5daU, 0x3a8b2633bca1980fU, 0xbcf6c4903de7bdbdU, 0x3d80be4a3e309c1cU,
  0x3e225e3e3da8e4daU, 0xbe46f7213e367195U, 0x3e50da48bcb9c429U, 0x3d69dc633dd57b26U,
  0xbec9998fbc21f051U, 0x3e008be03e89be5eU, 0x3df3b28ebde58a33U, 0x3dca1488be387322U,
  0x3d136426be42bdaaU, 0x3c8863cc3d844183U, 0xbdcb7fc3bd613be7U, 0x3dc50eac3da040d2U,
  0x3d5a531ebe8ac127U, 0xbd32d51fbd91dde0U, 0xbc9baa843e26b0e7U, 0x3e031d6a3e21972bU,
  0x3e1660ecbd5c92efU, 0x3d014573be5b1861U, 0x3c2de3bebdc1d8c4U, 0xbe2ba95c3d74a52cU,
  0xbddcb6ddbd19917aU, 0xbc2d9b7fbcdc46d5U, 0x3e15d2f53e3688c3U, 0x3dc8111c3cb5b11dU,
  0x3ddbe9283c5da0daU, 0x3d92567e3d66d08bU, 0x3d827828bbbd2847U, 0x3deb407dbd45fe31U,
  0xbd9aefc03e1a556eU, 0x3df5f853bdace6aeU, 0xbd41b670bc0251e9U, 0x3d960681be07dec5U,
  0xbe33e140bd7a3dfbU, 0xbe4e3c0d37ed64a7U, 0xbe859a5b3e82afc7U, 0xbd5cfe153e3b14efU,
  0xbd3d31e8bdc4c3e3U, 0xbd2393b4bdf50cd7U, 0x3db264f83d24e6c9U, 0x3d894f1e3c04bdc0U,
  0x3dc3c1c9bd72ae3dU, 0x3cc45dac3c8f5611U, 0xbddc370a3deed278U, 0x3d95709cbd85e46fU,
  0xbd89bd37bb9b2ac6U, 0x3ac4fbff3ded28b8U, 0xbdcb3751be1f1d2aU, 0x3e1711d73ddaa4d2U,
  0xbdda26e8be119e4cU, 0xbe1c8ffcbd882c2bU, 0x3da50d923d00d7d4U, 0xbe24e7353cc0970bU,
  0xbd0e94ed3cf1aa62U, 0xbd687a903d145ed1U, 0xbd8dfbf3bd07b32eU, 0x3da875b53db80827U,
  0x3e79b066be0a3d16U, 0xbdc9a491bb87aaf6U, 0x3e34a7313d9083cdU, 0x3e8e29333d43b195U,
  0xbd0244c8bdcd5273U, 0x3d95b97fbed268d0U, 0xbdf127bb3cd06927U, 0x3de03087bd982012U,
  0x3e19a4ecbe5f0be5U, 0xbe4066f03d867b66U, 0x3ca45552bd82993eU, 0x3e0c73a43e186a96U,
  0xbe072bacbde7cf34U, 0x3d240df7be1f18e5U, 0xbe0b5909be31b444U, 0x3e29725c3c8853caU,
  0x3e2f168abd368df1U, 0x3b841fdebcf14323U, 0x3e178eccbe053e1bU, 0x3e909b33bd97ca4cU,
  0x3dd5521dbeedf673U, 0x3dd705a33d9cd968U, 0xbe22ee703a9cfbc9U, 0xbcf8408e3e3d660eU,
  0x3db2c0a03d9c7c7dU, 0xbc26f0253e889bd4U, 0x3e3c8f0ebd81f06eU, 0x3d17c3aa3e464bc8U,
  0xbbd017103b0f42abU, 0x3de4150e3da6df78U, 0x3d902e26bda526f2U, 0x3e3685d3be057bcbU,
  0x3d84f731bc7259feU, 0xbb5997173da6b935U, 0xbe01350bbc803999U, 0x3eb876cfbded52adU,
  0x3bd510853d1f6376U, 0xbdcd7290be2d3407U, 0x3dae18aabe1dde67U, 0x3eaa4c8a3d8cc20fU,
  0xbde8ee0cbdf4d654U, 0xbc93c9f43d5a149fU, 0xbdabef4a3e3a0e86U, 0xbd604b9f3e0325c3U,
  0x3d8829c9bd887cc9U, 0x3ad072b4bc43ddb8U, 0xbe2075e53a84898bU, 0x3d9bcfd3bd453a2fU,
  0x3c89fc133cfe1477U, 0x3db1338a3c9f80caU, 0x3e9f34723dc96936U, 0xbd0f3057be153bfcU,
  0x3e1737c7bd161f07U, 0x3d8e06b5bd67efb1U, 0x39da16753e39c428U, 0x3e2b44ea3dc3cda4U,
  0x3d51e21c3df372e2U, 0xbd093b923db67352U, 0xbc6666eabd1dd266U, 0x3e8d0c5d3d5cd849U,
  0xbcd96edd3e7889b0U, 0x3afa0c8e3c9e9626U, 0x3d958afbbe4089d7U, 0x3e908efc3dc4ef5fU,
  0xbc88c9a03d3d2008U, 0xbe5d68febde1a8d0U, 0xbc5cf9583d9a9fdcU, 0x3e152be33e0a7712U,
  0x3d406e43bde1fbeeU, 0xbdb9cab9bdb8bf6dU, 0xbcd10e933c83667bU, 0x3e1acbac3e3d20f5U,
  0x3d84d1f03e033244U, 0x3e2108603dc7e546U, 0x3ceaa9843d2e065bU, 0xbd061f233e259d8cU,
  0x3e8388683e15fbd5U, 0x3d317dbe3c14c6eaU, 0xbd1e56993e0f7a95U, 0x3d6a8b3cbd3f1da1U,
  0xbe315e49bd964298U, 0xbdaccdc5be444122U, 0x3dd9f0993dc18e75U, 0xbd7359d8bda68dd1U,
  0xbe0e9639be31c408U, 0xbd57a3d23dda49e9U, 0xbe743d2cbda18749U, 0x3d9810313e39ac32U,
  0xbe179dd83eac05f4U, 0xbe317e22bddc7d8bU, 0xbcfc9561be21a4b8U, 0xbe3980043c51f921U,
  0xbd5ec6293d91f71fU, 0x3ddc45d7bdbd835dU, 0x3e1bf466be4dfa5bU, 0x3e01e748bd37ba2aU,
  0x3c5859823daae66dU, 0x3dc7ea7c3e810f9fU, 0xbd8f824e3c24f437U, 0xbd5a494f3eb5a939U,
  0x3db225af3d8a74f5U, 0xbf05754c3d7e40dfU, 0x3e298c32be4387fbU, 0xbe9082293e06ec12U,
  0x3d6ecac13e597a37U, 0x3eaf25f13e2a0839U, 0xbda2126cbce118c6U, 0xbe92da93be3d9d53U,
  0x3de8a2263e9f4527U, 0x3d815785beaf119bU, 0x3e81e254bdc954c9U, 0x3e68bbee3f086f53U,
  0xbe1d86e4be48ca70U, 0x3e9654c9be6c543dU, 0x3e9f7a613cadaa65U, 0x3d5376b2be817b32U,
  0xbe583e30bd5e1dafU, 0xbe7eed6abc884f3aU, 0x3e87688f3da98002U, 0x3e976dd33d22ed9aU,
  0xbe11757bbe8c083bU, 0xbe14f7243dde9576U, 0x3e47beaa3da4b384U, 0x3d885120bd2fab3dU,
  0x3d96bc78be9fd9a9U, 0xbd2eb052bde39199U, 0xbe96f3dabdaa77deU, 0x3cc850a6bef6033bU,
  0x3bac89df3e03ddeaU, 0x3e0af8823e8e88b4U, 0xbe07273c3dcbdc0dU, 0xbd1077663ce7cba4U,
  0xbdde89c3be719874U, 0xbdb354f3bddb4eaeU, 0xbefa0ffb3baec309U, 0xbea48fb5bdde11edU,
  0x3deba0033c426536U, 0x3e90888cbebdbf47U, 0xbe229ca0bd77d19fU, 0x3c57fb83be0bd5e2U,
  0x3e33af693e38fdf2U, 0xbe0f351c3e96317aU, 0xbef061ff3e057a1cU, 0x3c2d257d3c8be754U,
  0xbe13985e3d7e3776U, 0xbe1c44173d29fb7fU, 0xbdbf08173db5b915U, 0xbd6661cd3e48eed2U,
  0xbe5674a1bd323cbeU, 0xbd31c4513da199c5U, 0xbe2e55213d4345b1U, 0x3d7d01b0be2c9299U,
  0x3e2739d9bdaf7d4bU, 0xbee49430bde9f3afU, 0xbb57963dbcaadec2U, 0xbe50819f3d3d9bf3U,
  0xbd8bd60b3db69279U, 0x399f0237be5a1848U, 0x3de02683bd247efeU, 0xbd89c2b53d27239aU,
  0xbdce1cc5bd5cb990U, 0xbd8bd60bbe17bb51U, 0x3e03ebc23d37846aU, 0x3d951420bd2e8449U,
  0x3e36c4cb3c632e0bU, 0xbd363c473de4929cU, 0xbe9929da3d10f218U, 0x3dd273163d215802U,
  0x3d05410d3d5ae5e8U, 0xbc2706283c6eb971U, 0xbd5572043e153256U, 0xbe32e2503d0f8853U,
  0xbda8f918bf1b31f9U, 0x3d0f127ebe209014U, 0xbeb594bbbe99d7b3U, 0xbdb8a7f43d499a5aU,
  0x3e3c3627bc9414feU, 0xbe760850be851fc9U, 0x3dabccb0bd9c78c0U, 0xbd0b022fbdaea804U,
  0x3c931f663ccb92cfU, 0x3deea05f3d6e6b86U, 0x3e39af063e1b88b1U, 0x3b0aa6143dcb9a3fU,
  0x3dc952cabd73909fU, 0x3df01a82be0bce53U, 0x3e83fdedbd850c09U, 0x3d8d1e71bcab5301U,
  0xbd998ad13e010ee8U, 0xbd253bd93e0172a1U, 0xbd3729493c681befU, 0x3dc2b4943d57f886U,
  0xbd223cb23d192172U, 0xbd98e1f1bd12cd1fU, 0x3ddb4b753d1d6d20U, 0x3d5027663d5adba3U,
  0x3e1b3d41be0cdf57U, 0xbdff15f63d9cbea6U, 0x3e06be70bd986dacU, 0xbe043c333cf403fdU,
  0x3d03c3c4bc9bc936U, 0x3be6d619bdca23f1U, 0xbd598fce3e55b37dU, 0x3e8e4dd33dd86751U,
  0x3e3a5729bd222931U, 0x3e8d22053e22a1d4U, 0x3d86439c3d8a052cU, 0x3e832d9c3e78082cU,
  0x3da25c65be0a49c9U, 0x3e653319be3b00e1U, 0x3d231260be53ce04U, 0x3e41b81dbd3d8fd3U,
  0x3e39f5433e0b11f9U, 0x3ec2af78bdb1e99cU, 0x3dd98fa43eaac959U, 0xbd20f9cfbed9fc23U,
  0x3dd59eaebd4883afU, 0x3de834f23d3d68c2U, 0xbc14fa9abe8a9d95U, 0x3e99a69cbebbd715U,
  0x3e0220d33d4f98c3U, 0x3d57d1033e81b4bdU, 0xbe1d156c3d818fb2U, 0xbe40d9703c76ed33U,
  0x3e0b30853d4f1323U, 0xbd39a60b3ce6bd2eU, 0x3cbf9ebabe0fa64fU, 0x3e92ceafbd836436U,
  0xbd0ee743be5496b9U, 0x3c4c61e83e03f66fU, 0xbcb20d37bea04d66U, 0x3e932e5fbdafd933U,
  0xbe3a3e963c9fdbb7U, 0xbcce620a3e3092f7U, 0xbe595b91be1bbefdU, 0xbe83485f3cd7515fU,
  0xbdf9f4553de7822aU, 0xbe64792e3d1535d3U, 0x3e4ce846be070a8fU, 0x3d7c09483de43328U,
  0xbdf214573cb8fa96U, 0xbd7c477fbdaede7eU, 0x3c326942bd84e414U, 0xbdbf06debe3d3769U,
  0x3ba998a3bec3713eU, 0x3d407b9c3e1e8ffaU, 0xbb129ea93c2d58bcU, 0x3cdaea99bc93b705U,
  0xbd9f7bf1be4df8ceU, 0x3e37db6bbd7156b9U, 0xbcfa278e3d147f79U, 0x3c906f1e3c8ec37bU,
  0xbe387b76be91971eU, 0x3e78eee63d5f3f93U, 0xbe0017a0be6e7d84U, 0xbcc09aa13dc2d41aU,
  0xbe4f356abd9bf8afU, 0x3e92ea59bc19d542U, 0xbcee94993d20023cU, 0xbe78432c3d2fff2eU,
  0x3d6e9077bd1366cdU, 0xbd69e3c8be1fd28bU, 0xbd440a7fbbc6ac09U, 0x3cf3343fbd0b86d8U,
  0x3dfc17793dee77ecU, 0x3cbfae01bdf27c66U, 0x3d81a42abdba41a7U, 0xbdb72dcb3d86b311U,
  0x3dd046783d19c061U, 0x3c4ef2d93d9d186cU, 0xbba3f99fbdafb620U, 0x3d0a494ebbd49ae5U,
  0x3bb4843dbe01acc1U, 0xbd7662483d668735U, 0x3cf4222f3df01d05U, 0xbc26355bbe76eef5U,
  0xbd1ef433bdb4458aU, 0x3e25495a3d27e4caU, 0xbddfcfc3be8da253U, 0xbddb8d7f3cab3b4eU,
  0xbced5a2bbea1b786U, 0x3ccbc7ae3d474f60U, 0x3c43f47e3e36eab2U, 0x3dba9b7d3e0740b5U,
  0x3d55a62bbdfa657bU, 0x3db15d253de31f7cU, 0xbdaf3abe3e9b8c7cU, 0xbba2608fbda35b1cU,
  0x3d8bf7e03dd6bc8cU, 0xbbd612853d751baeU, 0xbd01ad06bdb56362U, 0x3e612cb53e0ea8b3U,
  0xbced85b9bd92040eU, 0x3e68fdbcbbfef667U, 0x3de1e9123dc08ea0U, 0xbd90d8d0bd96dec1U,
  0x3db6e4cb3c8bab0aU, 0xbc13d92ebda87120U, 0xbe0c0a283dbba634U, 0x3eae8683bea0e79aU,
  0xbc8c714bbd88826cU, 0xbe0cb3edbccafa8fU, 0xbe1eb822bbe1cdf0U, 0x3e4ed8b03d9ad3a8U,
  0xbe7d0d3ebe2558c7U, 0x3d06cd0c3d1e63a5U, 0x3e52c5c53e29d756U, 0xbdf66a0a3d88c049U,
  0x3d931febbd6f282bU, 0xbe81e7613e4d6fc8U, 0xbe4c5db03e764731U, 0xbb128f53bd4eb0b7U,
  0xbdf518763daaa84eU, 0xbe72f8103d72e80fU, 0xbe22df10be3db89eU, 0xbe9d13f9bc108271U,
  0xbdf95bc93cc43274U, 0x39edc4bdbea0bc86U, 0x3db8e06abe298200U, 0xbd2f8da23d864b54U,
  0xbe1a89863cfe2837U, 0xbd8da51ebac74f4bU, 0xbd227e073d7df54cU, 0x3c7691ebbd46e03eU,
  0xbd236df3bdc69819U, 0x3d0b01063abb338dU, 0xbbdc03253dbea535U, 0x3df11072bb457bbdU,
  0xbe099923bdd5afb8U, 0x3ddb249bbdc70836U, 0x3d4a3b9abd45eb0aU, 0x3bff9bcf3dd62fdbU,
  0x3e17896a3e4752aeU, 0xbd2b02d73d852b3fU, 0xbec40eac3d4ff708U, 0xbce57b29bd42ed7aU,
  0xbda922233e544060U, 0xbeb4c131bc85676eU, 0x3c9cfa2bbdda4bd0U, 0x3e04f03bbdeac935U,
  0x3e9450abbee6972fU, 0x3dce7b2bbe311240U, 0x3e090e82bd48d45eU, 0x3e2f4b753d3a90dcU,
  0x3d0d6e41be4ca0d4U, 0xbcf4f3f6bdfe04d8U, 0xbda1585d3de42fa6U, 0xbe4a42d03da0f883U,
  0xbe031e783e6ca455U, 0x3d2a2dc63df71c5dU, 0xbee70417bd3b2d21U, 0xbd2980d2bd3b248aU,
  0xbdb606993e9be603U, 0xbf084c143c07ecffU, 0x3d78e6eabcbe62ceU, 0x3d6d71c73c3bde04U,
  0x3e04a706bef639ecU, 0x3dd98e5d3d90c1a8U, 0x3e5d17b23dcbe6d9U, 0x3d6dcdc73d20cdf1U,
  0xbe2ea4173d5cbda4U, 0xbe36d8efbb55908cU, 0x3e5182cfbdb5e2dfU, 0x3d2069203e33278dU,
  0xbe3a0fee3d92dfe2U, 0xbde07df73d5a69ffU, 0xbe1ed29cbe3e8e93U, 0xbd9b1066bcc26f23U,
  0x3ceff0e4be85a29bU, 0xbcf6ec46bd80be01U, 0x3cf627813de81a9dU, 0x3de23eebbdce62c5U,
  0x3dd61aacbec95c88U, 0xbd46407b3c055fbdU, 0xbc438e963d9e4018U, 0x3d5fb98d3e350087U,
  0xbc87baf9bea0b244U, 0xbe4195f53d84c8c6U, 0xbc60ed383d089e27U, 0xbcb49a853ddf656dU,
  0xbe525558be44d1a3U, 0x3cd33d98be68aa5eU, 0xbdad0363be3713c8U, 0xbda0b55fbd8a9703U,
  0x3d2f182dbe03e659U, 0xbe180e39bd6db57eU, 0xbd3b4fe0bdaaf5b7U, 0xbe0f45cf3d07a628U,
  0xbe073679bd06b7e7U, 0x3b326e8bbd3b4fb9U, 0xbd9e25f9bdecdd19U, 0xbc3b02f13d0325a2U,
  0x3d87acc4bd7eb1c1U, 0x3e351643bdc4264cU, 0xbd9cc2f13d98a355U, 0x3dad289ebe13b2a9U,
  0xbe81f6f83d27ba5aU, 0xbc4411afbe13bfe5U, 0x3c597e20be28ae64U, 0x3e119acf3c2fe8cfU,
  0xbddfac2e3d218df9U, 0xbdf7b70ebd8f8f97U, 0x3a94baec3d85b372U, 0x3bbbdab0bdeddc95U,
  0x3b95fefdbd862bc0U, 0x3da653cb3bde263dU, 0xbcb09539bd5fae95U, 0x3da7a924bd728ae6U,
  0x3e3e93f83dd3cbb8U, 0xbe21278b3e7068a6U, 0xbd836268bea7b4e8U, 0xbe318ee63ddbbd4eU,
  0xbd7535b83e3add66U, 0xbd3efb8dbcff78e1U, 0x3e7afa3f3c2fc2d8U, 0x3e1ceddebb39b695U,
  0x3dc626efbe6e67fcU, 0xbe639abbbe85d7aeU, 0xbd3c77083e089ff7U, 0xbd0a3c96bea3afabU,
  0x3e299e3abdfc832eU, 0x3e0105fcbe1b04baU, 0xbecbe54f3e98318cU, 0x3d72f3793dc910f8U,
  0x3e3007f3be64cc2cU, 0x3deda0d1be85eb91U, 0x3e477a76be937603U, 0x3eadd9a73d0c7d37U,
  0x3de0e6bbbd7fcbefU, 0x3e226acb3dbc332bU, 0xbd42d32cbcdc1c9eU, 0xbb9dec79bf075d22U,
  0xbba9f9ca3e8cda6fU, 0x3e17a5e53e2bdad1U, 0x3c3aa5c3beb17d8bU, 0x3d5a34f33e256012U,
  0xbc3c964f3d9c643aU, 0xbdee2de3bbdc23edU, 0xbdb7bc4fbb54654dU, 0x3e38be21bdf4ac87U,
  0xbe664b39be824761U, 0xbe4faa38be3fb6d0U, 0x3dbdbf173e88f038U, 0x3db2841bbe1b11c9U,
  0xbe138178bdafe825U, 0x3ddf5a0fbc28d346U, 0xbdc247fcbd706aacU, 0x3e4ffd633e22cd69U,
  0x3e03e6f43d7cb916U, 0xbec55c763dbb31e3U, 0xbc2bbd27be5195f2U, 0x3b2de441bc7ef45fU,
  0x3d08956e3d671aecU, 0x3e862469bd42481eU, 0x3d81ec8fbe0c0d5dU, 0xbecc9c30be237827U,
  0xbd3206b13e412464U, 0xbc1965763a7a9ca0U, 0x3bf97c8abe2fa747U, 0xbdfd93c7be75043fU,
  0x3e3d810e3e531b3aU, 0x3e793226be92a9a4U, 0x3cf8d3a53dd7138aU, 0xbd57f179bdeafaabU,
  0x3e4ca09abd93e14eU, 0xbe686b89bf024226U, 0xbdc648ab3dae8ab4U, 0x3cc7fa8cbf046863U,
  0xbdcd7d67bdaf924bU, 0x3db5174f3c38bd6bU, 0x3a179b22bdab6272U, 0x3e14c23a3d27693dU,
  0x3e2373e03cd4492aU, 0x3c7d7a5f3e0768d4U, 0x3df08316bd890b0fU, 0x3d83b3033d522688U,
  0xbeb84c393d46c868U, 0xbddd41873e06c297U, 0x3d849352be289562U, 0xbe5d95d13b7917e3U,
  0x3e7a3c463d530c07U, 0x3d0b8cb3be7fefbeU, 0xbd5ad6693e1d6513U, 0xbd75ee17bedf5d00U,
  0x3bf2883c3e7bc289U, 0xbd500f23be1abf86U, 0x3def7cd43de7ea36U, 0x3e40cafd3d7e13bcU,
  0x3e9b49bd3d53b8ccU, 0xbe2e04ce3d9f3817U, 0xbd04aafcbd35a11eU, 0x3e0c2fb63cdfe24cU,
  0x3e5c9a8fbe5f1afaU, 0x3e76d21b3cd2cc74U, 0xbe3488173e3deca9U, 0xbe24f83ebe0a1146U,
  0xbdde457bbe19f230U, 0x3eab8234bb748b5aU, 0xbdb20356be202763U, 0xbdae62ed3e14543dU,
  0x3ec5b9c03eb43431U, 0x39fca37e3cf29810U, 0x3dd533b7bce798edU, 0x3eb7aa99bd3e9adcU,
  0x3c4dd965bdd836bbU, 0xbd9532d53cbd29b3U, 0x3c942dc23e099859U, 0x3e6201bc3de8c1fcU,
  0xbc69636abe82fea0U, 0xbd8aa7a7bdbd3b43U, 0xbe1ef7e03d873726U, 0x3eae9c3b3c83f75cU,
  0x3e106fcbbe0b13e5U, 0xbd6d319c3cbc0a56U, 0xbdcfd4b8be086cbeU, 0xbe1274ec3eba51c4U,
  0x3be81165be37f033U, 0xbe9dcf223e94c456U, 0xbd9cf3cd3e54904dU, 0x3d11a0fb3e20e4e5U,
  0x3d9d8324bad8a030U, 0xbdefcd31bd935471U, 0xbdf6f8973e437991U, 0xbe22edcbbcb28d82U,
  0xbd9a8bbc3d27f244U, 0xbe897e103d8ffe61U, 0xbdbce2103e886644U, 0x3e0c6b5c3e0db82fU,
  0xbccf239e3d9c8c85U, 0xbea7f6ce3c81f290U, 0xbe59258cbdbd1430U, 0xbe90c1e43d1668bdU,
  0x3e540ffcbd1e3201U, 0x3e62877fbe54cd44U, 0x3db2c3babecc9c5aU, 0x3daa2930be0e5cf5U,
  0xbf165d08bdc709a2U, 0xbe15530ebcd39c2cU, 0x3db7b3ff3d7d5117U, 0x3d5e495aba3eaa5dU,
  0xbdcfee6abdb46139U, 0x3d9bf766bcad6940U, 0xbd47e9ab3dfa1517U, 0xbbeafefd3deeaebcU,
  0xbef9fd51bdc2df86U, 0xbd84c9e93e26bf0dU, 0x3d09cc2a3cf0362dU, 0xbe0bb9b13e746b96U,
  0xbdcd95d73c951046U, 0xbd82021bbacb1939U, 0x3dfe49f53bfbaceeU, 0xbe0131353d49ca4dU,
  0xbe1ce7eabde1cf9aU, 0xbd9f482e3deeda80U, 0x3e5e4fc2bdfa6825U, 0xbe04b04a3dc13508U,
  0x3c574ebe3d887045U, 0xbdf33383bdbda0b3U, 0xbdd5e89c3e073ef1U, 0x3ddc43debdc7c108U,
  0xbe9429f63d6627eaU, 0x3e362c8fbd602b3fU, 0xbe47c1c5bcd7702aU, 0x3db5b217bd938fb4U,
  0xbe06117dbbb01037U, 0x3cb655343d1d3174U, 0x3e1e353ebd685b53U, 0xbd3299343e1502efU,
  0xbd9b38623db271d6U, 0x3da8b4ab3dbfc138U, 0xbd85fa323e48ca6aU, 0xbe4b0d813d23847aU,
  0x3ca6e707be0ea8b9U, 0xbe6c7e05be1c2d17U, 0x3d6fb601be29264eU, 0xbe13b4fbbda8e44fU,
  0x3e16f7d63e332454U, 0x3de32e6d3e1f8091U, 0xbcb0b84ebe5b4248U, 0x3dcd7085be1ef11bU,
  0x3e5a0cbd3e0a7acaU, 0x3e8e2bb5be92f470U, 0xbcb61f613de36f24U, 0xbdad9303bdafd4e1U,
  0x3cd6f3563bcbe0c2U, 0x3e4384f0bc0ed605U, 0x3de14cb6bdef8db5U, 0x3e89a45b3daa9bf8U,
  0x3d317ae8be8a7e1bU, 0x3e0feb573e2bb8d1U, 0xbb906af0be715a00U, 0xbe3f74abbda03f1eU,
  0xbe15f45fbe03fc77U, 0x3d71ed8ebd84d3d8U, 0xbdd1205e3dffea99U, 0x3e5736443dabc255U,
  0xbb8371d1bde25928U, 0x3e349a2fbe079684U, 0x3dde59063a3650e7U, 0x3b0b57183da56dbfU,
  0xbdb254ffbd6e8efcU, 0x3da23084bd8104dcU, 0x3e72f3093e604372U, 0x3d9e4677bb840330U,
  0xbe45c9d1bcab82ccU, 0xbdb65fc93e24745fU, 0xbd875a273d17747fU, 0xbcd4c4d13df7192bU,
  0x3cc1c6843e3ea9e8U, 0xbcae3a2abc547e25U, 0x3dc6303f3c8d9feaU, 0x3cac8bc03ea59645U,
  0xbd87c6afbc7ee628U, 0x3e1ecb023de8604aU, 0xbe71de893dad5be1U, 0x3d97e94ebd6cbe81U,
  0xbd219b30bcaa4295U, 0xbcc86dae3c2d4e39U, 0xbd2900a8bdc813f6U, 0xbc0abf8abe49a686U,
  0xbe219722bd0d3074U, 0xbbc7a13cbe15cbaeU, 0xbdafbf51bdc19defU, 0xbd27fa3a3d97599fU,
  0x3da1e140bd538df8U, 0xbe1562513d517bc9U, 0xbd3505dabb529574U, 0x3e1c3dfbbd38e285U,
  0xbdabb94abd47abf3U, 0x3d0467003c956a24U, 0x3cb75419bdc16367U, 0x3bf21852be0a14e0U,
  0xbd1153c6bbf8661dU, 0x3ddf4850be5fccfdU, 0x3ddef5243cb7f373U, 0x3bdeaf4abd0a7e64U,
  0x3cc901673cf9656eU, 0xbccd388ebe1cfccaU, 0xbdd354d5bd4e191cU, 0x3d104886bdb851f6U,
  0xbdb3227e3ddb7d91U, 0x3d0e755abd0e689fU, 0xbd772a98be12a3a2U, 0xbea5a4ea3e7b8792U,
  0x3c2552dfbd9d1b12U, 0xbdbd6f1abe6cd769U, 0xbd29d2e3bceb45d1U, 0x39e25d3abe290a95U,
  0x3d3ee1e2bef1b997U, 0x3dcb1b47bd17e097U, 0x3da3d2403e3f3962U, 0x3e047662be019802U,
  0x3e2c12c6be4671cdU, 0x3dbdf6353df5f1a5U, 0xbe1eced73e624707U, 0x3d21334f3e39775aU,
  0xbe4161aebd8011a3U, 0xbf0b1936bdd81fb5U, 0x3e077314bcf50564U, 0x3de2e0f33e386b3cU,
  0xbd7e7146bef9a6d9U, 0xbb8e1eb33e9ab6f2U, 0xbc8c4034bd881f01U, 0x3d5a47e73d576145U,
  0xbd8e34003e56190dU, 0x3e1acab63df17ea2U, 0x3c0bad3d3c7bef45U, 0xbe76e30abe39a185U,
  0xbec12af2bc910115U, 0xbd7824bebd8f1dd0U, 0x3daa7230be670561U, 0x3caac6dcbd0d8634U,
  0x3e14f518be8708daU, 0x3e835dff3cec45e1U, 0x3dd7dcf23af54fe8U, 0xbc6218f0bd5dab3aU,
  0xbd45e9f5be8f1d83U, 0x3d1a0ac9bdd03174U, 0x3d3b3958bdba7a0fU, 0xbdacd003ba35855bU,
  0x3cb37abdbd0e1e47U, 0x3e142db83d90a5a2U, 0x3e2ea65c3b0d2a42U, 0xbe6ff4ed3dfea15cU,
  0x3dd92210bbeaf424U, 0x39c398723c4c7ce2U, 0x3e1ad5ee3ca21c59U, 0x3d935da93aefa077U,
  0xbc3dda96bde8b12fU, 0x3d10b5a7bcf4d55dU, 0x3df286743c87d52eU, 0xbc21fe883e3c9281U,
  0xbd3d7eccbd9b56c1U, 0xbd8178283cf67ea7U, 0xbd9feae93d3c5fd6U, 0x3d6582fb3d787c82U,
  0xbdc93a14be0c91fdU, 0xbc1072f23d13e60cU, 0xbd762ce0bdb04cb8U, 0x3d4df70cbe57879dU,
  0xbe08ba913e41873fU, 0x3d9b5329bd9b93d3U, 0xbdfdac67bd6f5f78U, 0x3d4887bc3d7b1930U,
  0x3c0ab1943d425d34U, 0x3ce2e154bd8c98c8U, 0x3cd6e8ac3ddb116fU, 0x3dd55f3c3dba9b40U,
  0xbe4153263d101e30U, 0x3bdeec5d3e182693U, 0xbdf905a7bde9e71eU, 0x3dc18092bd8b884dU,
  0xba6215053c6b2a2eU, 0xbb965fb8bd458d83U, 0x3c8361b13c92d707U, 0xbcab3404bd62a4d4U,
  0xbdcee8c4be0f5078U, 0xbc44070fbd69605aU, 0xbd4feb49bc492f31U, 0xbd896ab93d53029eU,
  0x3d9360a1bd6a9dc7U, 0x3e00aed2bd39072aU, 0x3e1cf3f7be9e33acU, 0x3e1f63cabe862c86U,
  0x3d4137b1bde2940eU, 0x3c3e3e7bbe82f2b8U, 0x3c72abd2be13fc92U, 0xbe29092d3ce52a81U,
  0x3cd2bdeabcac24e1U, 0x3da5051e3d370f22U, 0x3e1a4c7b3e0881fdU, 0x3e26976cbe2cfc05U,
  0x3d27164fbe3a11fbU, 0x3e23dd5c3cf149feU, 0x3e58a95d3db25b72U, 0x3d8d6dda3e8ac799U,
  0x3c02fa323e1c27f2U, 0xbc4ed3d73cd7b6a7U, 0x3ea38dd43ddded19U, 0x3deedb67be19e92eU,
  0x3e29db393e0aba7cU, 0x3e881e073d1bf7a5U, 0xbe101ddfbd71a5d9U, 0x3d1f078abd99a0dbU,
  0xbdddd3a53dc626a3U, 0x3a97d4b43dad3506U, 0x3d99ba0e3dc8fc01U, 0x3d8a428d3d1bdcdfU,
  0x3ec26c133e030b4aU, 0xbc647dd63de992d5U, 0x3d90adbb3ea1df9fU, 0xbdbd1f9d3da7ea1dU,
  0xbd6428b63d9e37aeU, 0x3d3b5ebbbb0a1208U, 0xbe3ad9103d7e00f8U, 0x3d68535b3e03476eU,
  0xbd2f53653e3adffeU, 0xbd91b06c3d960317U, 0xbdd29d46bd39401bU, 0x3e089ec3bd77f89bU,
  0xbdccfee9bc35621bU, 0xbd1bf8f5be6a9188U, 0x3ec690dabda6af6cU, 0xbccf8016bd2b6484U,
  0xbe06c872bd26fb14U, 0xbe12e00b3e7c5db3U, 0xbeee4ca73de7f87cU, 0x3aa0c2a43cef90dfU,
  0x3c12c0dcbd81f9dcU, 0xbee1eeedbea5193cU, 0xbdd3f619be06cc95U, 0x3e010b07be67a0c2U,
  0xbecfaf61bea6acc1U, 0xbd51edc63dcce552U, 0x3e12f579bd0a40d7U, 0xbe3657073eca371bU,
  0x3d992129bdacbb9eU, 0x3d633a92be5b7cb5U, 0x3ce1e2a43d345fa3U, 0x3dd64aba3d3550d5U,
  0xbe4d42c43e50bc65U, 0x3e38a0a5bcde3b3eU, 0x3dc9d498bea9f57aU, 0x3e19b993bd2a88a4U,
  0x3e08cca23c380a5cU, 0x3db1fdb13e028e38U, 0x3d8cd933bd78d2cbU, 0xbe0f664c3e11105bU,
  0x3daeaec43cf0ded6U, 0xbd3292ef3e78e5e9U, 0x3d0a8a89bdb84386U, 0xbdff3ef9bec51245U,
  0x3de4dab03de698cfU, 0xbe6091e43d12add2U, 0xbcdd56c03e0679e1U, 0x3dfad63ebdac5a3bU,
  0xbd3f7704be1b49e2U, 0x3d4c4189be2cc790U, 0xbd65a1983de3486eU, 0xbe0918313deb57bdU,
  0x3eae9a823d713147U, 0x3c6657d23bdf788bU, 0x3e17b2ff3e6f177bU, 0xbde18e4d3df1003dU,
  0x3de1cf6d3e43bda4U, 0xbd0f24803de4507fU, 0xbccc9511bd396ac5U, 0xbdcb33323cb2ae95U,
  0xbdbcc76dbdef4bacU, 0xbd9111f63db51024U, 0xbe80f648be3287d4U, 0xbd3e21ffbdd5e22eU,
  0x3e0399443db6d311U, 0x3dc30134bd310423U, 0x3d3477ec3e4506eeU, 0x3d86cc72bd809d4aU,
  0xbe6a4fcc3dce52acU, 0x3ea4fb98bced71bdU, 0xbd94d315be780b0fU, 0xbe8f3db03e049a8fU,
  0x3e5ef3eb3e1d5293U, 0xbd89a477bd829e02U, 0x3e7ed480bdc6466fU, 0xbd72ed1bbe0c7b72U,
  0x3e48032ebeb09519U, 0xbe3bc2af3c3ccbb0U, 0xbdf7ee493e9b513cU, 0x3dbee1283e4bd0f6U,
  0x3e97df3c3dee32edU, 0xbc9fa5803dd07f2cU, 0x3c8945dfbd0e7f1aU, 0x3e06513d3e674b70U,
  0x3e963bd13d7b0f80U, 0xbe2c7dbd3dc995b7U, 0x3de2f4fd3d90e7f4U, 0xbc8c5e123e08044dU,
  0x3e9a78ae3e6ba517U, 0x3c7c26d7bd2e3397U, 0xbd2d2797bd88cc56U, 0x3dc95406bde1066dU,
  0xbdbf4d7f3e14234cU, 0x39cac8c83e89f8a3U, 0xbd49ff17be06798cU, 0xbd46bf343d8da3e8U,
  0x3dab1e92be6a6f05U, 0x3e665338bd907b0bU, 0xbcec88963d9ea92aU, 0xbe65b6e73d49e053U,
  0xbe035ae2bc23fa69U, 0xbe388decbd16119bU, 0x3d45b776bd29ec80U, 0x3e1bfe1dbd66f8faU,
  0x3dc480603d2fed95U, 0x3d2a0fb53e15768dU, 0xbb4beef93e243fcbU, 0x3e09eb6a3e060b0aU,
  0x3c1e21253e9a73b2U, 0x3db4eb50bd2013bcU, 0xbcbb070ebe2c6b6dU, 0x3e604b84bd8c877dU,
  0x3dee903abd1d99eaU, 0xbe2714953d61eee9U, 0x3d18517fbebd45beU, 0x3d89578bbce6e099U,
  0xbe7d3a5b3bb973baU, 0x3e254fa7bdd28f63U, 0xbd822f6d3cd83fd2U, 0xbe0da81b3e169fc2U,
  0x3de279313e1e2be5U, 0xbb2ea4a0bef175d0U, 0xbc5ddfb9bc57bc34U, 0x3cd519e9be2f3e6cU,
  0xbd5c318b3de23743U, 0x3dd08811be38b447U, 0xbcb0a45e3dcf85c5U, 0xbe86b63bbd8ec2ecU,
  0xbdc0fb4d3da0bb97U, 0xbedf9c7dbd1d339fU, 0x3dfbb3103d53a84eU, 0x3dac2577bb8d10ccU,
  0x3e54a7553cfa3376U, 0x3e04a5fd3cf639d9U, 0xbc2fbdda3e0649adU, 0xbdb867783d622920U,
  0x3c8653f5be5dd80dU, 0x3d901e9ebe238c93U, 0xbd7b03edbc1a09a2U, 0xbe6505adb9ede41bU,
  0xbdf6a96fbc29da91U, 0xbdb51f273de1c9f1U, 0x3d4048f5be89aba0U, 0x3e7245c6be03ac7bU,
  0x3e06f3763c4f8406U, 0xbe1e17853d12d975U, 0x3d2befc53d099577U, 0x3d2f849dbd3598b7U,
  0xbe3c04b23ddac85aU, 0x3d8286473afacab0U, 0xbce3732fbdb7a735U, 0xbe5e48a4beb0374fU,
  0xbefc87d23d30f895U, 0x3e5ab9923c552682U, 0xbd020a523e271e8fU, 0xbd9750403db3a94eU,
  0xbca3963d3e219a7dU, 0xbe737284be5d0035U, 0xbd166cebbe4bbaa6U, 0x3dac4dbdbe1fadf1U,
  0x3e6dfbde3c4cdaeaU, 0x3aac190a3e56988eU, 0x3e17a6e03d2c481aU, 0x3cb864083e5027ceU,
  0xbe1f3b0cbe0602f0U, 0xbb7c7b5cbce81395U, 0x3dba159abe033f61U, 0x3db840ce3e4474b2U,
  0xbe109dafbc38ef0eU, 0xbdfe9c5abd605ba2U, 0xbc3bc7ff3cc43fe4U, 0x3e063a7abce95ef3U,
  0xbbfdfd92be34769fU, 0xbd675676bdec2efeU, 0xbe6fe3c83dbb4500U, 0x3cf466cebdff3cc9U,
  0xbe08bfcdbe597787U, 0xbdad50633d5a04c3U, 0xbe36e818be855266U, 0x3da3de853d9ef12aU,
  0xbbf798c1bd9bba52U, 0xbe485b9c3c4ebc8fU, 0x3d454b483de5c904U, 0xbd00f043bcc4c0c7U,
  0x3c7cd364bebd8bd6U, 0xbcbca1943e9e83d4U, 0xbd8d32b7bca838f1U, 0xbdd69bbf3d4944d7U,
  0x3da957e63e063ecfU, 0xbda99f1bbd117e1dU, 0x3dc543c5bd0edbd2U, 0x3d9b29983d8f1d4fU,
  0xbda594163d5f6b14U, 0xbd2313f8bd9f97c0U, 0x3d07e10dbd8a6e8aU, 0xbdc1ca9cbde3c595U,
  0xbe538c3dbe67b3feU, 0xbddd564abdff9b28U, 0xbe8b17583d55e891U, 0x3dcce05abc998eaeU,
  0x3caa2792be4b5d77U, 0xbe3bcb16bdde67dbU, 0xbe641a4a3e1084d6U, 0x3dab9ec8bd7a3bebU,
  0x3d0b1a9ebd3541bdU, 0x3d123fca3c1fec39U, 0xbcd552363da29817U, 0x3ba0426e3dc01201U,
  0x3e1613acbe0377c3U, 0xbd901482bdc45cbaU, 0xbce2c4c43e1373b2U, 0xbdc8bbb1be05195dU,
  0x3d525e2fbd1bae29U, 0x3dbad282be3d91fdU, 0xbe1cca443e22cee2U, 0xbd13e582be66d72dU,
  0x3d733dcb3cef3a5cU, 0xbdc531973df3b4d8U, 0xbb3fc1f53dc97380U, 0xbdd7f2bb3ca49877U,
  0xbdcaeed1beb9bf05U, 0xbe08ae483e37396aU, 0xbd9070d0be1a3ff2U, 0x3d3db4283e0eb2a6U,
  0x3e204977bcb91884U, 0x3c9d8917be537ab0U, 0xbe148d363d7858a9U, 0xbe01d96bbe291431U,
  0xbdb86344bd378795U, 0x3d92f4673bea0885U, 0x3d5465933d238728U, 0xbe9532df3cf897deU,
  0x3d7ce7d0be2d8484U, 0xbb572c4f3caf85adU, 0x3d8d719a3d3fcb2aU, 0xbe624dfe3e509588U,
  0xbdb6d2433dc4909aU, 0x3e942f14bd9201adU, 0x3d5bdd71bc89bfd2U, 0x3dcaf4efbd8d75ebU,
  0x3e3af4acbdc04c52U, 0x3c7a15363df9a4b7U, 0x3d2ffe85bd510fceU, 0xbe0ae68e3c087061U,
  0x3c3f7f0dbc900073U, 0x3d7003b7be047470U, 0xbe387eb83d26d488U, 0x3d66c0283dd9db97U,
  0x3e1edc953e19571bU, 0xbc8a3129bd7efc2eU, 0x3d26fd623e263272U, 0xbbc3f8453baeb63cU,
  0x3d8a96b1be311464U, 0xbd399fbdbcebb328U, 0x3dd59ce0baece4c7U, 0x3dcba2fa3e2d2c04U,
  0x3d9cbf83bcaa38b8U, 0xbb6fad8d3c503310U, 0xbe02af3b3c07159eU, 0xbe62dc9dbe0a4666U,
  0x3e9e126abdab90c5U, 0xbd963455bd399c56U, 0xbca0ad633d87beaaU, 0x3e799871bc2f4216U,
  0xbdd1967cbe2ce539U, 0x3e23cfb23c8e2edbU, 0xbdb9f6043c8b8fa0U, 0xbe85cf02bc3bf15bU,
  0x3e307b36bc977ebdU, 0x3ce8d3a6be4c61e9U, 0x3c7363793cfa1df2U, 0x3db5cc24be1500d0U,
  0x3d9aab3d3ccb8ba6U, 0x3e325c043dd1bc92U, 0xbced387d3d961fa6U, 0xbd025c47bca79252U,
  0x3cf6ab5b3ef8ef69U, 0xbe87ada8be68c447U, 0x3d0486f2bdd4da0dU, 0x3d3c40223e8ac376U,
  0xbe9b1474bcb7dc9aU, 0x3c4765a83db19791U, 0xba90044bbe9615e3U, 0xbd1cc235be3c9de0U,
  0xbdcb492d3e35d679U, 0xbf0740babeb47015U, 0xbc30b291bdbd5b97U, 0x3e8db8a3bebeb925U,
  0x3dc8c8383db8082eU, 0xbd0f7e403dd25f98U, 0x3c5570a73e34ae72U, 0xbdbb0cb3bd4ce513U,
  0x3e0a27fdbd2e4745U, 0xbe4b1641bd673cefU, 0xbded4e793e5f742fU, 0xb911bb7abdb4d204U,
  0xbdf1a066bf064843U, 0x3d835b03bd883ddcU, 0xbe9a34c7bdc55579U, 0xbe5812f53d146579U,
  0x3e076240bf0bdc7bU, 0xbe1901c4be9a1b46U, 0xbe91ab583cda6209U, 0xbd992ac4be2786f1U,
  0xbe7eb7c8bede3d56U, 0x3dfcaa8e3c809d9cU, 0x3d9fff2fbd29ab83U, 0xbe8392973e9a2054U,
  0x3cf72a0dbebdd9a7U, 0x3d099aa63d09af63U, 0x3e48a1fbbd3baf23U, 0xbe4f18e23e07dc4cU,
  0x3a5b2649be0bc1f2U, 0xbe36e6ecbe0bcfa1U, 0x3db1a5cbbe1d0d91U, 0x3da52be4bdc7bbeeU,
  0xbda299a33e6233ceU, 0xbcfaa7c13d9c6f1cU, 0x3b237a3dbdbb3637U, 0x3d8b1c0c3e179eaaU,
  0xbe884f8fbd9e4364U, 0x3e92147cbe698244U, 0x3ebfe2a63e512adfU, 0x3e25f009bc650d0bU,
  0x3de85b7b3e885b35U, 0x3eb74554bc8f3e46U, 0x3cde73753dfeefd2U, 0x3e6cb6d6be044d51U,
  0x3e37410b3cde21c8U, 0xb7e9489e3e20ebd8U, 0x3c607b05be386aa1U, 0x3e794aeb3e765c4cU,
  0xbc4c5b7f3da714fbU, 0x3d441c1fbd440265U, 0xbde74a2abcc58bb1U, 0xbc12438dbc7e8d89U,
  0x3c2125ce3e8916edU, 0xbdf933aabd232bfcU, 0xbe591aadbdcdbd4dU, 0xbe503614be18aa59U,
  0xbcfe48cebe4b2ab6U, 0xbbb71a853ac28682U, 0xbe8684663e02cb69U, 0xbccbc9e23e674667U,
  0xbde03c18bd81ff45U, 0x3cf7df453e814c09U, 0xbe7fdbaa3e00c67eU, 0xbe9ee1c9bcd04f36U,
  0x3d202080be52ff0eU, 0x3db1978bbe9eda99U, 0x3e2f2135be1420a5U, 0x3e5b0d05be8602eeU,
  0xbe4c71713d9f3fdeU, 0x3dd200ea3e7a4f1eU, 0x3e0ce5edbd8103b2U, 0xbe489091bd54bf1bU,
  0x3d62a54abdcbdd77U, 0x3e082f6abdb62eebU, 0x3d57190a3d9931f2U, 0xbd5cb4003e220cc2U,
  0x3db546b0bd45aae8U, 0xbcacc0553dd6dc7cU, 0xbe2b734a3e4711b7U, 0xbe0338223b81aa55U,
  0x3e6efa6d3e0964abU, 0x3dc62ca13dd7415dU, 0x3e00a5263cdf9bd2U, 0xbd9f0106be453ae5U,
  0x3dade1513cfd254aU, 0x3e578317bd1fe461U, 0x3c92d98d3d5ea7b7U, 0xbe9fb663be09c4c8U,
  0x3e2efc7a3e8f45abU, 0xbe918661bdc6a008U, 0x3d343275bdfcd820U, 0x3d48a49fbe8b0d45U,
  0xbe27ae5fbe132512U, 0x3dc3cabb3de9618aU, 0xbd9eb7d4bdcef8a1U, 0xbe538337be89d439U,
  0xbd065421be6a16bbU, 0xbf0b17113d2113ecU, 0x3de5244abdca4bf3U, 0x3d84beff3c48bc91U,
  0xbea53b51be329b17U, 0x3c16429f3c1ccc50U, 0xbf0fd2113d3cfc5bU, 0xbdbda6b3bde1b733U,
  0x3ddc6c14bc05021fU, 0xba24c9953e598305U, 0xbe91ec3a3e8fe6c9U, 0x3e17043cbe851ea1U,
  0x3de430d2bdf8458cU, 0x3e983ef4be0ec5baU, 0xbe4a7799be5920aeU, 0xbd11c8313d7b6fdcU,
  0x3d05df9cbd8a8cb2U, 0xbc9362b43e6904adU, 0xbdf000513c1b6f95U, 0x3db202eabdd6b4bbU,
  0x3eb48367be384733U, 0x3ea721fb3dc43a95U, 0x3e3ac3e6bdb532bdU, 0x3ca6bc933e3083d6U,
  0x3e035601be129c39U, 0x3d41bfabbed8d871U, 0x3d77bb2bbd960655U, 0x3e48e476be518147U,
  0xbd52415f3e80e2fbU, 0x3e6cbc97be24e326U, 0x3d9264ef3e3fc4a3U, 0x3e8635e53e1909cfU,
  0x3e490819bc943257U, 0x3e1405aa3e008d42U, 0x39e44c7e3e95f2a6U, 0x3e40ae4a3e08524eU,
  0x3d86ef353c396ba0U, 0x3e0a893e3e20ee7bU, 0x3e157fd93e9697e7U, 0xbe0210d6bd7e481eU,
  0x3c862662bac1eba3U, 0xbea69acdbda2fec3U, 0x3e121a1d3d4b7d0bU, 0x3e689b4d3e4ed5dbU,
  0xbe2e28433dcc9c29U, 0x3e275314bd5c2043U, 0xbe76156d3d446554U, 0xbe51533d3e72b8bdU,
  0x3e4f44f43ea077c4U, 0x3e94eabfbe453effU, 0xbe25c1d1bd7801beU, 0xbcf54f52bd9dc605U,
  0xbcd5066a3d84781aU, 0xbbc36ca73d019686U, 0x3e14d24c3d8cc0d9U, 0x3d37c675be1e10b0U,
  0xbd72d7403dab81c9U, 0xbe16a1a83db9c4adU, 0xbe0756e83cade826U, 0x3d98b8e03cb3b8f9U,
  0xbd820d6bbe37ac75U, 0x3d0164b4bdb5478dU, 0x3da65b01be0f92beU, 0xbd38823c3d25f6d3U,
  0xbe2387bebe6bad13U, 0xbe7e5364be2adbb5U, 0x3d0c52a03c8fa693U, 0x3ecf102cbad22053U,
  0xbe54b287bd270cdaU, 0xbdd777893d196d8bU, 0x3deae4d03d13235bU, 0xbb8c3ac33e9107dbU,
  0x3e2423003ed872b7U, 0xbe8a5ae33d92a563U, 0xbda493be3d07adf5U, 0xbed763a53cbc3e25U,
  0xbd4bb8363e9af43bU, 0xbda78a7fbe82a90aU, 0x3e2137d43e5514c5U, 0xbd1e77e7bdfacc34U,
  0x3b8ee4233d097c69U, 0xbdfd6c043e2ce230U, 0x3d1931b1be05dc1cU, 0xbe6b931dbca33922U,
  0xbe1ddf8c3dca0a50U, 0xbd47bef73d1aa906U, 0xbd1ff6d2be9ecba2U, 0xbd78f5363dbf90f2U,
  0xbcbdf5d43d1db96cU, 0xbebfe1493d95ed6bU, 0xbd7959623de60a0eU, 0xbe426ff83e2e2ab6U,
  0xbcd32abcbdccedc4U, 0xbda6fc17bd970effU, 0x3d89fd6c3e143403U, 0xbd0d981ebc85ca6aU,
  0x3c5071863c6006b0U, 0xbe1657debcee5145U, 0xbe80318a3e82808aU, 0xbcf3a0c13bbdcc6aU,
  0xbde78e863e113d58U, 0xbe69bd893bd76f92U, 0x3ce4a61f3d26d99dU, 0x3e08e9efbd88b905U,
  0x3d9ebde63dd80404U, 0x3db715193dad1f6dU, 0x3d839d74bd38474bU, 0xbe254293be66ef73U,
  0xbdd3d9563d02a342U, 0x3daa8d48bc348be6U, 0xbe069df13dcd383eU, 0x3c74208fbb815914U,
  0xbdb699803db8011fU, 0xbaebe229beb624e0U, 0xbc3786d5be943c4aU, 0x3d6e98b4bf10605aU,
  0xbd1b1f853e26176bU, 0x3ce562f1be4fd14dU, 0xbd00a66fbe061962U, 0xbb50a742be0a8240U,
  0xbae21c7bbe5a590cU, 0xbea916dcbe30943bU, 0x3d0d8162bd098e1cU, 0xbe588e2dbc2a8a79U,
  0xbcf44b02bf0d7609U, 0x3db65636bca153e0U, 0xbe902cf9bddf16e5U, 0xbe254fc4bd8149caU,
  0x3db95b863e88a006U, 0xbe954630bce539f2U, 0xbbb331fabed4f720U, 0xbe81ce49bd44f226U,
  0xbd2bede6be69e8f8U, 0x3d802113be892514U, 0x3e6301f2bd719ce0U, 0xbec9d422be8082cfU,
  0xbdc38b543d32dc51U, 0x3d9dbbe8bb8a14e2U, 0xbde838dcbd61a499U, 0xbc9d31d93d625210U,
  0xbc9810b53ddf92baU, 0xbde3c690bdd0688cU, 0xbd78407f3985d8b5U, 0x3dd518a3bd704598U,
  0xbe89d22c3e001f35U, 0x3d6ee9bf3dbda7ccU, 0x3d9d8535bca0e992U, 0xbe0a5f4d3e5b6036U,
  0x3d03e2b13d872e05U, 0xbe8c6cd3bdd19609U, 0xbce8c047bd42a7f2U, 0xbd90f0bdbd2efec0U,
  0xbdf9b0c53c6e8607U, 0x3dbc1c043daf39b5U, 0xbe189546bcc3ffabU, 0x3c8cbaafbbbbcbb9U,
  0xbda1e39f3dff267aU, 0xbebbd770bd8808c8U, 0xbbe44ca4bdc1b008U, 0x3e02f3d03d07c53fU,
  0xbd333f7bbdf5c609U, 0xbcd863c93df95a93U, 0xbe05493d3de878c3U, 0xbe7cb3a5bdf12d4aU,
  0x3df24e6fbd88451bU, 0x3d00dd003d941e34U, 0x3c6b22d23e0a66feU, 0xbcf95fe83dc771b4U,
  0x3d7a5e903d4a96b1U, 0xbdeebf97bc5f2723U, 0xbd8791f93e10bbd5U, 0x3c526fdbbd80994dU,
  0x3bdca9a2bc140efdU, 0x3df5f23fbd0d05d3U, 0x3d632fc6bd83d844U, 0xbca2f5c1be08b21aU,
  0x3dad4d173e99e074U, 0xbd4002a23dd26b6dU, 0x3da11122be24264bU, 0xbcbbcab1be3e13b8U,
  0x3c8e1d1a3e4936baU, 0x3dc9d5993d4de463U, 0x3e86d74bbd6b6490U, 0xbd21d147be7299abU,
  0x3ca0704e3e1a7373U, 0xbde9bb73be4d025eU, 0xbb8ccd763d03e6d6U, 0xbcdb62c73cad8050U,
  0x3e04bfcfbdbb7786U, 0x3c42aa033c1aa5bfU, 0xb99976bd3c6af883U, 0xbd8bfe6fbda9d21bU,
  0xbdadf06ebe2abbdeU, 0x3d51a14bbe440fecU, 0x3d6b9580bb907a4bU, 0xbdfc526f3d16cfffU,
  0x3d93175e3c4cd221U, 0x3ca362f33cd5d3d0U, 0xbeb7b5333cbe7b1cU, 0xbcf35496bd71c516U,
  0x3e093749bdaf1c76U, 0xbe8f4ff9be1bcc48U, 0x3c21f893bdddd7ecU, 0xbe6a023cbe8399a9U,
  0xbd95b54bbe91a4c4U, 0x3bba3cbebd4f62c9U, 0x3e84319bbd5d48c7U, 0xbcc4c8a23d43ae98U,
  0xbdac31a9bd93192fU, 0xbd78c21fbe8fec34U, 0x3d97a717bdc5a83eU, 0xbd6217643e62ecbaU,
  0xbc931971bd517b5cU, 0x3b9acc44bc9b96faU, 0x3e4473d43d29879fU, 0xbdd83aa1bdfb83efU,
  0x3e181febbd816504U, 0xbeca13f43c9804d6U, 0x3e019a1ebb8cc9ccU, 0x3c84cbd23e0a245dU,
  0x3d8249ad3eb992f3U, 0xbe54447f3e22c4d6U, 0x3dceb99fbe097131U, 0xbe057ef5be2e0a43U,
  0xbcc431f53e28af97U, 0xbd9c7f9b3d8570aaU, 0x3d03fcb2bdabfae1U, 0xbd9113c33d05e2c3U,
  0xbe5dc2c43e843a6fU, 0x3dfb94d5bd508ebdU, 0x3e196694be78e787U, 0x3e2651353d787bffU,
  0x3c0e736c3dcec597U, 0x3db11f95bd860faaU, 0xbddeb76ebd9b2167U, 0xbc9305173e6605f4U,
  0x3cd13fed3d7c0d8fU, 0xbe94bb2dbd38feecU, 0x3d74adfd3e134d91U, 0x3c29709f3c00bf17U,
  0xbd6480a33de81355U, 0x3da9238f3cf73412U, 0xbddf92e03ce64375U, 0xbe4c722fbe16351dU,
  0x3b4374a73e0315dbU, 0x3d17d16ebe889363U, 0x3db4ec29be4f419cU, 0x3dced6cd3e071f24U,
  0xbce1dd71be4183b7U, 0xbd25d72ebe31a314U, 0xbdf75d8dbc3a2061U, 0x3cdefaf5be96ccf2U,
  0xbcf3dd47bd2f5d47U, 0x3e38ba5cbd0ebd61U, 0xbe07ad59be66d86cU, 0x3ddb6072be08d203U,
  0x3e29633dbcfd331fU, 0xbe2043c73e4fdc0eU, 0xbe018ee0bd3e05b3U, 0x3d5822e53e08a826U,
  0xbe7d13003d01b1c8U, 0xbce2f552bd4ec3a2U, 0xbe5ef76dbcc41bb1U, 0xbeb7258abda38726U,
  0xbcec220dbda81270U, 0xbd9bd46abd8babe4U, 0xbe4d32f93e462110U, 0x3d86a611bd5b98c0U,
  0xbe97a291be8279e7U, 0x3e31461abe7dc792U, 0x3e446f3d3be63632U, 0x3dac8229bc3760f2U,
  0x3dc74f88bd467067U, 0xbefe20cebdcbc990U, 0xbe45598d3d46e47dU, 0x3e8dd7e4bd419aa5U,
  0xbe35fdda3e24c9ffU, 0xbe0313583e278191U, 0xbdef3250bde117f5U, 0xbe8c143abe8e0be3U,
  0xbe345050be364722U, 0x3c38e76abd9ad033U, 0x3d2e5741be4088bdU, 0xbe34aa5bbf044530U,
  0x3e2c7cbdbdc09270U, 0xbc846817be2a633bU, 0xbdd3b0cb3e569b23U, 0xbbd87aab3d77706bU,
  0x3da492d9be510fe0U, 0xbe775ac8be997b7dU, 0xbd955f683e284444U, 0xbe7d116b3e723b4cU,
  0x3e0877d33c36e92fU, 0x3d311a85bad1701bU, 0x3dccc300bd5a1901U, 0x3e72330d3dcb8b0dU,
  0xbbd0cefabe129dcfU, 0xbd113892bee01d4fU, 0x3da83d53be0f16baU, 0xbdbc59fa3c3078a2U,
  0xbdc099be3d9114feU, 0x3d6f6f473cf85c6cU, 0xbf022b3abdf21f5cU, 0x3e1b61453d36471cU,
  0x3d46f2ff3ec52d96U, 0x3f00352c3b60a5a2U, 0x3e329501bd9fecdfU, 0x3e1dce0cbf019a08U,
  0xbe8a2eb23e153edfU, 0x3e0991eebdd36027U, 0xbf242df33dbe2eb7U, 0xbdb2f8c3bdb91d40U,
  0x3da96639bec9c282U, 0x3e5de4f5be9d34e3U, 0x3d021705be3a254bU, 0x3e4a1379be45bc98U,
  0xbd9e409ebc4a5e77U, 0x3d5161b5bcd9299aU, 0xbddf927dbe1fc5cfU, 0xbca3d9a5bea1eb4eU,
  0x3d76639fbddb8131U, 0xbc054029bda91199U, 0x3b9275623e874fe4U, 0xbe63ab3f3e48e169U,
  0x3d16cfe4be200ac7U, 0xbdcc9d62381c0d97U, 0xbe19f4b0be13625fU, 0x3dd1c939bdd295c8U,
  0x3dc702423dd7188dU, 0xbce7e99d3e0edc64U, 0x3de8c2fcbe06021aU, 0x3a136c603d975584U,
  0x3d905a823d9b3f65U, 0x3da9495e3d4bd7e2U, 0xbddcf68dbda42d70U, 0x3d0c7b613a8860c8U,
  0x3dd1023a3e2f3fc9U, 0xbd8152253e4cd511U, 0x3e5b964ebe71ffc4U, 0x3e13e793bd45f17eU,
  0xbdfef6a33ddb7ff6U, 0x3dcad413bb0d27c4U, 0xbe4707803c803b55U, 0xbe3033563df35a1bU,
  0xbcd381b23cf34becU, 0x3e3f7a8cbdff030eU, 0xbdb20419bca96c10U, 0x3d99dbb83d506556U,
  0xbc8395cd3cfd095eU, 0x3d9b9a6cbcc7e18cU, 0xbd5bdc2f3db56078U, 0xbcb68aa73d2763bcU,
  0xbca51c223c9ebfa2U, 0x3e25ef753ccbcf6aU, 0x3de52fc73d39e947U, 0x3dd4188dbc356c7cU,
  0x3c23203d3e4d1c38U, 0x3de4d80d3e8816eaU, 0xbd264912be4b571bU, 0x3e36b26e3df7d18fU,
  0xbe3e537b3e966d1bU, 0xbe95175d3d80d87bU, 0xbd0507363e5d880eU, 0xbdbd8827bc0c6dcaU,
  0xbeae70a0be4a09c9U, 0x3e3b4ed9bd3a7c71U, 0x3e8b0eb73e305c2dU, 0xbca1bc9e3d5f64feU,
  0x3d944606be95333bU, 0x3d8768e2bd630ff0U, 0xbd97db3ebe3d4f38U, 0xbdd9d443be42ec74U,
  0xbd1bd4cd3ec27dacU, 0x3e7155d03d412ae9U, 0x3e04c6cd3c827430U, 0xbd92fa20bde09f5cU,
  0xbd9de7fabe293afaU, 0xbe3dea7ebe966cb1U, 0x3e29bd71bdc0d58fU, 0xbdf8c3c73d430ab3U,
  0xbc1d3621bd208ec1U, 0xbcce4a31bd5fa55eU, 0x3e0bf769be9be833U, 0x3e55a5053e09b99bU,
  0xbcedd2ffbe46ce7cU, 0xbdd286ecbe15e768U, 0xbe170a993e8cfdffU, 0xbd36b2be3e0f8b59U,
  0xbd95eec5bf02c3d2U, 0x3cc4b5ec3e1063e1U, 0xbdb433693d76ee0aU, 0xbc81c7f53e350317U,
  0x3d54dd71be82ad9cU, 0x3e224861becf81f5U, 0xbe32c6673d979e33U, 0xbe07c5063e699504U,
  0x3da22773bd64d294U, 0xbd4ba4c23e3485c5U, 0xbd4acad03dbf9ea8U, 0xbe33ae583dcd014cU,
  0x3e00ab34bd7a3571U, 0xbd40e3233d2333c0U, 0x3d804069be442ff4U, 0x3d9eaea23d24a7e4U,
  0xbe260fcebeb5410cU, 0x3cde998e3dfeb51fU, 0xbe55c6c53e83faaaU, 0xbdd525b43de07b99U,
  0x3e920acd3e7adef7U, 0xbe1485923a04da49U, 0xbda246e43d3bf4abU, 0xbda88de23c7e0bbeU,
  0x3e67cf493df2f1cdU, 0x3d0a73733db998dcU, 0xbd3d64243e3e345dU, 0x3ce23c86bdac10beU,
  0xbc854b9a3dc34272U, 0x3cfeb2d7bda6a91aU, 0x3d2290e0bdc902c0U, 0xbe8425eabdbe6987U,
  0xbb3e3953bdf60c39U, 0x3db0c98abe045c3bU, 0x3e2ba5c73dc370a8U, 0x3c8da529bd712672U,
  0x3d77138b3e0628b3U, 0x3d0a51103ade7207U, 0x3e39e091bd908564U, 0x3c8385a23c23f596U,
  0xbdb41706be49e146U, 0x3da5a9353dfc31f0U, 0x3a9dbdb1bdf91400U, 0xbda6f8c7bdffb170U,
  0xbd560b4e3d203b14U, 0x3d85e8673e787868U, 0x3cdcf8363d1b3f9dU, 0x3d94cfbb3e176743U,
